{
  "version": "1.0",
  "truncation": null,
  "padding": null,
  "added_tokens": [
    {
      "id": 0,
      "content": "[PAD]",
      "single_word": false,
      "lstrip": false,
      "rstrip": false,
      "normalized": false,
      "special": true
    },
    {
      "id": 1,
      "content": "[CLS]",
      "single_word": false,
      "lstrip": false,
      "rstrip": false,
      "normalized": false,
      "special": true
    },
    {
      "id": 2,
      "content": "[SEP]",
      "single_word": false,
      "lstrip": false,
      "rstrip": false,
      "normalized": false,
      "special": true
    },
    {
      "id": 3,
      "content": "[MASK]",
      "single_word": false,
      "lstrip": false,
      "rstrip": false,
      "normalized": false,
      "special": true
    },
    {
      "id": 4,
      "content": "[EXT_0]",
      "single_word": false,
      "lstrip": false,
      "rstrip": false,
      "normalized": false,
      "special": true
    },
    {
      "id": 5,
      "content": "[EXT_1]",
      "single_word": false,
      "lstrip": false,
      "rstrip": false,
      "normalized": false,
      "special": true
    },
    {
      "id": 6,
      "content": "[EXT_2]",
      "single_word": false,
      "lstrip": false,
      "rstrip": false,
      "normalized": false,
      "special": true
    },
    {
      "id": 7,
      "content": "[EXT_3]",
      "single_word": false,
      "lstrip": false,
      "rstrip": false,
      "normalized": false,
      "special": true
    },
    {
      "id": 8,
      "content": "[EXT_4]",
      "single_word": false,
      "lstrip": false,
      "rstrip": false,
      "normalized": false,
      "special": true
    },
    {
      "id": 9,
      "content": "[EXT_5]",
      "single_word": false,
      "lstrip": false,
      "rstrip": false,
      "normalized": false,
      "special": true
    },
    {
      "id": 10,
      "content": "[EXT_6]",
      "single_word": false,
      "lstrip": false,
      "rstrip": false,
      "normalized": false,
      "special": true
    },
    {
      "id": 11,
      "content": "[EXT_7]",
      "single_word": false,
      "lstrip": false,
      "rstrip": false,
      "normalized": false,
      "special": true
    },
    {
      "id": 12,
      "content": "[EXT_8]",
      "single_word": false,
      "lstrip": false,
      "rstrip": false,
      "normalized": false,
      "special": true
    },
    {
      "id": 13,
      "content": "[EXT_9]",
      "single_word": false,
      "lstrip": false,
      "rstrip": false,
      "normalized": false,
      "special": true
    },
    {
      "id": 14,
      "content": "[EXT_10]",
      "single_word": false,
      "lstrip": false,
      "rstrip": false,
      "normalized": false,
      "special": true
    },
    {
      "id": 15,
      "content": "[EXT_11]",
      "single_word": false,
      "lstrip": false,
      "rstrip": false,
      "normalized": false,
      "special": true
    },
    {
      "id": 16,
      "content": "[EXT_12]",
      "single_word": false,
      "lstrip": false,
      "rstrip": false,
      "normalized": false,
      "special": true
    },
    {
      "id": 17,
      "content": "[EXT_13]",
      "single_word": false,
      "lstrip": false,
      "rstrip": false,
      "normalized": false,
      "special": true
    },
    {
      "id": 18,
      "content": "[EXT_14]",
      "single_word": false,
      "lstrip": false,
      "rstrip": false,
      "normalized": false,
      "special": true
    },
    {
      "id": 19,
      "content": "[EXT_15]",
      "single_word": false,
      "lstrip": false,
      "rstrip": false,
      "normalized": false,
      "special": true
    },
    {
      "id": 20,
      "content": "[EXT_16]",
      "single_word": false,
      "lstrip": false,
      "rstrip": false,
      "normalized": false,
      "special": true
    },
    {
      "id": 21,
      "content": "[EXT_17]",
      "single_word": false,
      "lstrip": false,
      "rstrip": false,
      "normalized": false,
      "special": true
    },
    {
      "id": 22,
      "content": "[EXT_18]",
      "single_word": false,
      "lstrip": false,
      "rstrip": false,
      "normalized": false,
      "special": true
    },
    {
      "id": 23,
      "content": "[EXT_19]",
      "single_word": false,
      "lstrip": false,
      "rstrip": false,
      "normalized": false,
      "special": true
    },
    {
      "id": 24,
      "content": "[EXT_20]",
      "single_word": false,
      "lstrip": false,
      "rstrip": false,
      "normalized": false,
      "special": true
    },
    {
      "id": 25,
      "content": "[EXT_21]",
      "single_word": false,
      "lstrip": false,
      "rstrip": false,
      "normalized": false,
      "special": true
    },
    {
      "id": 26,
      "content": "[EXT_22]",
      "single_word": false,
      "lstrip": false,
      "rstrip": false,
      "normalized": false,
      "special": true
    },
    {
      "id": 27,
      "content": "[EXT_23]",
      "single_word": false,
      "lstrip": false,
      "rstrip": false,
      "normalized": false,
      "special": true
    },
    {
      "id": 28,
      "content": "[EXT_24]",
      "single_word": false,
      "lstrip": false,
      "rstrip": false,
      "normalized": false,
      "special": true
    },
    {
      "id": 29,
      "content": "[EXT_25]",
      "single_word": false,
      "lstrip": false,
      "rstrip": false,
      "normalized": false,
      "special": true
    },
    {
      "id": 30,
      "content": "[EXT_26]",
      "single_word": false,
      "lstrip": false,
      "rstrip": false,
      "normalized": false,
      "special": true
    },
    {
      "id": 31,
      "content": "[EXT_27]",
      "single_word": false,
      "lstrip": false,
      "rstrip": false,
      "normalized": false,
      "special": true
    },
    {
      "id": 32,
      "content": "[EXT_28]",
      "single_word": false,
      "lstrip": false,
      "rstrip": false,
      "normalized": false,
      "special": true
    },
    {
      "id": 33,
      "content": "[EXT_29]",
      "single_word": false,
      "lstrip": false,
      "rstrip": false,
      "normalized": false,
      "special": true
    },
    {
      "id": 34,
      "content": "[EXT_30]",
      "single_word": false,
      "lstrip": false,
      "rstrip": false,
      "normalized": false,
      "special": true
    },
    {
      "id": 35,
      "content": "[EXT_31]",
      "single_word": false,
      "lstrip": false,
      "rstrip": false,
      "normalized": false,
      "special": true
    },
    {
      "id": 36,
      "content": "[EXT_32]",
      "single_word": false,
      "lstrip": false,
      "rstrip": false,
      "normalized": false,
      "special": true
    },
    {
      "id": 37,
      "content": "[EXT_33]",
      "single_word": false,
      "lstrip": false,
      "rstrip": false,
      "normalized": false,
      "special": true
    },
    {
      "id": 38,
      "content": "[EXT_34]",
      "single_word": false,
      "lstrip": false,
      "rstrip": false,
      "normalized": false,
      "special": true
    },
    {
      "id": 39,
      "content": "[EXT_35]",
      "single_word": false,
      "lstrip": false,
      "rstrip": false,
      "normalized": false,
      "special": true
    },
    {
      "id": 40,
      "content": "[EXT_36]",
      "single_word": false,
      "lstrip": false,
      "rstrip": false,
      "normalized": false,
      "special": true
    },
    {
      "id": 41,
      "content": "[EXT_37]",
      "single_word": false,
      "lstrip": false,
      "rstrip": false,
      "normalized": false,
      "special": true
    },
    {
      "id": 42,
      "content": "[EXT_38]",
      "single_word": false,
      "lstrip": false,
      "rstrip": false,
      "normalized": false,
      "special": true
    },
    {
      "id": 43,
      "content": "[EXT_39]",
      "single_word": false,
      "lstrip": false,
      "rstrip": false,
      "normalized": false,
      "special": true
    },
    {
      "id": 44,
      "content": "[EXT_40]",
      "single_word": false,
      "lstrip": false,
      "rstrip": false,
      "normalized": false,
      "special": true
    },
    {
      "id": 45,
      "content": "[EXT_41]",
      "single_word": false,
      "lstrip": false,
      "rstrip": false,
      "normalized": false,
      "special": true
    },
    {
      "id": 46,
      "content": "[EXT_42]",
      "single_word": false,
      "lstrip": false,
      "rstrip": false,
      "normalized": false,
      "special": true
    },
    {
      "id": 47,
      "content": "[EXT_43]",
      "single_word": false,
      "lstrip": false,
      "rstrip": false,
      "normalized": false,
      "special": true
    },
    {
      "id": 48,
      "content": "[EXT_44]",
      "single_word": false,
      "lstrip": false,
      "rstrip": false,
      "normalized": false,
      "special": true
    },
    {
      "id": 49,
      "content": "[EXT_45]",
      "single_word": false,
      "lstrip": false,
      "rstrip": false,
      "normalized": false,
      "special": true
    },
    {
      "id": 50,
      "content": "[EXT_46]",
      "single_word": false,
      "lstrip": false,
      "rstrip": false,
      "normalized": false,
      "special": true
    },
    {
      "id": 51,
      "content": "[EXT_47]",
      "single_word": false,
      "lstrip": false,
      "rstrip": false,
      "normalized": false,
      "special": true
    },
    {
      "id": 52,
      "content": "[EXT_48]",
      "single_word": false,
      "lstrip": false,
      "rstrip": false,
      "normalized": false,
      "special": true
    },
    {
      "id": 53,
      "content": "[EXT_49]",
      "single_word": false,
      "lstrip": false,
      "rstrip": false,
      "normalized": false,
      "special": true
    },
    {
      "id": 54,
      "content": "[EXT_50]",
      "single_word": false,
      "lstrip": false,
      "rstrip": false,
      "normalized": false,
      "special": true
    },
    {
      "id": 55,
      "content": "[EXT_51]",
      "single_word": false,
      "lstrip": false,
      "rstrip": false,
      "normalized": false,
      "special": true
    },
    {
      "id": 56,
      "content": "[EXT_52]",
      "single_word": false,
      "lstrip": false,
      "rstrip": false,
      "normalized": false,
      "special": true
    },
    {
      "id": 57,
      "content": "[EXT_53]",
      "single_word": false,
      "lstrip": false,
      "rstrip": false,
      "normalized": false,
      "special": true
    },
    {
      "id": 58,
      "content": "[EXT_54]",
      "single_word": false,
      "lstrip": false,
      "rstrip": false,
      "normalized": false,
      "special": true
    },
    {
      "id": 59,
      "content": "[EXT_55]",
      "single_word": false,
      "lstrip": false,
      "rstrip": false,
      "normalized": false,
      "special": true
    },
    {
      "id": 60,
      "content": "[EXT_56]",
      "single_word": false,
      "lstrip": false,
      "rstrip": false,
      "normalized": false,
      "special": true
    },
    {
      "id": 61,
      "content": "[EXT_57]",
      "single_word": false,
      "lstrip": false,
      "rstrip": false,
      "normalized": false,
      "special": true
    },
    {
      "id": 62,
      "content": "[EXT_58]",
      "single_word": false,
      "lstrip": false,
      "rstrip": false,
      "normalized": false,
      "special": true
    },
    {
      "id": 63,
      "content": "[EXT_59]",
      "single_word": false,
      "lstrip": false,
      "rstrip": false,
      "normalized": false,
      "special": true
    },
    {
      "id": 64,
      "content": "[EXT_60]",
      "single_word": false,
      "lstrip": false,
      "rstrip": false,
      "normalized": false,
      "special": true
    },
    {
      "id": 65,
      "content": "[EXT_61]",
      "single_word": false,
      "lstrip": false,
      "rstrip": false,
      "normalized": false,
      "special": true
    },
    {
      "id": 66,
      "content": "[EXT_62]",
      "single_word": false,
      "lstrip": false,
      "rstrip": false,
      "normalized": false,
      "special": true
    },
    {
      "id": 67,
      "content": "[EXT_63]",
      "single_word": false,
      "lstrip": false,
      "rstrip": false,
      "normalized": false,
      "special": true
    },
    {
      "id": 68,
      "content": "[EXT_64]",
      "single_word": false,
      "lstrip": false,
      "rstrip": false,
      "normalized": false,
      "special": true
    },
    {
      "id": 69,
      "content": "[EXT_65]",
      "single_word": false,
      "lstrip": false,
      "rstrip": false,
      "normalized": false,
      "special": true
    },
    {
      "id": 70,
      "content": "[EXT_66]",
      "single_word": false,
      "lstrip": false,
      "rstrip": false,
      "normalized": false,
      "special": true
    },
    {
      "id": 71,
      "content": "[EXT_67]",
      "single_word": false,
      "lstrip": false,
      "rstrip": false,
      "normalized": false,
      "special": true
    },
    {
      "id": 72,
      "content": "[EXT_68]",
      "single_word": false,
      "lstrip": false,
      "rstrip": false,
      "normalized": false,
      "special": true
    },
    {
      "id": 73,
      "content": "[EXT_69]",
      "single_word": false,
      "lstrip": false,
      "rstrip": false,
      "normalized": false,
      "special": true
    },
    {
      "id": 74,
      "content": "[EXT_70]",
      "single_word": false,
      "lstrip": false,
      "rstrip": false,
      "normalized": false,
      "special": true
    },
    {
      "id": 75,
      "content": "[EXT_71]",
      "single_word": false,
      "lstrip": false,
      "rstrip": false,
      "normalized": false,
      "special": true
    },
    {
      "id": 76,
      "content": "[EXT_72]",
      "single_word": false,
      "lstrip": false,
      "rstrip": false,
      "normalized": false,
      "special": true
    },
    {
      "id": 77,
      "content": "[EXT_73]",
      "single_word": false,
      "lstrip": false,
      "rstrip": false,
      "normalized": false,
      "special": true
    },
    {
      "id": 78,
      "content": "[EXT_74]",
      "single_word": false,
      "lstrip": false,
      "rstrip": false,
      "normalized": false,
      "special": true
    },
    {
      "id": 79,
      "content": "[EXT_75]",
      "single_word": false,
      "lstrip": false,
      "rstrip": false,
      "normalized": false,
      "special": true
    },
    {
      "id": 80,
      "content": "[EXT_76]",
      "single_word": false,
      "lstrip": false,
      "rstrip": false,
      "normalized": false,
      "special": true
    },
    {
      "id": 81,
      "content": "[EXT_77]",
      "single_word": false,
      "lstrip": false,
      "rstrip": false,
      "normalized": false,
      "special": true
    },
    {
      "id": 82,
      "content": "[EXT_78]",
      "single_word": false,
      "lstrip": false,
      "rstrip": false,
      "normalized": false,
      "special": true
    },
    {
      "id": 83,
      "content": "[EXT_79]",
      "single_word": false,
      "lstrip": false,
      "rstrip": false,
      "normalized": false,
      "special": true
    },
    {
      "id": 84,
      "content": "[EXT_80]",
      "single_word": false,
      "lstrip": false,
      "rstrip": false,
      "normalized": false,
      "special": true
    },
    {
      "id": 85,
      "content": "[EXT_81]",
      "single_word": false,
      "lstrip": false,
      "rstrip": false,
      "normalized": false,
      "special": true
    },
    {
      "id": 86,
      "content": "[EXT_82]",
      "single_word": false,
      "lstrip": false,
      "rstrip": false,
      "normalized": false,
      "special": true
    },
    {
      "id": 87,
      "content": "[EXT_83]",
      "single_word": false,
      "lstrip": false,
      "rstrip": false,
      "normalized": false,
      "special": true
    },
    {
      "id": 88,
      "content": "[EXT_84]",
      "single_word": false,
      "lstrip": false,
      "rstrip": false,
      "normalized": false,
      "special": true
    },
    {
      "id": 89,
      "content": "[EXT_85]",
      "single_word": false,
      "lstrip": false,
      "rstrip": false,
      "normalized": false,
      "special": true
    },
    {
      "id": 90,
      "content": "[EXT_86]",
      "single_word": false,
      "lstrip": false,
      "rstrip": false,
      "normalized": false,
      "special": true
    },
    {
      "id": 91,
      "content": "[EXT_87]",
      "single_word": false,
      "lstrip": false,
      "rstrip": false,
      "normalized": false,
      "special": true
    },
    {
      "id": 92,
      "content": "[EXT_88]",
      "single_word": false,
      "lstrip": false,
      "rstrip": false,
      "normalized": false,
      "special": true
    },
    {
      "id": 93,
      "content": "[EXT_89]",
      "single_word": false,
      "lstrip": false,
      "rstrip": false,
      "normalized": false,
      "special": true
    },
    {
      "id": 94,
      "content": "[EXT_90]",
      "single_word": false,
      "lstrip": false,
      "rstrip": false,
      "normalized": false,
      "special": true
    },
    {
      "id": 95,
      "content": "[EXT_91]",
      "single_word": false,
      "lstrip": false,
      "rstrip": false,
      "normalized": false,
      "special": true
    },
    {
      "id": 96,
      "content": "[EXT_92]",
      "single_word": false,
      "lstrip": false,
      "rstrip": false,
      "normalized": false,
      "special": true
    },
    {
      "id": 97,
      "content": "[EXT_93]",
      "single_word": false,
      "lstrip": false,
      "rstrip": false,
      "normalized": false,
      "special": true
    },
    {
      "id": 98,
      "content": "[EXT_94]",
      "single_word": false,
      "lstrip": false,
      "rstrip": false,
      "normalized": false,
      "special": true
    },
    {
      "id": 99,
      "content": "[EXT_95]",
      "single_word": false,
      "lstrip": false,
      "rstrip": false,
      "normalized": false,
      "special": true
    },
    {
      "id": 100,
      "content": "[EXT_96]",
      "single_word": false,
      "lstrip": false,
      "rstrip": false,
      "normalized": false,
      "special": true
    },
    {
      "id": 101,
      "content": "[EXT_97]",
      "single_word": false,
      "lstrip": false,
      "rstrip": false,
      "normalized": false,
      "special": true
    },
    {
      "id": 102,
      "content": "[EXT_98]",
      "single_word": false,
      "lstrip": false,
      "rstrip": false,
      "normalized": false,
      "special": true
    },
    {
      "id": 103,
      "content": "[EXT_99]",
      "single_word": false,
      "lstrip": false,
      "rstrip": false,
      "normalized": false,
      "special": true
    },
    {
      "id": 104,
      "content": "[EXT_100]",
      "single_word": false,
      "lstrip": false,
      "rstrip": false,
      "normalized": false,
      "special": true
    },
    {
      "id": 105,
      "content": "[EXT_101]",
      "single_word": false,
      "lstrip": false,
      "rstrip": false,
      "normalized": false,
      "special": true
    },
    {
      "id": 106,
      "content": "[EXT_102]",
      "single_word": false,
      "lstrip": false,
      "rstrip": false,
      "normalized": false,
      "special": true
    },
    {
      "id": 107,
      "content": "[EXT_103]",
      "single_word": false,
      "lstrip": false,
      "rstrip": false,
      "normalized": false,
      "special": true
    },
    {
      "id": 108,
      "content": "[EXT_104]",
      "single_word": false,
      "lstrip": false,
      "rstrip": false,
      "normalized": false,
      "special": true
    },
    {
      "id": 109,
      "content": "[EXT_105]",
      "single_word": false,
      "lstrip": false,
      "rstrip": false,
      "normalized": false,
      "special": true
    },
    {
      "id": 110,
      "content": "[EXT_106]",
      "single_word": false,
      "lstrip": false,
      "rstrip": false,
      "normalized": false,
      "special": true
    },
    {
      "id": 111,
      "content": "[EXT_107]",
      "single_word": false,
      "lstrip": false,
      "rstrip": false,
      "normalized": false,
      "special": true
    },
    {
      "id": 112,
      "content": "[EXT_108]",
      "single_word": false,
      "lstrip": false,
      "rstrip": false,
      "normalized": false,
      "special": true
    },
    {
      "id": 113,
      "content": "[EXT_109]",
      "single_word": false,
      "lstrip": false,
      "rstrip": false,
      "normalized": false,
      "special": true
    },
    {
      "id": 114,
      "content": "[EXT_110]",
      "single_word": false,
      "lstrip": false,
      "rstrip": false,
      "normalized": false,
      "special": true
    },
    {
      "id": 115,
      "content": "[EXT_111]",
      "single_word": false,
      "lstrip": false,
      "rstrip": false,
      "normalized": false,
      "special": true
    },
    {
      "id": 116,
      "content": "[EXT_112]",
      "single_word": false,
      "lstrip": false,
      "rstrip": false,
      "normalized": false,
      "special": true
    },
    {
      "id": 117,
      "content": "[EXT_113]",
      "single_word": false,
      "lstrip": false,
      "rstrip": false,
      "normalized": false,
      "special": true
    },
    {
      "id": 118,
      "content": "[EXT_114]",
      "single_word": false,
      "lstrip": false,
      "rstrip": false,
      "normalized": false,
      "special": true
    },
    {
      "id": 119,
      "content": "[EXT_115]",
      "single_word": false,
      "lstrip": false,
      "rstrip": false,
      "normalized": false,
      "special": true
    },
    {
      "id": 120,
      "content": "[EXT_116]",
      "single_word": false,
      "lstrip": false,
      "rstrip": false,
      "normalized": false,
      "special": true
    },
    {
      "id": 121,
      "content": "[EXT_117]",
      "single_word": false,
      "lstrip": false,
      "rstrip": false,
      "normalized": false,
      "special": true
    },
    {
      "id": 122,
      "content": "[EXT_118]",
      "single_word": false,
      "lstrip": false,
      "rstrip": false,
      "normalized": false,
      "special": true
    },
    {
      "id": 123,
      "content": "[EXT_119]",
      "single_word": false,
      "lstrip": false,
      "rstrip": false,
      "normalized": false,
      "special": true
    },
    {
      "id": 124,
      "content": "[EXT_120]",
      "single_word": false,
      "lstrip": false,
      "rstrip": false,
      "normalized": false,
      "special": true
    },
    {
      "id": 125,
      "content": "[EXT_121]",
      "single_word": false,
      "lstrip": false,
      "rstrip": false,
      "normalized": false,
      "special": true
    },
    {
      "id": 126,
      "content": "[EXT_122]",
      "single_word": false,
      "lstrip": false,
      "rstrip": false,
      "normalized": false,
      "special": true
    },
    {
      "id": 127,
      "content": "[EXT_123]",
      "single_word": false,
      "lstrip": false,
      "rstrip": false,
      "normalized": false,
      "special": true
    }
  ],
  "normalizer": {
    "type": "Sequence",
    "normalizers": [
      {
        "type": "NFC"
      }
    ]
  },
  "pre_tokenizer": {
    "type": "Sequence",
    "pretokenizers": [
      {
        "type": "Split",
        "pattern": {
          "String": "(?i:'s|'t|'re|'ve|'m|'ll|'d)|[^\\r\\n\\p{L}\\p{N}]?\\p{L}+|\\p{N}| ?[^\\s\\p{L}\\p{N}]+[\\r\\n]*|\\s*[\\r\\n]+|\\s+(?!\\S)|\\s+"
        },
        "behavior": "Isolated",
        "invert": false
      },
      {
        "type": "Digits",
        "individual_digits": true
      },
      {
        "type": "Split",
        "pattern": {
          "String": " "
        },
        "behavior": "Isolated",
        "invert": false
      },
      {
        "type": "ByteLevel",
        "add_prefix_space": false,
        "trim_offsets": true,
        "use_regex": false
      }
    ]
  },
  "post_processor": {
    "type": "ByteLevel",
    "add_prefix_space": true,
    "trim_offsets": false,
    "use_regex": true
  },
  "decoder": null,
  "model": {
    "type": "BPE",
    "dropout": null,
    "unk_token": null,
    "continuing_subword_prefix": null,
    "end_of_word_suffix": null,
    "fuse_unk": false,
    "byte_fallback": true,
    "ignore_merges": false,
    "vocab": {
      "[PAD]": 0,
      "[CLS]": 1,
      "[SEP]": 2,
      "[MASK]": 3,
      "[EXT_0]": 4,
      "[EXT_1]": 5,
      "[EXT_2]": 6,
      "[EXT_3]": 7,
      "[EXT_4]": 8,
      "[EXT_5]": 9,
      "[EXT_6]": 10,
      "[EXT_7]": 11,
      "[EXT_8]": 12,
      "[EXT_9]": 13,
      "[EXT_10]": 14,
      "[EXT_11]": 15,
      "[EXT_12]": 16,
      "[EXT_13]": 17,
      "[EXT_14]": 18,
      "[EXT_15]": 19,
      "[EXT_16]": 20,
      "[EXT_17]": 21,
      "[EXT_18]": 22,
      "[EXT_19]": 23,
      "[EXT_20]": 24,
      "[EXT_21]": 25,
      "[EXT_22]": 26,
      "[EXT_23]": 27,
      "[EXT_24]": 28,
      "[EXT_25]": 29,
      "[EXT_26]": 30,
      "[EXT_27]": 31,
      "[EXT_28]": 32,
      "[EXT_29]": 33,
      "[EXT_30]": 34,
      "[EXT_31]": 35,
      "[EXT_32]": 36,
      "[EXT_33]": 37,
      "[EXT_34]": 38,
      "[EXT_35]": 39,
      "[EXT_36]": 40,
      "[EXT_37]": 41,
      "[EXT_38]": 42,
      "[EXT_39]": 43,
      "[EXT_40]": 44,
      "[EXT_41]": 45,
      "[EXT_42]": 46,
      "[EXT_43]": 47,
      "[EXT_44]": 48,
      "[EXT_45]": 49,
      "[EXT_46]": 50,
      "[EXT_47]": 51,
      "[EXT_48]": 52,
      "[EXT_49]": 53,
      "[EXT_50]": 54,
      "[EXT_51]": 55,
      "[EXT_52]": 56,
      "[EXT_53]": 57,
      "[EXT_54]": 58,
      "[EXT_55]": 59,
      "[EXT_56]": 60,
      "[EXT_57]": 61,
      "[EXT_58]": 62,
      "[EXT_59]": 63,
      "[EXT_60]": 64,
      "[EXT_61]": 65,
      "[EXT_62]": 66,
      "[EXT_63]": 67,
      "[EXT_64]": 68,
      "[EXT_65]": 69,
      "[EXT_66]": 70,
      "[EXT_67]": 71,
      "[EXT_68]": 72,
      "[EXT_69]": 73,
      "[EXT_70]": 74,
      "[EXT_71]": 75,
      "[EXT_72]": 76,
      "[EXT_73]": 77,
      "[EXT_74]": 78,
      "[EXT_75]": 79,
      "[EXT_76]": 80,
      "[EXT_77]": 81,
      "[EXT_78]": 82,
      "[EXT_79]": 83,
      "[EXT_80]": 84,
      "[EXT_81]": 85,
      "[EXT_82]": 86,
      "[EXT_83]": 87,
      "[EXT_84]": 88,
      "[EXT_85]": 89,
      "[EXT_86]": 90,
      "[EXT_87]": 91,
      "[EXT_88]": 92,
      "[EXT_89]": 93,
      "[EXT_90]": 94,
      "[EXT_91]": 95,
      "[EXT_92]": 96,
      "[EXT_93]": 97,
      "[EXT_94]": 98,
      "[EXT_95]": 99,
      "[EXT_96]": 100,
      "[EXT_97]": 101,
      "[EXT_98]": 102,
      "[EXT_99]": 103,
      "[EXT_100]": 104,
      "[EXT_101]": 105,
      "[EXT_102]": 106,
      "[EXT_103]": 107,
      "[EXT_104]": 108,
      "[EXT_105]": 109,
      "[EXT_106]": 110,
      "[EXT_107]": 111,
      "[EXT_108]": 112,
      "[EXT_109]": 113,
      "[EXT_110]": 114,
      "[EXT_111]": 115,
      "[EXT_112]": 116,
      "[EXT_113]": 117,
      "[EXT_114]": 118,
      "[EXT_115]": 119,
      "[EXT_116]": 120,
      "[EXT_117]": 121,
      "[EXT_118]": 122,
      "[EXT_119]": 123,
      "[EXT_120]": 124,
      "[EXT_121]": 125,
      "[EXT_122]": 126,
      "[EXT_123]": 127,
      "!": 128,
      "\"": 129,
      "#": 130,
      "$": 131,
      "%": 132,
      "&": 133,
      "'": 134,
      "(": 135,
      ")": 136,
      "*": 137,
      "+": 138,
      ",": 139,
      "-": 140,
      ".": 141,
      "/": 142,
      "0": 143,
      "1": 144,
      "2": 145,
      "3": 146,
      "4": 147,
      "5": 148,
      "6": 149,
      "7": 150,
      "8": 151,
      "9": 152,
      ":": 153,
      ";": 154,
      "<": 155,
      "=": 156,
      ">": 157,
      "?": 158,
      "@": 159,
      "A": 160,
      "B": 161,
      "C": 162,
      "D": 163,
      "E": 164,
      "F": 165,
      "G": 166,
      "H": 167,
      "I": 168,
      "J": 169,
      "K": 170,
      "L": 171,
      "M": 172,
      "N": 173,
      "O": 174,
      "P": 175,
      "Q": 176,
      "R": 177,
      "S": 178,
      "T": 179,
      "U": 180,
      "V": 181,
      "W": 182,
      "X": 183,
      "Y": 184,
      "Z": 185,
      "[": 186,
      "\\": 187,
      "]": 188,
      "^": 189,
      "_": 190,
      "`": 191,
      "a": 192,
      "b": 193,
      "c": 194,
      "d": 195,
      "e": 196,
      "f": 197,
      "g": 198,
      "h": 199,
      "i": 200,
      "j": 201,
      "k": 202,
      "l": 203,
      "m": 204,
      "n": 205,
      "o": 206,
      "p": 207,
      "q": 208,
      "r": 209,
      "s": 210,
      "t": 211,
      "u": 212,
      "v": 213,
      "w": 214,
      "x": 215,
      "y": 216,
      "z": 217,
      "{": 218,
      "|": 219,
      "}": 220,
      "~": 221,
      "¡": 222,
      "¢": 223,
      "£": 224,
      "¤": 225,
      "¥": 226,
      "¦": 227,
      "§": 228,
      "¨": 229,
      "©": 230,
      "ª": 231,
      "«": 232,
      "¬": 233,
      "®": 234,
      "¯": 235,
      "°": 236,
      "±": 237,
      "²": 238,
      "³": 239,
      "´": 240,
      "µ": 241,
      "¶": 242,
      "·": 243,
      "¸": 244,
      "¹": 245,
      "º": 246,
      "»": 247,
      "¼": 248,
      "½": 249,
      "¾": 250,
      "¿": 251,
      "Â": 252,
      "Ã": 253,
      "Ä": 254,
      "Å": 255,
      "Æ": 256,
      "Ç": 257,
      "È": 258,
      "É": 259,
      "Ê": 260,
      "Ë": 261,
      "Ì": 262,
      "Í": 263,
      "Î": 264,
      "Ï": 265,
      "Ð": 266,
      "Ñ": 267,
      "Ò": 268,
      "Ó": 269,
      "Ô": 270,
      "Õ": 271,
      "Ö": 272,
      "×": 273,
      "Ø": 274,
      "Ù": 275,
      "Ú": 276,
      "Û": 277,
      "Ü": 278,
      "Þ": 279,
      "ß": 280,
      "à": 281,
      "á": 282,
      "â": 283,
      "ã": 284,
      "ä": 285,
      "å": 286,
      "æ": 287,
      "ç": 288,
      "è": 289,
      "é": 290,
      "ê": 291,
      "ë": 292,
      "ì": 293,
      "í": 294,
      "î": 295,
      "ï": 296,
      "ð": 297,
      "ó": 298,
      "ô": 299,
      "Ā": 300,
      "ā": 301,
      "Ă": 302,
      "ă": 303,
      "Ą": 304,
      "ą": 305,
      "Ć": 306,
      "ć": 307,
      "Ĉ": 308,
      "ĉ": 309,
      "Ċ": 310,
      "ċ": 311,
      "Č": 312,
      "č": 313,
      "Ď": 314,
      "ď": 315,
      "Đ": 316,
      "đ": 317,
      "Ē": 318,
      "ē": 319,
      "Ĕ": 320,
      "ĕ": 321,
      "Ė": 322,
      "ė": 323,
      "Ę": 324,
      "ę": 325,
      "Ě": 326,
      "ě": 327,
      "Ĝ": 328,
      "ĝ": 329,
      "Ğ": 330,
      "ğ": 331,
      "Ġ": 332,
      "ġ": 333,
      "Ģ": 334,
      "ģ": 335,
      "Ĥ": 336,
      "ĥ": 337,
      "Ħ": 338,
      "ħ": 339,
      "Ĩ": 340,
      "ĩ": 341,
      "Ī": 342,
      "ī": 343,
      "Ĭ": 344,
      "ĭ": 345,
      "Į": 346,
      "į": 347,
      "İ": 348,
      "ı": 349,
      "Ĳ": 350,
      "ĳ": 351,
      "Ĵ": 352,
      "ĵ": 353,
      "Ķ": 354,
      "ķ": 355,
      "ĸ": 356,
      "Ĺ": 357,
      "ĺ": 358,
      "Ļ": 359,
      "ļ": 360,
      "Ľ": 361,
      "ľ": 362,
      "Ŀ": 363,
      "ŀ": 364,
      "Ł": 365,
      "ł": 366,
      "Ń": 367,
      "ï¼": 368,
      "ä¸": 369,
      "th": 370,
      "ï¼Į": 371,
      "ãĢ": 372,
      "in": 373,
      "çļ": 374,
      "çļĦ": 375,
      "er": 376,
      "an": 377,
      "on": 378,
      "äº": 379,
      "the": 380,
      "re": 381,
      "at": 382,
      "ãĢĤ": 383,
      "åı": 384,
      "en": 385,
      "or": 386,
      "æľ": 387,
      "ä»": 388,
      "st": 389,
      "åħ": 390,
      "ou": 391,
      "al": 392,
      "âĢ": 393,
      "ed": 394,
      "ing": 395,
      "å¤": 396,
      "åĪ": 397,
      "to": 398,
      "å®": 399,
      "is": 400,
      "ar": 401,
      "and": 402,
      "es": 403,
      "çĶ": 404,
      "ãĢģ": 405,
      "ä½": 406,
      "åĲ": 407,
      "è¿": 408,
      "it": 409,
      "of": 410,
      "æĺ": 411,
      "ä¹": 412,
      "åľ": 413,
      "åŃ": 414,
      "as": 415,
      "è¯": 416,
      "ç»": 417,
      "ic": 418,
      "æĪ": 419,
      "åĬ": 420,
      "le": 421,
      "ä¸Ģ": 422,
      "ion": 423,
      "æĸ": 424,
      "æĺ¯": 425,
      "åĽ": 426,
      "om": 427,
      "å°": 428,
      "æĹ": 429,
      "è®": 430,
      "he": 431,
      "ent": 432,
      "å¹": 433,
      "il": 434,
      "æľī": 435,
      "åį": 436,
      "se": 437,
      ".Ċ": 438,
      "ac": 439,
      "ä¼": 440,
      "äºº": 441,
      "åľ¨": 442,
      "æķ": 443,
      "ä¸į": 444,
      "ve": 445,
      "æĿ": 446,
      "èĢ": 447,
      "be": 448,
      "ro": 449,
      "åº": 450,
      "åĨ": 451,
      "éĩ": 452,
      "for": 453,
      "æī": 454,
      "è¡": 455,
      "åŃ¦": 456,
      "å¼": 457,
      "å·": 458,
      "åĴ": 459,
      "å¯": 460,
      "ly": 461,
      "ä¸Ń": 462,
      "å¾": 463,
      "ad": 464,
      "å¸": 465,
      "ä¸º": 466,
      "æĢ": 467,
      "åĩ": 468,
      "åĴĮ": 469,
      "id": 470,
      "ch": 471,
      "è§": 472,
      "éĢ": 473,
      "ç§": 474,
      "ãĢĤĊ": 475,
      "çĶŁ": 476,
      "am": 477,
      "ĥ½": 478,
      "lo": 479,
      "äºĨ": 480,
      "ay": 481,
      "æł": 482,
      "ä»¥": 483,
      "çĽ": 484,
      "åĮ": 485,
      "âĢľ": 486,
      "âĢĿ": 487,
      "æ³": 488,
      "æ°": 489,
      "¦ģ": 490,
      "im": 491,
      "çİ": 492,
      "è¦ģ": 493,
      "ig": 494,
      "et": 495,
      "å½": 496,
      "è´": 497,
      "çī": 498,
      "ol": 499,
      "wh": 500,
      "å¤§": 501,
      "çĶ¨": 502,
      "æĬ": 503,
      "ver": 504,
      "æŃ": 505,
      "that": 506,
      "no": 507,
      "æĹ¶": 508,
      "èĩ": 509,
      "ï¼ļ": 510,
      "å±": 511,
      "å¿": 512,
      "ct": 513,
      "ation": 514,
      "ut": 515,
      "ä¸ª": 516,
      "ith": 517,
      "èµ": 518,
      "un": 519,
      "æĶ": 520,
      "el": 521,
      "åĽ½": 522,
      "éĹ": 523,
      "åİ": 524,
      "ur": 525,
      "you": 526,
      "are": 527,
      "çº": 528,
      "ä¸Ĭ": 529,
      "çĲ": 530,
      "æŀ": 531,
      "éĿ": 532,
      "ä½ľ": 533,
      "ir": 534,
      "èĥ½": 535,
      "éĻ": 536,
      "ab": 537,
      "å¥": 538,
      "åı¯": 539,
      "è¿Ļ": 540,
      "with": 541,
      "ce": 542,
      "ag": 543,
      "çŃ": 544,
      "æĪĳ": 545,
      "ter": 546,
      "å¯¹": 547,
      "åıĳ": 548,
      "æ¯": 549,
      "us": 550,
      "æĪĲ": 551,
      "å¹´": 552,
      "åĳ": 553,
      "ä¼ļ": 554,
      "æµ": 555,
      "ä¿": 556,
      "æİ": 557,
      "con": 558,
      "The": 559,
      "äºİ": 560,
      "é¢": 561,
      "com": 562,
      "è¡Į": 563,
      "æ²": 564,
      "åĪĨ": 565,
      "è¾": 566,
      "æĸ¹": 567,
      "æ³ķ": 568,
      "æĥ": 569,
      "çĲĨ": 570,
      "ul": 571,
      "åľ°": 572,
      "åĬ¨": 573,
      "de": 574,
      "mo": 575,
      "âĢĻ": 576,
      "åĪ°": 577,
      "ãĢĢ": 578,
      "æĦ": 579,
      "ill": 580,
      "ers": 581,
      "å¦": 582,
      "åĩº": 583,
      "ap": 584,
      "pro": 585,
      "ow": 586,
      "æĮ": 587,
      "ere": 588,
      "ï¼ī": 589,
      "ne": 590,
      "èĤ": 591,
      "li": 592,
      "res": 593,
      "ï¼Ī": 594,
      "èĩª": 595,
      "æĿ¥": 596,
      "ri": 597,
      "åĲİ": 598,
      "åŁ": 599,
      "op": 600,
      "em": 601,
      "ä»¬": 602,
      "æ´": 603,
      "su": 604,
      "å·¥": 605,
      "ke": 606,
      "out": 607,
      "è¿ĩ": 608,
      "all": 609,
      "éĺ": 610,
      "ä¹ĭ": 611,
      "çľ": 612,
      "ä½ĵ": 613,
      "å¤ļ": 614,
      "å®ļ": 615,
      "ha": 616,
      "s,": 617,
      "åŃĲ": 618,
      "æĢ§": 619,
      "ate": 620,
      "ä¸ĭ": 621,
      "we": 622,
      "æ±": 623,
      "æĸĩ": 624,
      "was": 625,
      "ex": 626,
      "åĲĮ": 627,
      "ä¹Ł": 628,
      "å°±": 629,
      "æĭ": 630,
      "æķĻ": 631,
      "èĢĮ": 632,
      "ç«": 633,
      "pe": 634,
      "ä¾": 635,
      "çİ°": 636,
      "ç®": 637,
      "pl": 638,
      "ä¸İ": 639,
      "fr": 640,
      "è½": 641,
      "åī": 642,
      "ç¨": 643,
      "igh": 644,
      "ä¸ļ": 645,
      "ld": 646,
      "è¿Ľ": 647,
      "sh": 648,
      "çŃī": 649,
      "åĵ": 650,
      "å¦Ĥ": 651,
      "é«": 652,
      "å®¶": 653,
      "ä¸»": 654,
      "åģ": 655,
      "if": 656,
      "éģ": 657,
      "åħ¶": 658,
      "our": 659,
      "å®ŀ": 660,
      "é«ĺ": 661,
      "ain": 662,
      "oun": 663,
      "tr": 664,
      "te": 665,
      "one": 666,
      "æľ¬": 667,
      "ess": 668,
      "ç»ı": 669,
      "ç¬": 670,
      "ment": 671,
      "so": 672,
      "æı": 673,
      "éĥ": 674,
      "åĬĽ": 675,
      "po": 676,
      "çŁ": 677,
      "ä»ĸ": 678,
      "çĤ": 679,
      "åĮĸ": 680,
      "æ¸": 681,
      "çī©": 682,
      "åºĶ": 683,
      "æīĢ": 684,
      "art": 685,
      "by": 686,
      "æ¬": 687,
      "éĿ¢": 688,
      "éķ": 689,
      "ç§į": 690,
      "oo": 691,
      "åĲĪ": 692,
      "ant": 693,
      "èĢħ": 694,
      "æĽ": 695,
      "ç½": 696,
      "ther": 697,
      "ity": 698,
      "qu": 699,
      "éĩį": 700,
      "'s": 701,
      "è°": 702,
      "å°ı": 703,
      "have": 704,
      "æį": 705,
      "ï¼Ľ": 706,
      "åħ³": 707,
      "this": 708,
      "from": 709,
      "ist": 710,
      "his": 711,
      "æĪĸ": 712,
      "çĹ": 713,
      "ç¤": 714,
      "not": 715,
      "åħ¨": 716,
      "éĥ¨": 717,
      "åº¦": 718,
      "per": 719,
      "èĬ": 720,
      "äºĭ": 721,
      "æķ°": 722,
      "é¡": 723,
      "ive": 724,
      "é£": 725,
      "å¿ĥ": 726,
      "å¾Ĺ": 727,
      "åĽł": 728,
      "åĨħ": 729,
      "ust": 730,
      "åĢ": 731,
      "fe": 732,
      "åĪ¶": 733,
      "å¥½": 734,
      "äº§": 735,
      "ç³": 736,
      "um": 737,
      "act": 738,
      "ast": 739,
      "ight": 740,
      "éĢļ": 741,
      "s.": 742,
      "èī": 743,
      "éķ¿": 744,
      "æ°´": 745,
      "éĹ´": 746,
      "end": 747,
      "å¼Ģ": 748,
      "å»": 749,
      "ould": 750,
      "In": 751,
      "ge": 752,
      "ãĢĭ": 753,
      "ãĢĬ": 754,
      "è·": 755,
      "wor": 756,
      "do": 757,
      "up": 758,
      "éļ": 759,
      "ard": 760,
      "ä½¿": 761,
      "åıĬ": 762,
      "æľº": 763,
      "è¯´": 764,
      "éĩı": 765,
      "ort": 766,
      "çĽ¸": 767,
      "å½ĵ": 768,
      "ies": 769,
      "ä¸ī": 770,
      "æŁ": 771,
      "ç±": 772,
      "âĢĻs": 773,
      "æ´»": 774,
      "me": 775,
      "åħ¬": 776,
      "åĬł": 777,
      "éĥ½": 778,
      "çĿ": 779,
      "ç¨ĭ": 780,
      "è¶": 781,
      "æĦı": 782,
      "ome": 783,
      "å¢": 784,
      "éĽ": 785,
      "ç©": 786,
      "ç¡": 787,
      "çĦ": 788,
      "æĺİ": 789,
      "åĿ": 790,
      "èĥ": 791,
      "but": 792,
      "åīį": 793,
      "æľŁ": 794,
      "å¤©": 795,
      "æĥħ": 796,
      "gh": 797,
      "ä¸Ģä¸ª": 798,
      "çĤ¹": 799,
      "æıĲ": 800,
      "æľĢ": 801,
      "co": 802,
      "åı¯ä»¥": 803,
      "can": 804,
      "æ°ĳ": 805,
      "ç¬¬": 806,
      "ear": 807,
      "will": 808,
      "è¡¨": 809,
      "pr": 810,
      "ç³»": 811,
      "ãĢĢãĢĢ": 812,
      "ally": 813,
      "ä»£": 814,
      "é¢ĺ": 815,
      "æĻ": 816,
      "ack": 817,
      "ç¾": 818,
      "ç´": 819,
      "ä»İ": 820,
      "cl": 821,
      "gr": 822,
      "çĻ": 823,
      "any": 824,
      "ind": 825,
      "è§£": 826,
      "æĸ°": 827,
      "å¸¸": 828,
      "çķ": 829,
      "ä¹ł": 830,
      "èµ·": 831,
      "go": 832,
      "çĸ": 833,
      "ä½į": 834,
      "has": 835,
      "çł": 836,
      "å¹¶": 837,
      "æĹ¥": 838,
      "âĢĶ": 839,
      "æ¶": 840,
      "èģ": 841,
      "ç»ĵ": 842,
      "å»º": 843,
      "å±ķ": 844,
      "ç¥": 845,
      "èĭ": 846,
      "äºĮ": 847,
      "ä¿Ŀ": 848,
      "ci": 849,
      "æĹł": 850,
      "ud": 851,
      "åħ¥": 852,
      "è®¾": 853,
      "æĪĳä»¬": 854,
      "ak": 855,
      "çĦ¶": 856,
      "æŀľ": 857,
      "å¤ĸ": 858,
      "åŁº": 859,
      "éľ": 860,
      "è®¡": 861,
      "ç¼": 862,
      "çĶ±": 863,
      "çĶµ": 864,
      "éħ": 865,
      "å§": 866,
      "ine": 867,
      "å½¢": 868,
      "ç®¡": 869,
      "..": 870,
      "å¸Ī": 871,
      "äºĽ": 872,
      "è¿ĺ": 873,
      "ough": 874,
      "sa": 875,
      "iv": 876,
      "æŃ£": 877,
      "å¼ı": 878,
      "ie": 879,
      "æģ": 880,
      "åŃ¦çĶŁ": 881,
      "æŃ¤": 882,
      "æľĪ": 883,
      "ell": 884,
      "å®ī": 885,
      "ide": 886,
      "Th": 887,
      "__": 888,
      "èĪ": 889,
      "æ¡": 890,
      "çģ": 891,
      "ç²": 892,
      "éģĵ": 893,
      "çĪ": 894,
      "æ¯Ķ": 895,
      "ice": 896,
      "your": 897,
      "ä½Ĩ": 898,
      "der": 899,
      "å°Ĩ": 900,
      "ure": 901,
      "çŁ¥": 902,
      "ich": 903,
      "èĦ": 904,
      "day": 905,
      "çĥ": 906,
      "åİŁ": 907,
      "port": 908,
      "èį": 909,
      "çľĭ": 910,
      "è§Ħ": 911,
      "èµĦ": 912,
      "age": 913,
      "å¹³": 914,
      "tim": 915,
      "çī¹": 916,
      "åĪ©": 917,
      "çĽ®": 918,
      "est": 919,
      "è´¨": 920,
      "è¢": 921,
      "Ĥ£": 922,
      "éĶ": 923,
      "ä¹Ī": 924,
      "çĿĢ": 925,
      "my": 926,
      "able": 927,
      "bo": 928,
      "now": 929,
      "they": 930,
      "åĲį": 931,
      "ä»¶": 932,
      "ç»Ł": 933,
      "æį®": 934,
      "åĬ¡": 935,
      "æł·": 936,
      "ame": 937,
      "ck": 938,
      "ound": 939,
      "å£": 940,
      "au": 941,
      "æ¬¡": 942,
      "æĦŁ": 943,
      "åĵģ": 944,
      "ated": 945,
      "éĹ®": 946,
      "ev": 947,
      "low": 948,
      "åıĺ": 949,
      "åįģ": 950,
      "ach": 951,
      "å¾Ī": 952,
      "æ·": 953,
      "more": 954,
      "æĽ´": 955,
      "ire": 956,
      "å·¥ä½ľ": 957,
      "éª": 958,
      "éĩĮ": 959,
      "å¤Ħ": 960,
      "$P": 961,
      "form": 962,
      "æĶ¿": 963,
      "èĲ": 964,
      "ç±»": 965,
      "åģļ": 966,
      "çĹħ": 967,
      "åĲĦ": 968,
      "èĤ²": 969,
      "$P$": 970,
      "ber": 971,
      "çļĦï¼Į": 972,
      "ä½ł": 973,
      "av": 974,
      "ong": 975,
      "åĲĳ": 976,
      "å·±": 977,
      "comp": 978,
      "æĮĩ": 979,
      "ans": 980,
      "æİ¥": 981,
      "éĴ": 982,
      "their": 983,
      "ç«ĭ": 984,
      "æĥ³": 985,
      "ä¿¡": 986,
      "ä¹ī": 987,
      "af": 988,
      "æ®": 989,
      "ction": 990,
      "ä¹¦": 991,
      "who": 992,
      "æłĩ": 993,
      "è¯Ĩ": 994,
      "some": 995,
      "ake": 996,
      "èĢĥ": 997,
      "ore": 998,
      "èº": 999,
      "ip": 1000,
      "her": 1001,
      "å¯¼": 1002,
      "è¯Ń": 1003,
      "ç§ĳ": 1004,
      "æº": 1005,
      "ç»Ħ": 1006,
      "å¼º": 1007,
      "å®ĥ": 1008,
      "ä¸¤": 1009,
      "åįķ": 1010,
      "åĮº": 1011,
      "åħ·": 1012,
      "about": 1013,
      "èĩªå·±": 1014,
      "ts": 1015,
      "very": 1016,
      "way": 1017,
      "åĸ": 1018,
      "æľ¯": 1019,
      "ous": 1020,
      "æµģ": 1021,
      "ç¤¾": 1022,
      "æ±Ĥ": 1023,
      "åĳĺ": 1024,
      "è¢«": 1025,
      "è¿Ľè¡Į": 1026,
      "cre": 1027,
      "æ°Ķ": 1028,
      "get": 1029,
      "iz": 1030,
      "work": 1031,
      "åĦ": 1032,
      "ass": 1033,
      "du": 1034,
      "äº¤": 1035,
      "ep": 1036,
      "åŀ": 1037,
      "æ²»": 1038,
      "--": 1039,
      "which": 1040,
      "æĢĿ": 1041,
      "ary": 1042,
      "è®¤": 1043,
      "off": 1044,
      "åİ»": 1045,
      "year": 1046,
      "åŃĹ": 1047,
      "ä¼ł": 1048,
      "éĩĳ": 1049,
      "ail": 1050,
      "ite": 1051,
      "ll": 1052,
      "An": 1053,
      "éľĢ": 1054,
      "own": 1055,
      "It": 1056,
      "other": 1057,
      "bl": 1058,
      "çĬ": 1059,
      "ä»»": 1060,
      "è¯¾": 1061,
      "ï¼Ł": 1062,
      "èº«": 1063,
      "æ²¡": 1064,
      "es,": 1065,
      "è¥": 1066,
      "åıª": 1067,
      "ence": 1068,
      "St": 1069,
      "é©": 1070,
      "ç¾İ": 1071,
      "æ¯ı": 1072,
      "thing": 1073,
      "æīĭ": 1074,
      "ish": 1075,
      "è±": 1076,
      "pre": 1077,
      "åĦ¿": 1078,
      "ç¦": 1079,
      "ood": 1080,
      "åıĳå±ķ": 1081,
      "è®º": 1082,
      "æĿ¡": 1083,
      "åıĹ": 1084,
      "åĽĽ": 1085,
      "åıĪ": 1086,
      "ä¸ĸ": 1087,
      "è¥¿": 1088,
      "èĬĤ": 1089,
      "cont": 1090,
      "ia": 1091,
      "å°ĳ": 1092,
      "éŁ": 1093,
      "é¦": 1094,
      "man": 1095,
      "èī²": 1096,
      "èĻ": 1097,
      "åŃ¦ä¹ł": 1098,
      "ä¸ŃåĽ½": 1099,
      "ace": 1100,
      "str": 1101,
      "br": 1102,
      "Ch": 1103,
      "its": 1104,
      "å®¹": 1105,
      "ser": 1106,
      "ot": 1107,
      "had": 1108,
      "å¸Ĥ": 1109,
      "ï¼Įåľ¨": 1110,
      "è¿Ĳ": 1111,
      "ç¡®": 1112,
      "ance": 1113,
      "||": 1114,
      "åĪĻ": 1115,
      "ï¼Įä¸į": 1116,
      "time": 1117,
      "åĻ": 1118,
      "ick": 1119,
      "like": 1120,
      "ï¼Įè¿Ļ": 1121,
      "èĮ": 1122,
      "over": 1123,
      "åĪ«": 1124,
      "ition": 1125,
      "new": 1126,
      "æķĪ": 1127,
      "æĬĬ": 1128,
      "ase": 1129,
      "éĤ£": 1130,
      "æ»": 1131,
      "sp": 1132,
      "ical": 1133,
      "è¯ģ": 1134,
      "ign": 1135,
      "were": 1136,
      "é»": 1137,
      "part": 1138,
      "ty": 1139,
      "åħĥ": 1140,
      "æĿĥ": 1141,
      "Wh": 1142,
      "èĢģ": 1143,
      "åıĸ": 1144,
      "è¾ĥ": 1145,
      "said": 1146,
      "int": 1147,
      "æĬĢ": 1148,
      "è°ĥ": 1149,
      "dis": 1150,
      "ç¤¾ä¼ļ": 1151,
      "çłĶ": 1152,
      "éĢł": 1153,
      "çº§": 1154,
      "åħ»": 1155,
      "éĵ": 1156,
      "åħĪ": 1157,
      "è£": 1158,
      "é£İ": 1159,
      "ç´ł": 1160,
      "åı£": 1161,
      "ile": 1162,
      "would": 1163,
      "æĶ¶": 1164,
      "been": 1165,
      "pres": 1166,
      "åĻ¨": 1167,
      "æĹ¶ï¼Į": 1168,
      "åıį": 1169,
      "ok": 1170,
      "è§Ĥ": 1171,
      "ree": 1172,
      "å±±": 1173,
      "fer": 1174,
      "åľº": 1175,
      "åħ±": 1176,
      "è®°": 1177,
      "æ£": 1178,
      "We": 1179,
      "there": 1180,
      "è¯»": 1181,
      "éĹ®é¢ĺ": 1182,
      "çº¿": 1183,
      "æĶ¾": 1184,
      "æł¡": 1185,
      "èĩ³": 1186,
      "åĨĻ": 1187,
      "åķ": 1188,
      "æ³¨": 1189,
      "ble": 1190,
      "æł¼": 1191,
      "åŃĺ": 1192,
      "åĩĨ": 1193,
      "è®©": 1194,
      "ark": 1195,
      "æ¸ħ": 1196,
      "å²": 1197,
      "æĮģ": 1198,
      "æ²¡æľī": 1199,
      "æŀĦ": 1200,
      "pos": 1201,
      "å·²": 1202,
      "ï¼Įä½Ĩ": 1203,
      "ef": 1204,
      "ä¸ľ": 1205,
      "åŀĭ": 1206,
      "ple": 1207,
      "aw": 1208,
      "ç¥ŀ": 1209,
      "æķĻèĤ²": 1210,
      "éĹ¨": 1211,
      "ç»Ļ": 1212,
      "just": 1213,
      "èħ": 1214,
      "ph": 1215,
      "æĶ¹": 1216,
      "He": 1217,
      "æĢ»": 1218,
      "è·¯": 1219,
      "åįĹ": 1220,
      "åĽ¾": 1221,
      "than": 1222,
      "tw": 1223,
      "ç§°": 1224,
      "ink": 1225,
      "é£Ł": 1226,
      "also": 1227,
      "when": 1228,
      "od": 1229,
      "ï¼ĮèĢĮ": 1230,
      "fir": 1231,
      "å¢ŀ": 1232,
      "æ´»åĬ¨": 1233,
      "ial": 1234,
      "ren": 1235,
      "å®Į": 1236,
      "å°±æĺ¯": 1237,
      "è¾¾": 1238,
      "cor": 1239,
      "çĽ´": 1240,
      "inter": 1241,
      "å¤į": 1242,
      "cr": 1243,
      "them": 1244,
      "s.Ċ": 1245,
      "ue": 1246,
      "æł¹": 1247,
      "'t": 1248,
      "what": 1249,
      "ç½ĳ": 1250,
      "ä¸ĵ": 1251,
      "éĢī": 1252,
      "y,": 1253,
      "æºĲ": 1254,
      "pt": 1255,
      "äºĶ": 1256,
      "ç©¶": 1257,
      "åĨĽ": 1258,
      "ä¸Ńï¼Į": 1259,
      "çİ¯": 1260,
      "è±¡": 1261,
      "å¿ħ": 1262,
      "ç®¡çĲĨ": 1263,
      "çĻ½": 1264,
      "ç¤º": 1265,
      "è§ģ": 1266,
      "å¤ĩ": 1267,
      "cent": 1268,
      "å¼ķ": 1269,
      "old": 1270,
      "ç²¾": 1271,
      "æĪĺ": 1272,
      "æīį": 1273,
      "çı": 1274,
      "éŁ³": 1275,
      "æµ·": 1276,
      "ens": 1277,
      "é¡¹": 1278,
      "åħī": 1279,
      "æľį": 1280,
      "è¨": 1281,
      "ang": 1282,
      "ï¼Įå¹¶": 1283,
      "éĿŀ": 1284,
      "çľŁ": 1285,
      "çħ": 1286,
      "comm": 1287,
      "å¤´": 1288,
      "æĸĻ": 1289,
      "åĬŁ": 1290,
      "æŃ¥": 1291,
      "çķĮ": 1292,
      "cess": 1293,
      "èĬ±": 1294,
      "åį³": 1295,
      "This": 1296,
      "æ¨": 1297,
      "éĢļè¿ĩ": 1298,
      "åĮħ": 1299,
      "æĬ¥": 1300,
      "æķ´": 1301,
      "å¾ĭ": 1302,
      "ä»Ģ": 1303,
      "å¸¦": 1304,
      "ult": 1305,
      "ä¸»è¦ģ": 1306,
      "å¦Ĥæŀľ": 1307,
      "åĮĹ": 1308,
      "ions": 1309,
      "ç»Ĩ": 1310,
      "ç®Ĺ": 1311,
      "å½±": 1312,
      "è¡Ģ": 1313,
      "éĻ¢": 1314,
      "è½¦": 1315,
      "åĶ": 1316,
      "ful": 1317,
      "know": 1318,
      "into": 1319,
      "è¯¥": 1320,
      "çĬ¶": 1321,
      "æĹ¶éĹ´": 1322,
      "ä½¿çĶ¨": 1323,
      "éľĢè¦ģ": 1324,
      "ä»Ģä¹Ī": 1325,
      "åĲİï¼Į": 1326,
      "è¯ķ": 1327,
      "ater": 1328,
      "æ¡Ī": 1329,
      "åĨµ": 1330,
      "æŁ¥": 1331,
      "å¢ĥ": 1332,
      "åı¸": 1333,
      "she": 1334,
      "åĨ³": 1335,
      "çĭ": 1336,
      "åĽŀ": 1337,
      "åŃ©": 1338,
      "ob": 1339,
      "ä»·": 1340,
      "spe": 1341,
      "éĺ²": 1342,
      "log": 1343,
      "æĸ¹æ³ķ": 1344,
      "åİĨ": 1345,
      "è¨Ģ": 1346,
      "åĪĩ": 1347,
      "ä½ķ": 1348,
      "play": 1349,
      "è½¬": 1350,
      "ï¼Įä»¥": 1351,
      "åĪĽ": 1352,
      "ning": 1353,
      "how": 1354,
      "åı²": 1355,
      "åĳ½": 1356,
      "ï¼Įæĺ¯": 1357,
      "back": 1358,
      "âĢ¦": 1359,
      "æķħ": 1360,
      "éĽĨ": 1361,
      "é¥": 1362,
      "çĶŁæ´»": 1363,
      "ç©º": 1364,
      "ild": 1365,
      "æĺĵ": 1366,
      "Re": 1367,
      "æĬ¤": 1368,
      "sy": 1369,
      "æĸ½": 1370,
      "min": 1371,
      "ting": 1372,
      "æģ¯": 1373,
      "mer": 1374,
      "æµİ": 1375,
      "ry": 1376,
      "ade": 1377,
      "ç§¯": 1378,
      "first": 1379,
      "åĨį": 1380,
      "åıĤ": 1381,
      "çİĩ": 1382,
      "éªĮ": 1383,
      "çłĶç©¶": 1384,
      "es.": 1385,
      "æķĻåŃ¦": 1386,
      "ä¸ŃçļĦ": 1387,
      "ople": 1388,
      "ory": 1389,
      "app": 1390,
      "åı¤": 1391,
      "æ¢": 1392,
      "æĮī": 1393,
      "åĽ½å®¶": 1394,
      "att": 1395,
      "most": 1396,
      "å§ĭ": 1397,
      "æŀģ": 1398,
      "ç¦»": 1399,
      "éĻ¤": 1400,
      "æĸŃ": 1401,
      "æĢģ": 1402,
      "æ·±": 1403,
      "æĤ": 1404,
      "ents": 1405,
      "ook": 1406,
      "ãĢĤè¿Ļ": 1407,
      "åĢ¼": 1408,
      "des": 1409,
      "ç½®": 1410,
      "å¥³": 1411,
      "ian": 1412,
      "prov": 1413,
      "æ®µ": 1414,
      "mon": 1415,
      "ä¼ģ": 1416,
      "èİ": 1417,
      "ä¸ĩ": 1418,
      "row": 1419,
      "ï¼Įä¹Ł": 1420,
      "çİĭ": 1421,
      "ations": 1422,
      "åŃ©åŃĲ": 1423,
      "å®īåħ¨": 1424,
      "ä¾ĭ": 1425,
      "fore": 1426,
      "é¢Ĩ": 1427,
      "enc": 1428,
      "vers": 1429,
      "èĩ´": 1430,
      "reat": 1431,
      "çĲĥ": 1432,
      "ç³»ç»Ł": 1433,
      "ä½İ": 1434,
      "èģĶ": 1435,
      "éļ¾": 1436,
      "use": 1437,
      "åķĨ": 1438,
      "read": 1439,
      "åĵį": 1440,
      "è´¹": 1441,
      "æ¶Ī": 1442,
      "only": 1443,
      "âĢĻt": 1444,
      "æ¼": 1445,
      "ä¸Ģç§į": 1446,
      "è§Ĩ": 1447,
      "ç»ıæµİ": 1448,
      "éĻħ": 1449,
      "cau": 1450,
      "æĶ¯": 1451,
      "å¾·": 1452,
      "åĩł": 1453,
      "è´£": 1454,
      "cur": 1455,
      "two": 1456,
      "çĪ±": 1457,
      "add": 1458,
      "åĳ¨": 1459,
      "è®®": 1460,
      "çĥŃ": 1461,
      "çª": 1462,
      "ä¸Ķ": 1463,
      "people": 1464,
      "may": 1465,
      "è¯į": 1466,
      "bet": 1467,
      "coun": 1468,
      "ç»´": 1469,
      "ä»ĸä»¬": 1470,
      "éĢĤ": 1471,
      "å¤±": 1472,
      "å¤ª": 1473,
      "col": 1474,
      "cho": 1475,
      "____": 1476,
      "fin": 1477,
      "Ne": 1478,
      "çº¦": 1479,
      "èĥ½åĬĽ": 1480,
      ")Ċ": 1481,
      "ä¹Ĳ": 1482,
      "ï¼Įæľī": 1483,
      "ä¼ģä¸ļ": 1484,
      "æĬĢæľ¯": 1485,
      "åŁİ": 1486,
      "èı": 1487,
      "èģĮ": 1488,
      "âĢĵ": 1489,
      "Un": 1490,
      "ï¼ļĊ": 1491,
      "ï¼İ": 1492,
      "ors": 1493,
      "è¯Ŀ": 1494,
      "sel": 1495,
      "æĥħåĨµ": 1496,
      "ãĢĤåľ¨": 1497,
      "see": 1498,
      "rough": 1499,
      "è¦ģæ±Ĥ": 1500,
      "è¯·": 1501,
      "cause": 1502,
      "ed,": 1503,
      "éĩįè¦ģ": 1504,
      "æ¨¡": 1505,
      "ä¸įåĲĮ": 1506,
      "åĮ»": 1507,
      "å±ŀ": 1508,
      "ing,": 1509,
      "æľª": 1510,
      "say": 1511,
      "ä¾Ľ": 1512,
      "èĳ": 1513,
      "åı¯èĥ½": 1514,
      "need": 1515,
      "å¹¼": 1516,
      "gu": 1517,
      "),": 1518,
      "him": 1519,
      "iew": 1520,
      "æīĵ": 1521,
      "åı·": 1522,
      "look": 1523,
      "çļĦäºº": 1524,
      "ual": 1525,
      "hel": 1526,
      "çħ§": 1527,
      "èĮĥ": 1528,
      "incl": 1529,
      "ä»Ĭ": 1530,
      "é©¬": 1531,
      "æ£Ģ": 1532,
      "çŁ¥è¯Ĩ": 1533,
      "åĥ": 1534,
      "åĪĹ": 1535,
      "è¯Ĺ": 1536,
      "éĢŁ": 1537,
      "after": 1538,
      "èĪ¬": 1539,
      "ï¼Įä¸Ģ": 1540,
      "oc": 1541,
      "æµĭ": 1542,
      "bu": 1543,
      "éĩĩ": 1544,
      "é¦ĸ": 1545,
      "çıŃ": 1546,
      "je": 1547,
      "itt": 1548,
      "åħĭ": 1549,
      "ra": 1550,
      "ict": 1551,
      "ç¢": 1552,
      "æĺ¾": 1553,
      "reg": 1554,
      "where": 1555,
      "äººçļĦ": 1556,
      "å¹¿": 1557,
      "èį¯": 1558,
      "And": 1559,
      "èĲ¥": 1560,
      "well": 1561,
      "don": 1562,
      "As": 1563,
      "çĸĹ": 1564,
      "åĬ©": 1565,
      "ating": 1566,
      "å¿«": 1567,
      "æĸ¹éĿ¢": 1568,
      "âĢĿï¼Į": 1569,
      "è¿ĳ": 1570,
      "under": 1571,
      "å¹²": 1572,
      "io": 1573,
      "ä¾¿": 1574,
      "åİĭ": 1575,
      "ubl": 1576,
      "æĹı": 1577,
      "urn": 1578,
      "æİĴ": 1579,
      "ose": 1580,
      "serv": 1581,
      "è¿ĩç¨ĭ": 1582,
      "å¸ĥ": 1583,
      "åŁ¹": 1584,
      "å½±åĵį": 1585,
      "could": 1586,
      "åĬ³": 1587,
      "äººæ°ĳ": 1588,
      "ates": 1589,
      "æħ": 1590,
      "æŀĲ": 1591,
      "åĽłä¸º": 1592,
      "âĳ": 1593,
      "å¡": 1594,
      "med": 1595,
      "fl": 1596,
      "ï¼ĮæĪĳ": 1597,
      "çĮ": 1598,
      "right": 1599,
      "è¶³": 1600,
      "cial": 1601,
      "through": 1602,
      "er,": 1603,
      "æĳ": 1604,
      "è¶Ĭ": 1605,
      "åľŁ": 1606,
      "ious": 1607,
      "å¾Ģ": 1608,
      "âĢĶâĢĶ": 1609,
      "éĥ¨åĪĨ": 1610,
      "æİ¨": 1611,
      "?Ċ": 1612,
      "ï¼ļâĢľ": 1613,
      "æīĢä»¥": 1614,
      "å±Ĥ": 1615,
      "then": 1616,
      "æĪ¿": 1617,
      "lect": 1618,
      "sc": 1619,
      "ç»ĩ": 1620,
      "make": 1621,
      "air": 1622,
      "tt": 1623,
      "ä¾Ŀ": 1624,
      "ä¼ĺ": 1625,
      "åĬŀ": 1626,
      "ek": 1627,
      "åħ¬åı¸": 1628,
      "ä½ľçĶ¨": 1629,
      "come": 1630,
      "want": 1631,
      "åºı": 1632,
      "åĭ": 1633,
      "did": 1634,
      "ener": 1635,
      "åĪĴ": 1636,
      "æĪĸèĢħ": 1637,
      "èĭ±": 1638,
      "éħį": 1639,
      "è£ħ": 1640,
      "åĨľ": 1641,
      "ï¼ģ": 1642,
      "éĻ©": 1643,
      "æĿĲ": 1644,
      "si": 1645,
      "red": 1646,
      "ç±³": 1647,
      "æĸ¯": 1648,
      "down": 1649,
      "çģ«": 1650,
      "åĨħå®¹": 1651,
      "cer": 1652,
      "Com": 1653,
      "dif": 1654,
      "éļı": 1655,
      "è®¸": 1656,
      "dr": 1657,
      "æļ": 1658,
      "æĵ": 1659,
      "every": 1660,
      "äºī": 1661,
      "iss": 1662,
      "åł": 1663,
      "é¾": 1664,
      "ä¸¥": 1665,
      "åıĳçĶŁ": 1666,
      "arch": 1667,
      "æİ§": 1668,
      "æł¹æį®": 1669,
      "æıĲé«ĺ": 1670,
      "Con": 1671,
      "ving": 1672,
      "æķĻå¸Ī": 1673,
      "çļĦãĢĤ": 1674,
      "ise": 1675,
      "these": 1676,
      "é¡»": 1677,
      "For": 1678,
      "å¹¼åĦ¿": 1679,
      "ä¸ĸçķĮ": 1680,
      "å£°": 1681,
      "æĪ·": 1682,
      "è§Ħå®ļ": 1683,
      "ath": 1684,
      "åĪĿ": 1685,
      "ï¼Įåħ¶": 1686,
      "even": 1687,
      "ank": 1688,
      "çīĩ": 1689,
      "å¼ł": 1690,
      "ug": 1691,
      "ason": 1692,
      "If": 1693,
      "rel": 1694,
      "èĩªå·±çļĦ": 1695,
      "ä¸ĢäºĽ": 1696,
      "æ¹": 1697,
      "good": 1698,
      "åĢĻ": 1699,
      "fun": 1700,
      "çİ¯å¢ĥ": 1701,
      "ins": 1702,
      "åĥı": 1703,
      "åĩºçİ°": 1704,
      "âĢĿĊ": 1705,
      "produ": 1706,
      "You": 1707,
      "éĺ³": 1708,
      "åı¥": 1709,
      "æ»¡": 1710,
      "No": 1711,
      "ational": 1712,
      "ject": 1713,
      "Al": 1714,
      "åĲ«": 1715,
      "But": 1716,
      "æ¸¸": 1717,
      "ç»Ń": 1718,
      "uch": 1719,
      "çŁ³": 1720,
      "åĳĬ": 1721,
      "stem": 1722,
      "åįİ": 1723,
      "éĻĲ": 1724,
      "tain": 1725,
      "çĻ¾": 1726,
      "ç¯": 1727,
      "åħħ": 1728,
      "æī¿": 1729,
      "ed.": 1730,
      "çº¢": 1731,
      "let": 1732,
      "å©": 1733,
      "many": 1734,
      "é»Ħ": 1735,
      "æĴ": 1736,
      "a,": 1737,
      "fect": 1738,
      "high": 1739,
      "è¾¹": 1740,
      "æ¯į": 1741,
      "think": 1742,
      "though": 1743,
      "ever": 1744,
      "pers": 1745,
      "ç«ł": 1746,
      "ç¬¬ä¸Ģ": 1747,
      "å®³": 1748,
      "ç»Ħç»ĩ": 1749,
      "ident": 1750,
      "æł¸": 1751,
      "stud": 1752,
      "æ¿": 1753,
      "åĽŃ": 1754,
      "æ¸©": 1755,
      "should": 1756,
      "ities": 1757,
      "æĸĩåĮĸ": 1758,
      "cond": 1759,
      "sup": 1760,
      "æ²³": 1761,
      "land": 1762,
      "åħŃ": 1763,
      "De": 1764,
      "ative": 1765,
      "çĶ»": 1766,
      "because": 1767,
      "vis": 1768,
      "çĽĬ": 1769,
      "che": 1770,
      "ave": 1771,
      "ï¼Įå¯¹": 1772,
      "é¢Ħ": 1773,
      "åĩı": 1774,
      "åħ·æľī": 1775,
      "ä¸įèĥ½": 1776,
      "âĢĿçļĦ": 1777,
      "Â·": 1778,
      "é¸": 1779,
      "è¿ŀ": 1780,
      "|Ċ": 1781,
      "used": 1782,
      "view": 1783,
      "ä¿®": 1784,
      "New": 1785,
      "åħ³ç³»": 1786,
      ":Ċ": 1787,
      "help": 1788,
      "è¯Ħ": 1789,
      "å¿µ": 1790,
      "æĭ¬": 1791,
      "last": 1792,
      "ost": 1793,
      "æĬķ": 1794,
      "again": 1795,
      "ä»ħ": 1796,
      "ific": 1797,
      "!Ċ": 1798,
      "åħ¶ä»ĸ": 1799,
      "è®²": 1800,
      "è§ī": 1801,
      "åģ¥": 1802,
      "å£«": 1803,
      "pol": 1804,
      "åŁºæľ¬": 1805,
      "åĽ´": 1806,
      "line": 1807,
      "call": 1808,
      "mem": 1809,
      "åįı": 1810,
      "æĸ¹å¼ı": 1811,
      "æ±Ł": 1812,
      "åı°": 1813,
      "ress": 1814,
      "è¿Ļä¸ª": 1815,
      "long": 1816,
      "anc": 1817,
      "æĺ¥": 1818,
      "set": 1819,
      "ann": 1820,
      "wr": 1821,
      "sub": 1822,
      "ys": 1823,
      "car": 1824,
      "å°Ķ": 1825,
      "æŃ»": 1826,
      "\"Ċ": 1827,
      "cord": 1828,
      "ss": 1829,
      "å¾ģ": 1830,
      "å¤Ł": 1831,
      "ç¡Ģ": 1832,
      "ç®Ģ": 1833,
      "æ¯Ĵ": 1834,
      "è¿ľ": 1835,
      "åĪĨæŀĲ": 1836,
      "ç§ĳåŃ¦": 1837,
      "æľĿ": 1838,
      ").": 1839,
      "åŁºç¡Ģ": 1840,
      "US": 1841,
      "ä¸»ä¹ī": 1842,
      "ven": 1843,
      "åĽłæŃ¤": 1844,
      "ä¿¡æģ¯": 1845,
      "åħļ": 1846,
      "éĺŁ": 1847,
      "æ¥": 1848,
      "çļĦæĺ¯": 1849,
      "amp": 1850,
      "åŁŁ": 1851,
      "ased": 1852,
      "pect": 1853,
      "åħ´": 1854,
      "ä¼¤": 1855,
      "ç¼ĸ": 1856,
      "åº·": 1857,
      "show": 1858,
      "cle": 1859,
      "ash": 1860,
      "æŃ¢": 1861,
      "åĿĩ": 1862,
      "such": 1863,
      "here": 1864,
      "ä½ľä¸º": 1865,
      "æ¿Ģ": 1866,
      "stand": 1867,
      "sur": 1868,
      "start": 1869,
      "çĹĩ": 1870,
      "èī¯": 1871,
      "çĶŁäº§": 1872,
      "much": 1873,
      "åĲ¬": 1874,
      "æĻ¯": 1875,
      "æķ°æį®": 1876,
      "ret": 1877,
      "less": 1878,
      "ä¸ĢèĪ¬": 1879,
      "ily": 1880,
      "atch": 1881,
      "ä¸ĬçļĦ": 1882,
      "è®¾è®¡": 1883,
      "Se": 1884,
      "ular": 1885,
      "æ±ī": 1886,
      "put": 1887,
      "ä¸Ģå®ļ": 1888,
      "æŁĵ": 1889,
      "è´Ł": 1890,
      "self": 1891,
      "cons": 1892,
      "è§Ĵ": 1893,
      "aking": 1894,
      "éĿĴ": 1895,
      "äº²": 1896,
      "Ar": 1897,
      "çŃĶ": 1898,
      "ton": 1899,
      "alk": 1900,
      "æĹ©": 1901,
      "èĲ½": 1902,
      "å¤§çļĦ": 1903,
      "éĻį": 1904,
      "åŃ¦æł¡": 1905,
      "week": 1906,
      "ility": 1907,
      "ä¸įæĺ¯": 1908,
      "åıĮ": 1909,
      "èµ°": 1910,
      "çĶ±äºİ": 1911,
      "è¶ħ": 1912,
      "uring": 1913,
      "ited": 1914,
      "è¿°": 1915,
      "**": 1916,
      "æľĽ": 1917,
      "å¼Ģå§ĭ": 1918,
      "æ¬¾": 1919,
      "So": 1920,
      "æ¤": 1921,
      "try": 1922,
      "çĨ": 1923,
      "Fr": 1924,
      "å¨": 1925,
      "ange": 1926,
      "ç»ĥ": 1927,
      "ext": 1928,
      "ä½ı": 1929,
      "å·ŀ": 1930,
      "les": 1931,
      "n't": 1932,
      "å¿Ĺ": 1933,
      "è´¢": 1934,
      "includ": 1935,
      "made": 1936,
      "åĲ¦": 1937,
      "æĤ£": 1938,
      "å¿ħé¡»": 1939,
      "åĬ¿": 1940,
      "é¼": 1941,
      "ask": 1942,
      "åįĩ": 1943,
      "åĸĦ": 1944,
      "åĬ³åĬ¨": 1945,
      "ub": 1946,
      "åįķä½į": 1947,
      "sm": 1948,
      "åĲ¸": 1949,
      "ments": 1950,
      "éĤ": 1951,
      "loc": 1952,
      "å¥½çļĦ": 1953,
      "å±ħ": 1954,
      "being": 1955,
      "å±Ģ": 1956,
      "å¸Ŀ": 1957,
      "è¡Įä¸º": 1958,
      "book": 1959,
      "formation": 1960,
      "éħ¸": 1961,
      "En": 1962,
      "ï¼Įä»İ": 1963,
      "ublic": 1964,
      "çľ¼": 1965,
      "requ": 1966,
      "çľģ": 1967,
      "...": 1968,
      "åºľ": 1969,
      "èĢģå¸Ī": 1970,
      "åıĳçİ°": 1971,
      "åĲĥ": 1972,
      "ç»Ī": 1973,
      "I'": 1974,
      "those": 1975,
      "æŀĹ": 1976,
      "mark": 1977,
      "åİĨåı²": 1978,
      "before": 1979,
      "ward": 1980,
      "âĢĿãĢĤ": 1981,
      "æĪĲä¸º": 1982,
      "å¯Ĩ": 1983,
      "åĮħæĭ¬": 1984,
      "å·®": 1985,
      "ï¼Įä½¿": 1986,
      "ax": 1987,
      "Pro": 1988,
      "fol": 1989,
      "æľįåĬ¡": 1990,
      "å½ķ": 1991,
      "pon": 1992,
      "ä¸Ĭï¼Į": 1993,
      "éĿ©": 1994,
      "è®¡ç®Ĺ": 1995,
      "å½¢æĪĲ": 1996,
      "gan": 1997,
      "åħį": 1998,
      "è¡¥": 1999,
      "clo": 2000,
      "system": 2001,
      "è®Ń": 2002,
      "çŃĸ": 2003,
      "å¤ĦçĲĨ": 2004,
      "èīº": 2005,
      "does": 2006,
      "çĭ¬": 2007,
      "æłĳ": 2008,
      "å°½": 2009,
      "äºĨï¼Į": 2010,
      "fi": 2011,
      "led": 2012,
      "åįĥ": 2013,
      "eng": 2014,
      "èĨ": 2015,
      "æĭ©": 2016,
      "ãĢĤâĢĿ": 2017,
      "åħ«": 2018,
      "ved": 2019,
      "æ³¨æĦı": 2020,
      "peri": 2021,
      "chool": 2022,
      "ures": 2023,
      "çºª": 2024,
      "é²": 2025,
      "å®ĺ": 2026,
      "å¯Į": 2027,
      "sure": 2028,
      "velo": 2029,
      "äº§çĶŁ": 2030,
      "èİ·": 2031,
      "ç¨İ": 2032,
      "ff": 2033,
      "èĽ": 2034,
      "ç¯ĩ": 2035,
      "ç¿": 2036,
      "each": 2037,
      "æĢĿæĥ³": 2038,
      "going": 2039,
      "del": 2040,
      "æĢİ": 2041,
      "å¼Ĥ": 2042,
      "gram": 2043,
      "val": 2044,
      "fact": 2045,
      "tri": 2046,
      "å»ºè®¾": 2047,
      "å®¢": 2048,
      "lar": 2049,
      "Jo": 2050,
      "trans": 2051,
      "main": 2052,
      "take": 2053,
      "cour": 2054,
      "æĵį": 2055,
      "while": 2056,
      "æĹ¶åĢĻ": 2057,
      "æ³ķå¾ĭ": 2058,
      "äºĴ": 2059,
      "son": 2060,
      "char": 2061,
      "èĩªçĦ¶": 2062,
      "æłĩåĩĨ": 2063,
      "bus": 2064,
      "æ¦": 2065,
      "hand": 2066,
      "è½»": 2067,
      "ement": 2068,
      "ï¼Įå¦Ĥ": 2069,
      "æįŁ": 2070,
      "åĽ¢": 2071,
      "å®Ŀ": 2072,
      "differ": 2073,
      "ä»¤": 2074,
      "find": 2075,
      "æĭī": 2076,
      "çĽ¸åħ³": 2077,
      "äººåĳĺ": 2078,
      "å®¤": 2079,
      "åı¦": 2080,
      "ï¼Įå°±": 2081,
      "net": 2082,
      "y.": 2083,
      "ç»ľ": 2084,
      "ä¸ĵä¸ļ": 2085,
      "e,": 2086,
      "æ¶²": 2087,
      "run": 2088,
      "ince": 2089,
      "èŀ": 2090,
      "éĢīæĭ©": 2091,
      "è®¤ä¸º": 2092,
      "ãĢĤ$P$": 2093,
      "vent": 2094,
      "éĺ¶": 2095,
      "There": 2096,
      "fam": 2097,
      "az": 2098,
      "Ro": 2099,
      "ç¾¤": 2100,
      "å¾®": 2101,
      "ced": 2102,
      "sign": 2103,
      "åŃĺåľ¨": 2104,
      "ner": 2105,
      "head": 2106,
      "top": 2107,
      "èĦĳ": 2108,
      "ï¼Įä¸º": 2109,
      "person": 2110,
      "ä¹ĭéĹ´": 2111,
      "æıĲä¾Ľ": 2112,
      "num": 2113,
      "æĲ": 2114,
      "alth": 2115,
      "è¯ī": 2116,
      "åĲĮæĹ¶": 2117,
      "äºļ": 2118,
      "ç»ĵæŀĦ": 2119,
      "emp": 2120,
      "çļĦä¸Ģ": 2121,
      "å¸Ĥåľº": 2122,
      "To": 2123,
      "stru": 2124,
      "çļ®": 2125,
      "Amer": 2126,
      "di": 2127,
      "æ¯Ķè¾ĥ": 2128,
      "ï¼ĮæĪĳä»¬": 2129,
      "éĥ½æĺ¯": 2130,
      "ings": 2131,
      "years": 2132,
      "è½½": 2133,
      "ly,": 2134,
      "æĬĹ": 2135,
      "point": 2136,
      "ä¸ĥ": 2137,
      "Americ": 2138,
      "æĻ®": 2139,
      "æĺŁ": 2140,
      "oup": 2141,
      "jo": 2142,
      "Le": 2143,
      "leg": 2144,
      "åį´": 2145,
      "å·²ç»ı": 2146,
      "vel": 2147,
      "Cl": 2148,
      "çĪ¶": 2149,
      "åįĬ": 2150,
      "ween": 2151,
      "ï¼Įè¿ĺ": 2152,
      "è¾ĵ": 2153,
      "ç¬¬äºĮ": 2154,
      "ices": 2155,
      "det": 2156,
      "å·¥ç¨ĭ": 2157,
      "They": 2158,
      "great": 2159,
      "life": 2160,
      "ually": 2161,
      "On": 2162,
      "ç»§": 2163,
      "world": 2164,
      "æī§": 2165,
      "å¯Ł": 2166,
      "å¤§åŃ¦": 2167,
      "çķĻ": 2168,
      "æ²»çĸĹ": 2169,
      "lead": 2170,
      "really": 2171,
      "åĪ°äºĨ": 2172,
      "æŁĲ": 2173,
      "sim": 2174,
      "èĥŀ": 2175,
      "åĿļ": 2176,
      "åĩ»": 2177,
      "ship": 2178,
      "vol": 2179,
      "ä¸¾": 2180,
      "ç²¾ç¥ŀ": 2181,
      "åĬŁèĥ½": 2182,
      "å©ļ": 2183,
      "çĽĳ": 2184,
      "a.": 2185,
      "velop": 2186,
      "iness": 2187,
      "ä¼Ĺ": 2188,
      "å¹´ï¼Į": 2189,
      "ing.": 2190,
      "å¾Īå¤ļ": 2191,
      "çªģ": 2192,
      "æĿ¥ï¼Į": 2193,
      "ä»¥åıĬ": 2194,
      "still": 2195,
      "three": 2196,
      "éĶĻ": 2197,
      "æĿ¿": 2198,
      "ç¼º": 2199,
      "è¡¨çİ°": 2200,
      "arm": 2201,
      "æİ§åĪ¶": 2202,
      "åıĭ": 2203,
      "æį¢": 2204,
      "als": 2205,
      "ï¼īĊ": 2206,
      "team": 2207,
      "care": 2208,
      "çĹĽ": 2209,
      "å®ŀéĻħ": 2210,
      "çł´": 2211,
      "æľ¨": 2212,
      "ä¸ªäºº": 2213,
      "cut": 2214,
      "èĴ": 2215,
      "home": 2216,
      "åºĶçĶ¨": 2217,
      "åĽº": 2218,
      "nâĢĻt": 2219,
      "Br": 2220,
      "ç½ĳç»ľ": 2221,
      "information": 2222,
      "ers,": 2223,
      "ä¸ĭï¼Į": 2224,
      "ics": 2225,
      "åĤ": 2226,
      "test": 2227,
      "xt": 2228,
      "side": 2229,
      "æ²¹": 2230,
      "S.": 2231,
      "pri": 2232,
      "çķ¥": 2233,
      "çļĦâĢľ": 2234,
      "è¿ĲåĬ¨": 2235,
      "çº³": 2236,
      "æĿ¡ä»¶": 2237,
      "çĶ²": 2238,
      "ves": 2239,
      "sing": 2240,
      "fil": 2241,
      ",\"": 2242,
      "èįī": 2243,
      "Be": 2244,
      "åį«": 2245,
      "å®¡": 2246,
      "è´£ä»»": 2247,
      "ä¿ĿæĬ¤": 2248,
      "real": 2249,
      "ah": 2250,
      "same": 2251,
      "light": 2252,
      "between": 2253,
      "è¿ĻäºĽ": 2254,
      "ouse": 2255,
      "æĪĳåĽ½": 2256,
      "place": 2257,
      "ç«¯": 2258,
      "best": 2259,
      "dec": 2260,
      "list": 2261,
      "çĽ®æłĩ": 2262,
      "åĪ¶åº¦": 2263,
      "å¯¹äºİ": 2264,
      "too": 2265,
      "åİ¿": 2266,
      "äººä»¬": 2267,
      "åĲĪåĲĮ": 2268,
      "present": 2269,
      "par": 2270,
      "irect": 2271,
      "child": 2272,
      "æŃĮ": 2273,
      "around": 2274,
      "å°Ħ": 2275,
      "äºĨè§£": 2276,
      "å¤«": 2277,
      "ä»½": 2278,
      "æĽ²": 2279,
      "inst": 2280,
      "gl": 2281,
      "æī¾": 2282,
      "Ad": 2283,
      "é¢Ŀ": 2284,
      "åĪ¤": 2285,
      "ç»Ĩèĥŀ": 2286,
      "åŁ¹åħ»": 2287,
      "åį°": 2288,
      "åºĶè¯¥": 2289,
      "follow": 2290,
      "Tr": 2291,
      "ï¼ŁĊ": 2292,
      "æ¼Ķ": 2293,
      "Sh": 2294,
      "æĿĳ": 2295,
      "post": 2296,
      "sk": 2297,
      "çİ°åľ¨": 2298,
      "åı¶": 2299,
      "How": 2300,
      "èĹ": 2301,
      "cept": 2302,
      "miss": 2303,
      "æīĢæľī": 2304,
      "dy": 2305,
      "both": 2306,
      "åĲĦç§į": 2307,
      "ãĢĳ": 2308,
      "Ph": 2309,
      "æŃ¦": 2310,
      "å§Ķ": 2311,
      "å¸®": 2312,
      "ittle": 2313,
      "ivers": 2314,
      "åģ¥åº·": 2315,
      "She": 2316,
      "å²ģ": 2317,
      "ww": 2318,
      "ãĢĲ": 2319,
      "å·¦": 2320,
      "èĥ½å¤Ł": 2321,
      "ower": 2322,
      "found": 2323,
      "æĭħ": 2324,
      "åĸľ": 2325,
      "åĪ©çĶ¨": 2326,
      "lot": 2327,
      "ï¼Įå®ĥ": 2328,
      "ç£": 2329,
      "æ½": 2330,
      "bre": 2331,
      "åºķ": 2332,
      "æľīåħ³": 2333,
      "ä¸´": 2334,
      "åłĤ": 2335,
      "çŁŃ": 2336,
      "game": 2337,
      "çĲĨè®º": 2338,
      "ways": 2339,
      "èĤ¡": 2340,
      "åĪ»": 2341,
      "å®ŀçİ°": 2342,
      "äººï¼Į": 2343,
      "åįł": 2344,
      "æĶ¿åºľ": 2345,
      "ç¬Ķ": 2346,
      "åı³": 2347,
      "atter": 2348,
      "e.": 2349,
      "åĳ³": 2350,
      "ç§»": 2351,
      "åĵª": 2352,
      "æĿİ": 2353,
      "cap": 2354,
      "åĳ¢": 2355,
      "éĨ": 2356,
      "èĳĹ": 2357,
      "äº¬": 2358,
      "program": 2359,
      "sol": 2360,
      "äºĨãĢĤ": 2361,
      "ten": 2362,
      "è¿Ļæł·": 2363,
      "var": 2364,
      "ms": 2365,
      "----": 2366,
      "report": 2367,
      "æı¡": 2368,
      "eld": 2369,
      "gener": 2370,
      "åľ°åĮº": 2371,
      "çĤİ": 2372,
      "ä¹Ŀ": 2373,
      "å¤§å®¶": 2374,
      "ation,": 2375,
      "åį±": 2376,
      "çĵ": 2377,
      "ä»ĺ": 2378,
      "éĶĢ": 2379,
      "çĩ": 2380,
      "ature": 2381,
      "ï¼īï¼Į": 2382,
      "éĢłæĪĲ": 2383,
      "ional": 2384,
      "åºŃ": 2385,
      "éĥ¨éĹ¨": 2386,
      "using": 2387,
      "åºĶå½ĵ": 2388,
      "ä»ĭ": 2389,
      "é£ŀ": 2390,
      "âĢĺ": 2391,
      "èĥĮ": 2392,
      "äº§åĵģ": 2393,
      "æ¤į": 2394,
      "search": 2395,
      "got": 2396,
      "riend": 2397,
      "second": 2398,
      "ft": 2399,
      "å»ºç«ĭ": 2400,
      "develop": 2401,
      "ider": 2402,
      "Ex": 2403,
      "ER": 2404,
      "exam": 2405,
      "éħĴ": 2406,
      "ç¬¦": 2407,
      "çĶ³": 2408,
      "èĭ¥": 2409,
      "commun": 2410,
      "åħ¸": 2411,
      "dat": 2412,
      "è´¨éĩı": 2413,
      "few": 2414,
      "åİŁåĽł": 2415,
      "ç»Ŀ": 2416,
      "èĻ½": 2417,
      "èŀį": 2418,
      "Co": 2419,
      "unt": 2420,
      "open": 2421,
      "ma": 2422,
      "ä¿ĥ": 2423,
      "rent": 2424,
      "åħµ": 2425,
      "support": 2426,
      "issu": 2427,
      "akes": 2428,
      "ion,": 2429,
      "çĸ¾": 2430,
      "site": 2431,
      "è·µ": 2432,
      "plic": 2433,
      "äºĳ": 2434,
      "éļľ": 2435,
      "ä¼¼": 2436,
      "ç½Ĺ": 2437,
      "è¿Ļç§į": 2438,
      "çĽ´æİ¥": 2439,
      "dist": 2440,
      "Mar": 2441,
      "happ": 2442,
      "IâĢĻ": 2443,
      "ese": 2444,
      "little": 2445,
      "æ¦Ĥ": 2446,
      "å¾ħ": 2447,
      "è§£åĨ³": 2448,
      "ord": 2449,
      "å¥¹": 2450,
      "éĤ£ä¹Ī": 2451,
      "opt": 2452,
      "IN": 2453,
      "é¾Ļ": 2454,
      "What": 2455,
      "å¦Ī": 2456,
      "æī¹": 2457,
      "æĻº": 2458,
      "giv": 2459,
      "èµĦæºĲ": 2460,
      "åħ·ä½ĵ": 2461,
      "sĊ": 2462,
      "çĽĺ": 2463,
      "éĺħ": 2464,
      "Pr": 2465,
      "æĿĲæĸĻ": 2466,
      "å¢ŀåĬł": 2467,
      "That": 2468,
      "ale": 2469,
      "month": 2470,
      "ied": 2471,
      "åıĺåĮĸ": 2472,
      "åĲĹ": 2473,
      "respon": 2474,
      "å½¢å¼ı": 2475,
      "different": 2476,
      "ä½Ļ": 2477,
      "state": 2478,
      "çŁ¥éģĵ": 2479,
      "ãĢĤä½Ĩ": 2480,
      "ense": 2481,
      "éĿŀå¸¸": 2482,
      "ired": 2483,
      "æİĮ": 2484,
      "æĢ¥": 2485,
      "åĶĲ": 2486,
      "éĩĬ": 2487,
      "Is": 2488,
      "å¿ĥçĲĨ": 2489,
      "é½": 2490,
      "Gr": 2491,
      "ç¾İåĽ½": 2492,
      "press": 2493,
      "es.Ċ": 2494,
      "free": 2495,
      "å¯¼èĩ´": 2496,
      "ï¼Įåı¯": 2497,
      "ç»ĵåĲĪ": 2498,
      "ness": 2499,
      "rest": 2500,
      "bit": 2501,
      "æıĲåĩº": 2502,
      "æĽ¾": 2503,
      "å¦Ĥä½ķ": 2504,
      "å®ĮæĪĲ": 2505,
      "çŃĳ": 2506,
      "ä¹ŁãĢĤ": 2507,
      "éĵ¶": 2508,
      "èĭı": 2509,
      "è¯Ńè¨Ģ": 2510,
      "school": 2511,
      "prof": 2512,
      "åıªæľī": 2513,
      "âĢ¦âĢ¦": 2514,
      "æ³¢": 2515,
      "å®Ĺ": 2516,
      "pass": 2517,
      "æ¬¢": 2518,
      "é»ĳ": 2519,
      "ä¸¤ä¸ª": 2520,
      "åı«": 2521,
      "group": 2522,
      "pur": 2523,
      "é¡¹çĽ®": 2524,
      "os": 2525,
      "è½¯": 2526,
      "ger": 2527,
      "room": 2528,
      "è¶£": 2529,
      "win": 2530,
      "during": 2531,
      "design": 2532,
      "ï¼Įåı¯ä»¥": 2533,
      "quest": 2534,
      "All": 2535,
      "friend": 2536,
      "éĢģ": 2537,
      "public": 2538,
      "éª¨": 2539,
      "æİ¢": 2540,
      "tech": 2541,
      "çīĪ": 2542,
      "å®Ī": 2543,
      "ize": 2544,
      "ital": 2545,
      "feel": 2546,
      "r.": 2547,
      "ç½ª": 2548,
      "è¯´ï¼Į": 2549,
      "ç§¯æŀģ": 2550,
      "å®ŀè·µ": 2551,
      "contin": 2552,
      "è¯¯": 2553,
      "ï¼ĮæīĢä»¥": 2554,
      "éģ¿": 2555,
      "cover": 2556,
      "ç´¢": 2557,
      "won": 2558,
      "ä»¥ä¸Ĭ": 2559,
      "ä¸ºäºĨ": 2560,
      "big": 2561,
      "éĴĪ": 2562,
      "another": 2563,
      "provid": 2564,
      "name": 2565,
      "çĶļ": 2566,
      "éĢĲ": 2567,
      "æ°´å¹³": 2568,
      "gest": 2569,
      "ä¹Łæĺ¯": 2570,
      "å½Ĵ": 2571,
      "ï¼Įè®©": 2572,
      "è®¡åĪĴ": 2573,
      "next": 2574,
      "æķ£": 2575,
      "When": 2576,
      "Inter": 2577,
      "æĸĩä»¶": 2578,
      "åģ¿": 2579,
      "order": 2580,
      "vi": 2581,
      "å¼ķèµ·": 2582,
      "ä»£è¡¨": 2583,
      "æ°ĳæĹı": 2584,
      "oper": 2585,
      "é¦Ļ": 2586,
      "ä»¥ä¸ĭ": 2587,
      "dri": 2588,
      "å°ģ": 2589,
      "æ£ĢæŁ¥": 2590,
      "incre": 2591,
      "åľ°æĸ¹": 2592,
      "ris": 2593,
      "fic": 2594,
      "partic": 2595,
      "ized": 2596,
      "ator": 2597,
      "vest": 2598,
      "law": 2599,
      ".\"Ċ": 2600,
      "enter": 2601,
      "èĤī": 2602,
      "rist": 2603,
      "plan": 2604,
      "çĲĨè§£": 2605,
      "éº": 2606,
      "ç»¿": 2607,
      "eas": 2608,
      "æĿĤ": 2609,
      "ä¸°": 2610,
      "ically": 2611,
      "è®¸å¤ļ": 2612,
      "æħ¢": 2613,
      "aph": 2614,
      "èıĮ": 2615,
      "Col": 2616,
      "æĶ¿æ²»": 2617,
      "åĲĮåŃ¦": 2618,
      "æŃ£ç¡®": 2619,
      "çŃīãĢĤ": 2620,
      "åģĩ": 2621,
      "å®«": 2622,
      "åīĤ": 2623,
      "day,": 2624,
      "é¥®": 2625,
      "åĬłå¼º": 2626,
      "æ¯Ľ": 2627,
      "èľ": 2628,
      "bers": 2629,
      "å¸Į": 2630,
      "çļĩ": 2631,
      "oto": 2632,
      "ç´§": 2633,
      "allow": 2634,
      "gre": 2635,
      "ude": 2636,
      "è¿Ļä¸Ģ": 2637,
      "loy": 2638,
      "äºĪ": 2639,
      "cri": 2640,
      "exp": 2641,
      "æĿ¥çļĦ": 2642,
      "éĩĩçĶ¨": 2643,
      "business": 2644,
      "bro": 2645,
      "ç«Ļ": 2646,
      "åį¡": 2647,
      "interest": 2648,
      "ric": 2649,
      "season": 2650,
      "soci": 2651,
      "against": 2652,
      "æľīæķĪ": 2653,
      "ä¹°": 2654,
      "came": 2655,
      "AN": 2656,
      "ç»ĵæŀľ": 2657,
      "ces": 2658,
      "product": 2659,
      "å®£": 2660,
      "AT": 2661,
      "national": 2662,
      "ï¼Įä»ĸ": 2663,
      "since": 2664,
      "éŃ": 2665,
      "something": 2666,
      "ä»·åĢ¼": 2667,
      "process": 2668,
      "ages": 2669,
      "ather": 2670,
      "ork": 2671,
      "night": 2672,
      "çģµ": 2673,
      "æīįèĥ½": 2674,
      "it.": 2675,
      "æĤ£èĢħ": 2676,
      "ont": 2677,
      "ared": 2678,
      "ï¼Įåį³": 2679,
      "ç¨ĭåºı": 2680,
      "contro": 2681,
      "Pl": 2682,
      "ross": 2683,
      "æĢ§çļĦ": 2684,
      "including": 2685,
      "water": 2686,
      "market": 2687,
      "Or": 2688,
      "äººç±»": 2689,
      "four": 2690,
      "éĶ®": 2691,
      "åŃ¦çĶŁçļĦ": 2692,
      "import": 2693,
      "è´§": 2694,
      "å·´": 2695,
      "é±": 2696,
      "word": 2697,
      ".com": 2698,
      "must": 2699,
      "ient": 2700,
      "better": 2701,
      "çļĦæĹ¶åĢĻ": 2702,
      "number": 2703,
      "æĺ¯åĲ¦": 2704,
      "sit": 2705,
      "çī¹åĪ«": 2706,
      "ished": 2707,
      "æĵįä½ľ": 2708,
      ",âĢĿ": 2709,
      "çĻ»": 2710,
      "ä¸Ģæ¬¡": 2711,
      "illion": 2712,
      "gy": 2713,
      "ped": 2714,
      "ç¦ı": 2715,
      "keep": 2716,
      "never": 2717,
      "ç¤¼": 2718,
      "çĨŁ": 2719,
      "uck": 2720,
      "appe": 2721,
      "met": 2722,
      "é¡º": 2723,
      "éģĹ": 2724,
      "é±¼": 2725,
      "vir": 2726,
      "experi": 2727,
      "love": 2728,
      "ush": 2729,
      "èĭ¦": 2730,
      "organ": 2731,
      "çī¹çĤ¹": 2732,
      "éĢĢ": 2733,
      "ä¹ĭä¸Ģ": 2734,
      "avail": 2735,
      "pay": 2736,
      "åħ°": 2737,
      "iting": 2738,
      "çİ°ä»£": 2739,
      "ç»¼": 2740,
      "proble": 2741,
      "å®¶éķ¿": 2742,
      "qual": 2743,
      "direct": 2744,
      "wom": 2745,
      "æĢİä¹Ī": 2746,
      "ç¬¬ä¸ī": 2747,
      "hard": 2748,
      "oth": 2749,
      "æ´²": 2750,
      "ï½": 2751,
      "My": 2752,
      "æĮīçħ§": 2753,
      "without": 2754,
      "atur": 2755,
      "sum": 2756,
      "ames": 2757,
      "por": 2758,
      "å¸®åĬ©": 2759,
      "ç§ĭ": 2760,
      "çĺ": 2761,
      "rece": 2762,
      ".,": 2763,
      "èīºæľ¯": 2764,
      "nor": 2765,
      "AR": 2766,
      "ï¼Įæ¯ı": 2767,
      "vo": 2768,
      "æĪı": 2769,
      "è®¤è¯Ĩ": 2770,
      "power": 2771,
      "åĢŁ": 2772,
      "uc": 2773,
      "è®¾å¤ĩ": 2774,
      "çłģ": 2775,
      "å®ĭ": 2776,
      "hn": 2777,
      "comple": 2778,
      "æĹ¶æľŁ": 2779,
      "æ°§": 2780,
      "æĥ¯": 2781,
      "ä¸Ģæł·": 2782,
      "äº¤éĢļ": 2783,
      "health": 2784,
      "pot": 2785,
      "possi": 2786,
      "small": 2787,
      "gover": 2788,
      "ä¸Ńå¿ĥ": 2789,
      "effect": 2790,
      "stat": 2791,
      "æĿ¾": 2792,
      "æĦ¿": 2793,
      "éĽ¨": 2794,
      "ä¸įæĸŃ": 2795,
      "èĽĭ": 2796,
      "ç¥ĸ": 2797,
      "Coun": 2798,
      "ä¹ħ": 2799,
      "åĿĹ": 2800,
      "lear": 2801,
      "åħ³äºİ": 2802,
      "ism": 2803,
      "er.": 2804,
      "æĹ¢": 2805,
      "it's": 2806,
      "ï¼ĽĊ": 2807,
      "è¿ĩĊ": 2808,
      "éĺħè¯»": 2809,
      "build": 2810,
      "class": 2811,
      "aren": 2812,
      "éĺ´": 2813,
      "________": 2814,
      "åģľ": 2815,
      "level": 2816,
      "beli": 2817,
      "perform": 2818,
      "ability": 2819,
      "ready": 2820,
      "pat": 2821,
      "seem": 2822,
      "éĿĻ": 2823,
      "ç¡¬": 2824,
      "ç³ĸ": 2825,
      "è¯¢": 2826,
      "è¿ĺæĺ¯": 2827,
      "é¢ĳ": 2828,
      "dep": 2829,
      "ball": 2830,
      "gin": 2831,
      "æĮ¥": 2832,
      "web": 2833,
      "å®¹æĺĵ": 2834,
      "mus": 2835,
      "ç«¥": 2836,
      "May": 2837,
      "åĽ½éĻħ": 2838,
      "ç¨³": 2839,
      "å»ºçŃĳ": 2840,
      "è¿½": 2841,
      "è¡¨ç¤º": 2842,
      "ib": 2843,
      "ï¼Įè¦ģ": 2844,
      "iversity": 2845,
      "çĦ¶åĲİ": 2846,
      "face": 2847,
      "åıĬæĹ¶": 2848,
      "ä¹¡": 2849,
      "çĬ¯": 2850,
      "çī©è´¨": 2851,
      "mar": 2852,
      "ON": 2853,
      "At": 2854,
      "might": 2855,
      "æ°ı": 2856,
      "è¿Ľåħ¥": 2857,
      "åĲ¯": 2858,
      "aim": 2859,
      "ution": 2860,
      "åĪĳ": 2861,
      "æĦıè¯Ĩ": 2862,
      "éĵģ": 2863,
      "Car": 2864,
      "ä»į": 2865,
      "spec": 2866,
      "don't": 2867,
      "æĸ°çļĦ": 2868,
      "ä¼łç»Ł": 2869,
      "cu": 2870,
      "äº«": 2871,
      "Ser": 2872,
      "change": 2873,
      "lin": 2874,
      "adv": 2875,
      "U.": 2876,
      "Bl": 2877,
      "åħ±åĲĮ": 2878,
      "åĺ": 2879,
      "è¿Ŀ": 2880,
      "æ¸Ĳ": 2881,
      "//": 2882,
      "æī§è¡Į": 2883,
      "case": 2884,
      "ird": 2885,
      "æıı": 2886,
      "lim": 2887,
      "nment": 2888,
      "èĢĥè¯ķ": 2889,
      "grow": 2890,
      "å½©": 2891,
      "åĨ²": 2892,
      "company": 2893,
      "åĪĺ": 2894,
      "çĶŁçī©": 2895,
      "å¾ĹåĪ°": 2896,
      "éģĩ": 2897,
      ".âĢĿĊ": 2898,
      "èº«ä½ĵ": 2899,
      "gen": 2900,
      "cell": 2901,
      "available": 2902,
      "éĺ¶æ®µ": 2903,
      "åľĨ": 2904,
      "ä¸ĢãĢģ": 2905,
      "based": 2906,
      "å¼Ģå±ķ": 2907,
      "rele": 2908,
      "èµĽ": 2909,
      "èĵ": 2910,
      "la": 2911,
      "....": 2912,
      "bal": 2913,
      "ä¸ĢæŃ¥": 2914,
      "åĳ¼": 2915,
      "turn": 2916,
      "åŃ£": 2917,
      "men": 2918,
      "èĹı": 2919,
      "ele": 2920,
      "fort": 2921,
      "çĶ¨äºİ": 2922,
      "John": 2923,
      "æľºæŀĦ": 2924,
      "çĽ®åīį": 2925,
      "ä¸¥éĩį": 2926,
      "oot": 2927,
      "æ´¾": 2928,
      "uss": 2929,
      "appro": 2930,
      "Fe": 2931,
      "ES": 2932,
      "è¾¾åĪ°": 2933,
      "A.": 2934,
      "p.": 2935,
      "èŃ": 2936,
      "on,": 2937,
      "çļĦå¤§": 2938,
      "æŃ£å¸¸": 2939,
      "position": 2940,
      "fac": 2941,
      "ues": 2942,
      "move": 2943,
      "äº¡": 2944,
      "'re": 2945,
      "ey": 2946,
      "ç¡®å®ļ": 2947,
      "æĦıä¹ī": 2948,
      ").Ċ": 2949,
      "I'm": 2950,
      "éĴ±": 2951,
      "å¤ľ": 2952,
      "æī©": 2953,
      "itch": 2954,
      "åĽ°": 2955,
      "æķ°åŃ¦": 2956,
      "åĨ·": 2957,
      "Res": 2958,
      "ï¼ĮæľĢ": 2959,
      "away": 2960,
      "å³": 2961,
      "things": 2962,
      "ç»¼åĲĪ": 2963,
      "IS": 2964,
      "bed": 2965,
      "è´Ń": 2966,
      "éĴŁ": 2967,
      "def": 2968,
      "ever,": 2969,
      "è¡ĮæĶ¿": 2970,
      "ï½ŀ": 2971,
      "always": 2972,
      "ä¸Ģèµ·": 2973,
      "ago": 2974,
      "èĻļ": 2975,
      "èıľ": 2976,
      "å¥ĩ": 2977,
      "ters": 2978,
      "ï¼Įå¦Ĥæŀľ": 2979,
      "ably": 2980,
      "åĽłç´ł": 2981,
      "æĸĹ": 2982,
      "ç»©": 2983,
      "AS": 2984,
      "current": 2985,
      "æĮĩå¯¼": 2986,
      "çĶ·": 2987,
      "it,": 2988,
      "éĺ¿": 2989,
      "action": 2990,
      "hist": 2991,
      "çĶŁåĳ½": 2992,
      "Man": 2993,
      "èĮ¶": 2994,
      "With": 2995,
      "manag": 2996,
      "åĿı": 2997,
      "æīĺ": 2998,
      "ix": 2999,
      "çĶļèĩ³": 3000,
      "æĬķèµĦ": 3001,
      "åŁİå¸Ĥ": 3002,
      "ä¹łæĥ¯": 3003,
      "çĶ³è¯·": 3004,
      "Ap": 3005,
      "ed.Ċ": 3006,
      "å¹´çļĦ": 3007,
      "ier": 3008,
      "èĨľ": 3009,
      "åŃĶ": 3010,
      "ï¼ĮåıĪ": 3011,
      "è°Ī": 3012,
      "pop": 3013,
      "bor": 3014,
      "thor": 3015,
      "ï¼Įä½Ĩæĺ¯": 3016,
      "å±ŀäºİ": 3017,
      "hold": 3018,
      "æ³ķéĻ¢": 3019,
      "å»¶": 3020,
      "ation.": 3021,
      "Âł": 3022,
      "æľĭ": 3023,
      "ars": 3024,
      "logy": 3025,
      "èĸ": 3026,
      "èĮĥåĽ´": 3027,
      "ç§°ä¸º": 3028,
      "è§¦": 3029,
      "æİª": 3030,
      "hum": 3031,
      "return": 3032,
      "count": 3033,
      "æĩ": 3034,
      "çĸ«": 3035,
      "ä»ĸçļĦ": 3036,
      "ety": 3037,
      "æľīçļĦ": 3038,
      "åĢº": 3039,
      "outh": 3040,
      "éĩįçĤ¹": 3041,
      "åİŁåĪĻ": 3042,
      "American": 3043,
      "ants": 3044,
      "å¼Ģåıĳ": 3045,
      "left": 3046,
      "ribut": 3047,
      "record": 3048,
      "Af": 3049,
      "æİĮæı¡": 3050,
      "ik": 3051,
      "ä¹İ": 3052,
      "graph": 3053,
      "Do": 3054,
      "prom": 3055,
      "èİ·å¾Ĺ": 3056,
      "data": 3057,
      "å§ĵ": 3058,
      "åĬª": 3059,
      "è´µ": 3060,
      "give": 3061,
      "inal": 3062,
      "åħ¨åĽ½": 3063,
      "åį·": 3064,
      "èĥľ": 3065,
      "å®ŀæĸ½": 3066,
      "è¯´æĺİ": 3067,
      "æĴŃ": 3068,
      "body": 3069,
      "ï¼Įå¤§": 3070,
      "family": 3071,
      "ä»»ä½ķ": 3072,
      "å®¶åºŃ": 3073,
      "itâĢĻs": 3074,
      "tom": 3075,
      "æ¹ĸ": 3076,
      "äºĮãĢģ": 3077,
      "åºĵ": 3078,
      "æĢĢ": 3079,
      "èĻ½çĦ¶": 3080,
      "offer": 3081,
      "é¢Ĩå¯¼": 3082,
      "çĸ¾çĹħ": 3083,
      "meet": 3084,
      "invest": 3085,
      "ä¸įä¼ļ": 3086,
      "hop": 3087,
      "sal": 3088,
      "æķĪæŀľ": 3089,
      "ç§¦": 3090,
      "until": 3091,
      "offic": 3092,
      "ï¼ĮèĢĮä¸Ķ": 3093,
      "éĻĦ": 3094,
      "chang": 3095,
      "ute": 3096,
      "full": 3097,
      "è®¨": 3098,
      "project": 3099,
      "ustom": 3100,
      "ä¹Ļ": 3101,
      "æĻļ": 3102,
      "Ac": 3103,
      "Nor": 3104,
      "ling": 3105,
      "åįļ": 3106,
      "è¯¸": 3107,
      "children": 3108,
      "åĨ³å®ļ": 3109,
      "çº¸": 3110,
      "example": 3111,
      "ä¿ĿéĻ©": 3112,
      "past": 3113,
      "åºĬ": 3114,
      "åĪĩï¼Į": 3115,
      "expect": 3116,
      "æ²Ļ": 3117,
      "tell": 3118,
      "èµĦæĸĻ": 3119,
      "hal": 3120,
      "æ¥¼": 3121,
      "cost": 3122,
      "c.": 3123,
      "talk": 3124,
      "äº®": 3125,
      "æĹ¶ä»£": 3126,
      "çĮ®": 3127,
      "ãĢģâĢľ": 3128,
      "åĬ¨çī©": 3129,
      "bin": 3130,
      "å®ľ": 3131,
      "AM": 3132,
      "è°ĵ": 3133,
      "blo": 3134,
      "ï¼Įä½ł": 3135,
      "å¤ı": 3136,
      "äºĨä¸Ģ": 3137,
      "clear": 3138,
      "consider": 3139,
      "ral": 3140,
      "ove": 3141,
      "ä¾§": 3142,
      "$P$$P$": 3143,
      "çīĽ": 3144,
      "que": 3145,
      "OR": 3146,
      "ä¿ĿæĮģ": 3147,
      "Can": 3148,
      "éĿł": 3149,
      "å¤ĸï¼Į": 3150,
      "ç¼©": 3151,
      "arr": 3152,
      "æĺ¯åľ¨": 3153,
      "ä¸ĸçºª": 3154,
      "key": 3155,
      "äºĭæķħ": 3156,
      "field": 3157,
      "und": 3158,
      "hour": 3159,
      "çĥŁ": 3160,
      "æĺ¯ä¸Ģä¸ª": 3161,
      "çŃ¾": 3162,
      "ç®Ģåįķ": 3163,
      "æĪĲåĬŁ": 3164,
      "sever": 3165,
      "çİ°è±¡": 3166,
      "é¦ĸåħĪ": 3167,
      "åĲİçļĦ": 3168,
      "æľĭåıĭ": 3169,
      "U.S.": 3170,
      "ï¼Įåıª": 3171,
      "åº§": 3172,
      "ç»į": 3173,
      "ists": 3174,
      "èĻĳ": 3175,
      "äººçľĭ": 3176,
      "suc": 3177,
      "æĶ¿çŃĸ": 3178,
      "å¾Ħ": 3179,
      "C.": 3180,
      "conom": 3181,
      "enn": 3182,
      "âĢĻre": 3183,
      "ä¹±": 3184,
      "æ´ĭ": 3185,
      "ãĢĤåħ¶": 3186,
      "important": 3187,
      "University": 3188,
      "ï¼Įå½ĵ": 3189,
      "ç»ıè¿ĩ": 3190,
      "éķĩ": 3191,
      "çĿ¡": 3192,
      "åĬªåĬĽ": 3193,
      "è·Ŀ": 3194,
      "ium": 3195,
      "event": 3196,
      "Me": 3197,
      "æĪĳçļĦ": 3198,
      "ately": 3199,
      "One": 3200,
      "ãĢĤå¦Ĥæŀľ": 3201,
      "plac": 3202,
      "åĩıå°ĳ": 3203,
      "nam": 3204,
      "æ¯ķ": 3205,
      "éĻĪ": 3206,
      "çĿ£": 3207,
      ";Ċ": 3208,
      "dev": 3209,
      "Christ": 3210,
      "åĩĨå¤ĩ": 3211,
      "indow": 3212,
      "reason": 3213,
      "è¿ĺæľī": 3214,
      "ended": 3215,
      "ä¾µ": 3216,
      "æİĪ": 3217,
      "house": 3218,
      "ä¸įåı¯": 3219,
      "istr": 3220,
      "æĺ¯ä¸Ģ": 3221,
      "æĽ°": 3222,
      "ron": 3223,
      "iver": 3224,
      "recent": 3225,
      "å®ŀéªĮ": 3226,
      "ï¼ĮçĶ¨": 3227,
      "Bo": 3228,
      "ä¿ĥè¿Ľ": 3229,
      "ision": 3230,
      "near": 3231,
      "èĦļ": 3232,
      "æ±¡": 3233,
      "ç¥¨": 3234,
      "tem": 3235,
      "ime": 3236,
      "åĪº": 3237,
      "åŃķ": 3238,
      "æķĳ": 3239,
      "cy": 3240,
      "ãĢĤèĢĮ": 3241,
      "sw": 3242,
      "prote": 3243,
      "å¼±": 3244,
      "çļĦåıĳå±ķ": 3245,
      "sof": 3246,
      "course": 3247,
      "ivid": 3248,
      "making": 3249,
      "ster": 3250,
      "coming": 3251,
      "AL": 3252,
      "plain": 3253,
      "nal": 3254,
      "åıĤåĬł": 3255,
      "è·Ł": 3256,
      "å®½": 3257,
      "t.": 3258,
      "éĩıçļĦ": 3259,
      "æĬĺ": 3260,
      "ley": 3261,
      "çİī": 3262,
      "ç»ĦæĪĲ": 3263,
      "è¯¾ç¨ĭ": 3264,
      "ending": 3265,
      "far": 3266,
      "æ¬§": 3267,
      "æĸ¹åĲĳ": 3268,
      "non": 3269,
      "æĿĢ": 3270,
      "ä¿Ĺ": 3271,
      "ä½Ľ": 3272,
      "é½Ĳ": 3273,
      "Mon": 3274,
      "å°ļ": 3275,
      "ç¹": 3276,
      "ä»ª": 3277,
      "èĤĮ": 3278,
      "called": 3279,
      "tract": 3280,
      "ä¸Ńåįİ": 3281,
      "æĶ»": 3282,
      "æĹłæ³ķ": 3283,
      "icle": 3284,
      "å®Įåħ¨": 3285,
      "åĲĽ": 3286,
      "function": 3287,
      "åħħåĪĨ": 3288,
      "ä¸°å¯Į": 3289,
      "é¹": 3290,
      "load": 3291,
      "mot": 3292,
      "æĶ¯æĮģ": 3293,
      "member": 3294,
      "aster": 3295,
      "late": 3296,
      "oney": 3297,
      "æ¥ļ": 3298,
      "åıĹåĪ°": 3299,
      "åī§": 3300,
      "hy": 3301,
      "ies,": 3302,
      "within": 3303,
      "ä½ľèĢħ": 3304,
      "éļıçĿĢ": 3305,
      "ency": 3306,
      "çĥĪ": 3307,
      "å°Ĭ": 3308,
      "æĿŁ": 3309,
      "ers.": 3310,
      "Sy": 3311,
      "ï¼īãĢĤ": 3312,
      "æĸĩç«ł": 3313,
      "m.": 3314,
      "Te": 3315,
      "job": 3316,
      "having": 3317,
      "service": 3318,
      "æİªæĸ½": 3319,
      "large": 3320,
      "jor": 3321,
      "æľ«": 3322,
      "äººçľĭè¿ĩĊ": 3323,
      "government": 3324,
      "ï¼Įå°Ĩ": 3325,
      "é²ľ": 3326,
      "ç¨ĭåº¦": 3327,
      "Sp": 3328,
      "çģŃ": 3329,
      "den": 3330,
      "employ": 3331,
      "ä¸įè¦ģ": 3332,
      "ps": 3333,
      "çĬ¶æĢģ": 3334,
      "kind": 3335,
      "whe": 3336,
      "æĤ¨": 3337,
      "cording": 3338,
      "ca": 3339,
      "èĦī": 3340,
      "ply": 3341,
      "è´Łè´£": 3342,
      "percent": 3343,
      "çļĦäºĭ": 3344,
      "ste": 3345,
      "ç¦ģ": 3346,
      "å°¿": 3347,
      "å´": 3348,
      "åħ¨éĿ¢": 3349,
      "åĬ±": 3350,
      "comes": 3351,
      "èģļ": 3352,
      "tow": 3353,
      "æ¯Ķå¦Ĥ": 3354,
      "bas": 3355,
      "ç»ıéªĮ": 3356,
      "åĪĨä¸º": 3357,
      "è¶ħè¿ĩ": 3358,
      "proper": 3359,
      "çĹĩçĬ¶": 3360,
      "èĦ±": 3361,
      "éĢı": 3362,
      "çĪ¶æ¯į": 3363,
      "æĽ´å¤ļ": 3364,
      "çļĦéĹ®é¢ĺ": 3365,
      "Med": 3366,
      "æĭĽ": 3367,
      "says": 3368,
      "ç«ŀ": 3369,
      "èµ·æĿ¥": 3370,
      "ï¼ĮâĢľ": 3371,
      "elect": 3372,
      "è´¥": 3373,
      "local": 3374,
      "research": 3375,
      "ben": 3376,
      "ç»ıèĲ¥": 3377,
      "ä¿Ŀè¯ģ": 3378,
      "èŃ¦": 3379,
      "æ´Ĺ": 3380,
      "åĪļ": 3381,
      "ï¼ĮåĽłæŃ¤": 3382,
      "å¤®": 3383,
      "photo": 3384,
      "ctor": 3385,
      "ä¹³": 3386,
      "æĬ¥åĳĬ": 3387,
      "ref": 3388,
      "cas": 3389,
      "å¯Ĵ": 3390,
      "ï¼ĮåĽłä¸º": 3391,
      "trad": 3392,
      "çģ¯": 3393,
      "Ste": 3394,
      "addition": 3395,
      "ãĢĤï¼Ī": 3396,
      "èĤł": 3397,
      "äº¦": 3398,
      "å·¥ä¸ļ": 3399,
      "ideo": 3400,
      "è¿Ľä¸ĢæŃ¥": 3401,
      "åį«çĶŁ": 3402,
      "AC": 3403,
      "Jan": 3404,
      "å¨ģ": 3405,
      "è°¢": 3406,
      "é¼ĵ": 3407,
      "æķħäºĭ": 3408,
      "ãĢĤå½ĵ": 3409,
      "åĿļæĮģ": 3410,
      "uro": 3411,
      "vious": 3412,
      "å°¼": 3413,
      "mind": 3414,
      "ond": 3415,
      "å°¤": 3416,
      "working": 3417,
      "åĴ¨": 3418,
      "mean": 3419,
      "bur": 3420,
      "went": 3421,
      "éĻĨ": 3422,
      "è¡£": 3423,
      "bar": 3424,
      "ible": 3425,
      "ä¸įåĲĮçļĦ": 3426,
      "èģĶç³»": 3427,
      "æ°¸": 3428,
      "æ±ĩ": 3429,
      "t,": 3430,
      "Mic": 3431,
      "ho": 3432,
      "çīĻ": 3433,
      "ng": 3434,
      "control": 3435,
      "èļ": 3436,
      "ãĢģãĢĬ": 3437,
      "augh": 3438,
      "mil": 3439,
      "ground": 3440,
      "custom": 3441,
      "activ": 3442,
      "é¡¾": 3443,
      "ä¸ľè¥¿": 3444,
      "train": 3445,
      "éĢĶ": 3446,
      "è§Ĥå¯Ł": 3447,
      "gether": 3448,
      "è¡¡": 3449,
      "åĪĽéĢł": 3450,
      "aid": 3451,
      "ping": 3452,
      "çİ©": 3453,
      "ç©ºéĹ´": 3454,
      "éĿ©åĳ½": 3455,
      "date": 3456,
      "çļĦéĩįè¦ģ": 3457,
      "donâĢĻt": 3458,
      "cal": 3459,
      "fund": 3460,
      "èĶ": 3461,
      "food": 3462,
      "åĤ¨": 3463,
      "After": 3464,
      "åŁ¹è®Ń": 3465,
      "åĿĲ": 3466,
      "i-": 3467,
      "looking": 3468,
      "æģ¶": 3469,
      "ï¼ĮåĪĻ": 3470,
      "enough": 3471,
      "æ··": 3472,
      "æĸĩæĺİ": 3473,
      "pract": 3474,
      "é£Łçī©": 3475,
      "æĶ¹éĿ©": 3476,
      "èĤĿ": 3477,
      "ç¼ĵ": 3478,
      "least": 3479,
      "board": 3480,
      "èµĶ": 3481,
      "ä¾ĭå¦Ĥ": 3482,
      "çĽĸ": 3483,
      "å¦ĩ": 3484,
      "IT": 3485,
      "è®¡ç®Ĺæľº": 3486,
      "million": 3487,
      "åĴ¨è¯¢": 3488,
      "å¸ĮæľĽ": 3489,
      "åıįåºĶ": 3490,
      "çĶ°": 3491,
      "æĺİç¡®": 3492,
      "ç©¿": 3493,
      "è®¾ç½®": 3494,
      "ike": 3495,
      "è§ĦèĮĥ": 3496,
      "æĹ¥æľ¬": 3497,
      "ç¹ģ": 3498,
      "ç§Ģ": 3499,
      "å±ĭ": 3500,
      "æĺİæĺ¾": 3501,
      "today": 3502,
      "åĶ®": 3503,
      "è¡¨è¾¾": 3504,
      "èģĮä¸ļ": 3505,
      "experience": 3506,
      "åıĸå¾Ĺ": 3507,
      "å»ºè®®": 3508,
      "ç»Łä¸Ģ": 3509,
      "æ¡¥": 3510,
      "äº¤æµģ": 3511,
      "éŁ³ä¹Ĳ": 3512,
      "Pres": 3513,
      "Jun": 3514,
      "ä¸½": 3515,
      "special": 3516,
      "çĶµåŃĲ": 3517,
      "ned": 3518,
      "possible": 3519,
      "mit": 3520,
      "æĦŁæŁĵ": 3521,
      "ä½ĵçļĦ": 3522,
      "æ¨¡å¼ı": 3523,
      "éĢŁåº¦": 3524,
      "åŃĻ": 3525,
      "unch": 3526,
      "æŀ¶": 3527,
      "RE": 3528,
      "sl": 3529,
      "II": 3530,
      "çĸĳ": 3531,
      "ä½ĵç³»": 3532,
      "ity,": 3533,
      "certain": 3534,
      "ç´¯": 3535,
      "éĵ¶è¡Į": 3536,
      "åģļå¥½": 3537,
      "æĺ¾ç¤º": 3538,
      "sug": 3539,
      "done": 3540,
      "åĪĽæĸ°": 3541,
      "éĺ»": 3542,
      "å¥¶": 3543,
      "æľºåħ³": 3544,
      "itor": 3545,
      "uary": 3546,
      "è®¤çľŁ": 3547,
      "èĢ³": 3548,
      "claim": 3549,
      "æĶ¹åıĺ": 3550,
      "why": 3551,
      "ï¼īãĢģ": 3552,
      "ç½ļ": 3553,
      "war": 3554,
      "ï¼Įä»İèĢĮ": 3555,
      "short": 3556,
      "éļĲ": 3557,
      "en,": 3558,
      "æĭ¿": 3559,
      "known": 3560,
      "access": 3561,
      "ization": 3562,
      "thod": 3563,
      "ä½ľåĵģ": 3564,
      "è¾ĳ": 3565,
      "æĪĳä»¬çļĦ": 3566,
      "w.": 3567,
      "èĤ¿": 3568,
      "æĢ»ç»ĵ": 3569,
      "éķ¿æľŁ": 3570,
      "together": 3571,
      "éĩİ": 3572,
      "OS": 3573,
      "éĢļå¸¸": 3574,
      "along": 3575,
      "conne": 3576,
      "æ±ł": 3577,
      "å¸ģ": 3578,
      "é¡µ": 3579,
      "èħ¹": 3580,
      "camp": 3581,
      "ä¸īãĢģ": 3582,
      "It's": 3583,
      "æ³Ľ": 3584,
      "htt": 3585,
      "ted": 3586,
      "è¿ĲçĶ¨": 3587,
      "ãĢĤåĽłæŃ¤": 3588,
      "took": 3589,
      "half": 3590,
      "told": 3591,
      "provide": 3592,
      "è¯¾åłĤ": 3593,
      "éĹ»": 3594,
      "ä»»åĬ¡": 3595,
      "è¸": 3596,
      "tal": 3597,
      "ä»ĭç»į": 3598,
      "çļĦæĸ¹æ³ķ": 3599,
      "ull": 3600,
      "check": 3601,
      "mber": 3602,
      "is,": 3603,
      "åıĤä¸İ": 3604,
      "åĨĮ": 3605,
      "æĢ§ï¼Į": 3606,
      "çĳ": 3607,
      "çĹħæ¯Ĵ": 3608,
      "mission": 3609,
      "éĿ¢ç§¯": 3610,
      "ets": 3611,
      "result": 3612,
      "Mc": 3613,
      "ä¼ĳ": 3614,
      "applic": 3615,
      "âĢĿãĢģâĢľ": 3616,
      "Ind": 3617,
      "çī¹å¾ģ": 3618,
      "ä¸Ńå¤®": 3619,
      "aff": 3620,
      "çĽĽ": 3621,
      "Aug": 3622,
      "days": 3623,
      "stor": 3624,
      "æ¢¦": 3625,
      "stop": 3626,
      "Mo": 3627,
      "review": 3628,
      "æĺ¯ä¸Ģç§į": 3629,
      "major": 3630,
      "band": 3631,
      "success": 3632,
      "å®ļçļĦ": 3633,
      "è®Ńç»ĥ": 3634,
      "èĻ«": 3635,
      "å·¨": 3636,
      "==": 3637,
      "five": 3638,
      "é¾Ħ": 3639,
      "ãģ": 3640,
      "åľŁåľ°": 3641,
      "ä½įç½®": 3642,
      "æĸ¹æ¡Ī": 3643,
      "åħ´è¶£": 3644,
      "ä¸ļåĬ¡": 3645,
      "èĥĥ": 3646,
      "nes": 3647,
      "iter": 3648,
      "çľĭåĪ°": 3649,
      "å·¦åı³": 3650,
      "D.": 3651,
      "ina": 3652,
      "åĳ¢ï¼Ł": 3653,
      "èĦĤ": 3654,
      "later": 3655,
      "èĭ±è¯Ń": 3656,
      "dro": 3657,
      "ä¼´": 3658,
      "ference": 3659,
      "ister": 3660,
      "...Ċ": 3661,
      "Cor": 3662,
      "åħ³éĶ®": 3663,
      "ï¼ĮæĬĬ": 3664,
      "éĥ½æľī": 3665,
      "æ®ĭ": 3666,
      "å°±ä¼ļ": 3667,
      "ock": 3668,
      "iday": 3669,
      "è½®": 3670,
      "lection": 3671,
      "://": 3672,
      "By": 3673,
      "å¼ķå¯¼": 3674,
      "include": 3675,
      "ï¼ĮæĽ´": 3676,
      "è®¢": 3677,
      "åįıè®®": 3678,
      "United": 3679,
      "ought": 3680,
      "å²Ľ": 3681,
      "gn": 3682,
      "several": 3683,
      "éģį": 3684,
      "TH": 3685,
      "struct": 3686,
      "live": 3687,
      "ney": 3688,
      "æ®Ĭ": 3689,
      "è¯´ï¼ļâĢľ": 3690,
      "ãĢĢåıĪ": 3691,
      "story": 3692,
      "é¢ĨåŁŁ": 3693,
      "ç»ıå¸¸": 3694,
      "aut": 3695,
      "åİļ": 3696,
      "ç»§ç»Ń": 3697,
      "æ±½": 3698,
      "æ²ī": 3699,
      "ãĢĤå¦Ĥ": 3700,
      "problem": 3701,
      "IC": 3702,
      "music": 3703,
      "step": 3704,
      "ï¼ģĊ": 3705,
      "charac": 3706,
      "ons": 3707,
      "åľ£": 3708,
      "è¯ĳ": 3709,
      "Ed": 3710,
      "åĸľæ¬¢": 3711,
      "already": 3712,
      "å¥Ĺ": 3713,
      "æ¸¸æĪı": 3714,
      "æ¹¿": 3715,
      "aterial": 3716,
      "ential": 3717,
      "Am": 3718,
      "æĸĩåŃ¦": 3719,
      "çĭ¬ç«ĭ": 3720,
      "ying": 3721,
      "æ¬²": 3722,
      "ä¸įä»ħ": 3723,
      "econom": 3724,
      "å¼¹": 3725,
      "è¯Ĭ": 3726,
      "disc": 3727,
      "polit": 3728,
      "aud": 3729,
      "often": 3730,
      "ç¥ŀç»ı": 3731,
      "å¤§ï¼Į": 3732,
      "complete": 3733,
      "éī": 3734,
      "aring": 3735,
      "pret": 3736,
      "åĦ¿ç«¥": 3737,
      "èĴĻ": 3738,
      "ior": 3739,
      "EN": 3740,
      "éģ¿åħį": 3741,
      "çŃĶæ¡Ī": 3742,
      "æľŁéĹ´": 3743,
      "State": 3744,
      "atic": 3745,
      "æĺł": 3746,
      "åī¯": 3747,
      "deal": 3748,
      "æĺ¯æĮĩ": 3749,
      "fig": 3750,
      "members": 3751,
      "èĩªæĪĳ": 3752,
      "anal": 3753,
      "åĮĹäº¬": 3754,
      "å®ĥä»¬": 3755,
      "question": 3756,
      "ç²ī": 3757,
      "åĮĸåŃ¦": 3758,
      "getting": 3759,
      "understand": 3760,
      "ç¤¾ä¼ļä¸»ä¹ī": 3761,
      "æĹ§": 3762,
      "æĹ¥ï¼Į": 3763,
      "mor": 3764,
      "ç¬¦åĲĪ": 3765,
      "remain": 3766,
      "è²": 3767,
      "IP": 3768,
      "çļĦæľĢ": 3769,
      "wa": 3770,
      "è£ģ": 3771,
      "çĽ¸å¯¹": 3772,
      "ither": 3773,
      "é£İéĻ©": 3774,
      "following": 3775,
      "æĶ¶åħ¥": 3776,
      "Sep": 3777,
      "treat": 3778,
      "æ¶ī": 3779,
      "www.": 3780,
      "God": 3781,
      "itive": 3782,
      "çģ¾": 3783,
      "éĴ¢": 3784,
      "çĥ§": 3785,
      "ream": 3786,
      "æ¤įçī©": 3787,
      "ï¼ĮçĦ¶åĲİ": 3788,
      "ä¸įå¾Ĺ": 3789,
      "mal": 3790,
      "York": 3791,
      "sty": 3792,
      "çĽ®çļĦ": 3793,
      "åĢį": 3794,
      "tra": 3795,
      "early": 3796,
      "è¯ģæĺİ": 3797,
      "èĪŀ": 3798,
      "ged": 3799,
      "imp": 3800,
      "These": 3801,
      "è½¯ä»¶": 3802,
      "equ": 3803,
      "educ": 3804,
      "close": 3805,
      "è°ģ": 3806,
      "front": 3807,
      "åģı": 3808,
      "ised": 3809,
      "é£Łåĵģ": 3810,
      "ç§Ł": 3811,
      "ç¦»å©ļ": 3812,
      "åĲ§": 3813,
      "èĽĭçĻ½": 3814,
      "äº¿": 3815,
      "ensive": 3816,
      "ItâĢĻs": 3817,
      "eral": 3818,
      "èĪª": 3819,
      "stit": 3820,
      "åĲĪä½ľ": 3821,
      "hip": 3822,
      "æĹ¶çļĦ": 3823,
      "éľĢæ±Ĥ": 3824,
      "èĪ¹": 3825,
      "èĢħï¼Į": 3826,
      "éī´": 3827,
      "become": 3828,
      "online": 3829,
      "ä½łçļĦ": 3830,
      "åĨ¬": 3831,
      "happen": 3832,
      "thought": 3833,
      "IâĢĻm": 3834,
      "descri": 3835,
      "ines": 3836,
      "irl": 3837,
      "çĻĮ": 3838,
      "éķľ": 3839,
      "cou": 3840,
      "åŃĲï¼Į": 3841,
      "å¥ĸ": 3842,
      "ified": 3843,
      "i,": 3844,
      "åĲĪçĲĨ": 3845,
      "åĩĢ": 3846,
      "èµı": 3847,
      "walk": 3848,
      "Sun": 3849,
      "åĪĨåĪ«": 3850,
      "éĽĦ": 3851,
      "eve": 3852,
      "Not": 3853,
      "ä¹ĭéĹ´çļĦ": 3854,
      "ç§ģ": 3855,
      "once": 3856,
      "çļĦæĥħåĨµ": 3857,
      "çļĦä½ľçĶ¨": 3858,
      "ï¼ĮæĪĸ": 3859,
      "è¡Įä¸ļ": 3860,
      "card": 3861,
      "watch": 3862,
      "åĳĪ": 3863,
      "ID": 3864,
      "æķ°åŃĹ": 3865,
      "å®ģ": 3866,
      "é¡¶": 3867,
      "avor": 3868,
      "ru": 3869,
      "æĪĺäºī": 3870,
      "éĩĮï¼Į": 3871,
      "orig": 3872,
      "å¾ª": 3873,
      "Gu": 3874,
      "èĩªèº«": 3875,
      "vil": 3876,
      "å·§": 3877,
      "type": 3878,
      "money": 3879,
      "mm": 3880,
      "éĽª": 3881,
      "ï¼ĮåĲĮæĹ¶": 3882,
      "town": 3883,
      "èĩªçĶ±": 3884,
      "mid": 3885,
      "Cal": 3886,
      "åįģåĪĨ": 3887,
      "road": 3888,
      "åİĤ": 3889,
      "é²ģ": 3890,
      "particular": 3891,
      "Wor": 3892,
      "æł·çļĦ": 3893,
      "author": 3894,
      "CO": 3895,
      "è§£éĩĬ": 3896,
      "èĲ¥åħ»": 3897,
      "ives": 3898,
      "è¯Ħä»·": 3899,
      "profess": 3900,
      "posed": 3901,
      "ãĢĤä»ĸ": 3902,
      "ä»Ĭå¤©": 3903,
      "åģļåĪ°": 3904,
      "teach": 3905,
      "æİ¥åıĹ": 3906,
      "mp": 3907,
      "pain": 3908,
      "åĢĴ": 3909,
      "èį¯çī©": 3910,
      "åĩºäºĨ": 3911,
      "ç¬ĳ": 3912,
      "yet": 3913,
      "area": 3914,
      "çĶ¨æĪ·": 3915,
      "ä½ľä¸ļ": 3916,
      "æĪĲç»©": 3917,
      "ç±»åŀĭ": 3918,
      "viron": 3919,
      "AP": 3920,
      "indust": 3921,
      "ç¿»": 3922,
      "å¥¥": 3923,
      "ä¸ºä¸»": 3924,
      "èĢĥèĻĳ": 3925,
      "¤Ĳ": 3926,
      "çľŁæŃ£": 3927,
      "og": 3928,
      "å¡ŀ": 3929,
      "æĬĵ": 3930,
      "ane": 3931,
      "èĦı": 3932,
      "ä¸ºâĢľ": 3933,
      "åĩºçļĦ": 3934,
      "æĦıæĢĿ": 3935,
      "uture": 3936,
      "éĻįä½İ": 3937,
      "ived": 3938,
      "link": 3939,
      "share": 3940,
      "åıĮæĸ¹": 3941,
      "çļĦä¸»è¦ģ": 3942,
      "è¿ģ": 3943,
      "xx": 3944,
      "ä¸įè¶³": 3945,
      "ences": 3946,
      "West": 3947,
      "doing": 3948,
      "makes": 3949,
      "æĭŁ": 3950,
      "æĭ¥": 3951,
      "foc": 3952,
      "gle": 3953,
      "æĹħ": 3954,
      "ource": 3955,
      "invol": 3956,
      "uly": 3957,
      "éľ²": 3958,
      "ï¼Įä¸İ": 3959,
      "æ¶Īè´¹": 3960,
      "é¢ľ": 3961,
      "ividual": 3962,
      "è´·": 3963,
      "given": 3964,
      "round": 3965,
      "prob": 3966,
      "æº¶": 3967,
      "cop": 3968,
      "ä¸Ŀ": 3969,
      "æķ´ä¸ª": 3970,
      "page": 3971,
      "åĿĢ": 3972,
      "è¾ħ": 3973,
      "åįĸ": 3974,
      "idence": 3975,
      "éĩĩåıĸ": 3976,
      "Will": 3977,
      "paren": 3978,
      "ç§ĳæĬĢ": 3979,
      "è´¢äº§": 3980,
      "èĤ¥": 3981,
      "è·³": 3982,
      "fall": 3983,
      "ä¸īä¸ª": 3984,
      "material": 3985,
      "pack": 3986,
      "éĶĻè¯¯": 3987,
      "mom": 3988,
      "urther": 3989,
      "students": 3990,
      "community": 3991,
      "aken": 3992,
      "ä¾Ŀæį®": 3993,
      "ä½ľæĸĩ": 3994,
      "è¿ħ": 3995,
      "åįµ": 3996,
      "human": 3997,
      "å·¥èµĦ": 3998,
      "ï¼ĮæĹł": 3999,
      "å¢ŀå¼º": 4000,
      ",Ċ": 4001,
      "ï¼ĮçĶ±": 4002,
      ");": 4003,
      "å¾Ģå¾Ģ": 4004,
      "country": 4005,
      "çĩĥ": 4006,
      "city": 4007,
      "èª": 4008,
      "concer": 4009,
      "åºŁ": 4010,
      "Har": 4011,
      "è¿ĩç¨ĭä¸Ń": 4012,
      "Ob": 4013,
      "actually": 4014,
      "model": 4015,
      "å¢ŀéķ¿": 4016,
      "tax": 4017,
      "ï¼į": 4018,
      "éĿ¢çļĦ": 4019,
      "video": 4020,
      "ï¼ĮéĤ£": 4021,
      "èµĦäº§": 4022,
      "ones": 4023,
      "èµĶåģ¿": 4024,
      "âĳł": 4025,
      "æµĵ": 4026,
      "Apr": 4027,
      "âĢ¢": 4028,
      "ured": 4029,
      "techno": 4030,
      "å·¥åħ·": 4031,
      "ulation": 4032,
      "ãĢĤæĪĳ": 4033,
      "èī¯å¥½çļĦ": 4034,
      "ints": 4035,
      "è£Ĥ": 4036,
      "Fl": 4037,
      "ED": 4038,
      "çļĦå°ı": 4039,
      "è¿Ĳè¡Į": 4040,
      "æ¯ıä¸ª": 4041,
      "roll": 4042,
      "ults": 4043,
      "hol": 4044,
      "minut": 4045,
      "ÃĹ": 4046,
      "åĳĺå·¥": 4047,
      "joy": 4048,
      "å¯»": 4049,
      "ä¼°": 4050,
      "ãĢĤâĢľ": 4051,
      "scre": 4052,
      "wide": 4053,
      "æ®ĸ": 4054,
      "æī¬": 4055,
      "B.": 4056,
      "è®°å½ķ": 4057,
      "æļ´": 4058,
      "å¯¹è±¡": 4059,
      "said.": 4060,
      "an,": 4061,
      "aper": 4062,
      "Per": 4063,
      "break": 4064,
      "èĤº": 4065,
      "æĪĲæľ¬": 4066,
      "æ¦Ĥå¿µ": 4067,
      "mult": 4068,
      "ama": 4069,
      "mag": 4070,
      "äºĮåįģ": 4071,
      "æľīä¸Ģ": 4072,
      "æ´ģ": 4073,
      "urch": 4074,
      "condition": 4075,
      "Now": 4076,
      "six": 4077,
      "org": 4078,
      "ãĢĤæŃ¤": 4079,
      "ç¢³": 4080,
      "åĵªäºĽ": 4081,
      "seen": 4082,
      "é©¾": 4083,
      "çī¹æ®Ĭ": 4084,
      "defin": 4085,
      "é¸Ł": 4086,
      "å°¾": 4087,
      "Some": 4088,
      "æŀĦæĪĲ": 4089,
      "hot": 4090,
      "s:": 4091,
      "strong": 4092,
      "ç»ª": 4093,
      "åħ¨éĥ¨": 4094,
      "feat": 4095,
      "ä¸Ģä¸ĭ": 4096,
      "çļĦåŁºç¡Ģ": 4097,
      "ing.Ċ": 4098,
      "reet": 4099,
      "çļĦå·¥ä½ľ": 4100,
      "sent": 4101,
      "phone": 4102,
      "development": 4103,
      "means": 4104,
      "vironment": 4105,
      "âĳ¡": 4106,
      "imes": 4107,
      "Bar": 4108,
      "äººãĢĤ": 4109,
      "è¯ļ": 4110,
      "ï¼ĮåĨį": 4111,
      "le,": 4112,
      "çĶ¨çļĦ": 4113,
      "ðŁ": 4114,
      "women": 4115,
      "specific": 4116,
      "ç¨³å®ļ": 4117,
      "ãĢĭãĢģãĢĬ": 4118,
      "personal": 4119,
      "individual": 4120,
      "èħº": 4121,
      "reach": 4122,
      "compet": 4123,
      "omet": 4124,
      "æ²Ł": 4125,
      "éĽ¶": 4126,
      "è°ĥæķ´": 4127,
      "fel": 4128,
      "ks": 4129,
      "åĶ±": 4130,
      "http": 4131,
      "å®īæİĴ": 4132,
      "Min": 4133,
      "æľĪï¼Į": 4134,
      "æ¯«": 4135,
      "Ge": 4136,
      "|US": 4137,
      "çļĦå½±åĵį": 4138,
      "lege": 4139,
      "çĤ¼": 4140,
      "å¿Ĩ": 4141,
      "è´´": 4142,
      "sch": 4143,
      "ä¹Łæľī": 4144,
      "cast": 4145,
      "ä¿Ŀéļľ": 4146,
      "èĥĨ": 4147,
      "ural": 4148,
      "aps": 4149,
      "ford": 4150,
      "redu": 4151,
      "uff": 4152,
      "ion.": 4153,
      "ä¼ļè®¡": 4154,
      "ç´łè´¨": 4155,
      "contain": 4156,
      "detail": 4157,
      "åľ°çĲĥ": 4158,
      "çŃīï¼Į": 4159,
      "ia,": 4160,
      "èĥİ": 4161,
      "ä¼¯": 4162,
      "pie": 4163,
      "éĻ¤äºĨ": 4164,
      "è®¿": 4165,
      "æĻ®éĢļ": 4166,
      "æĸ½å·¥": 4167,
      "shop": 4168,
      "box": 4169,
      "éľĩ": 4170,
      "cially": 4171,
      "Dav": 4172,
      "åıĳæĮ¥": 4173,
      "depend": 4174,
      "kid": 4175,
      "æĽ´åĬł": 4176,
      "åĪ¶å®ļ": 4177,
      "grad": 4178,
      "åĩºæĿ¥": 4179,
      "å¦Īå¦Ī": 4180,
      "æĮģç»Ń": 4181,
      "Tw": 4182,
      "åıĬåħ¶": 4183,
      "å¥ĭ": 4184,
      "ä¹ı": 4185,
      "portun": 4186,
      "çļĦåŁºæľ¬": 4187,
      "å¹´çº§": 4188,
      "pen": 4189,
      "æĶ¯ä»ĺ": 4190,
      "Qu": 4191,
      "å«": 4192,
      "å¥ı": 4193,
      "çĶŁçļĦ": 4194,
      "bad": 4195,
      "å¡«": 4196,
      "åĲĮæĹ¶ï¼Į": 4197,
      "whether": 4198,
      "deter": 4199,
      "ç£ģ": 4200,
      "sci": 4201,
      "times": 4202,
      "ä»·æł¼": 4203,
      "social": 4204,
      "future": 4205,
      "sound": 4206,
      "sell": 4207,
      "å¹¸": 4208,
      "åŃ¦ä¼ļ": 4209,
      "è¿ŀæİ¥": 4210,
      "ãĢĭï¼Į": 4211,
      "ror": 4212,
      "éģĵå¾·": 4213,
      "çĽĲ": 4214,
      "rad": 4215,
      "His": 4216,
      "äº§ä¸ļ": 4217,
      "sen": 4218,
      "è¯»ä¹¦": 4219,
      "éĹŃ": 4220,
      "åĮºåŁŁ": 4221,
      "ilar": 4222,
      "å¿ħè¦ģ": 4223,
      "é©¶": 4224,
      "åĽ½çļĦ": 4225,
      "å§Ķåĳĺ": 4226,
      "quick": 4227,
      "å·Ŀ": 4228,
      "æ½ľ": 4229,
      "å¸¸è§ģ": 4230,
      "However,": 4231,
      "æĽ¹": 4232,
      "æ¢ģ": 4233,
      "cli": 4234,
      "åĮ»çĸĹ": 4235,
      "iam": 4236,
      "çĶŁéķ¿": 4237,
      "third": 4238,
      "Our": 4239,
      "flu": 4240,
      "quality": 4241,
      "æ¶¦": 4242,
      "Dep": 4243,
      "æķı": 4244,
      "prove": 4245,
      "More": 4246,
      "Just": 4247,
      "çļĦè¯Ŀ": 4248,
      "åĬ¨ä½ľ": 4249,
      "started": 4250,
      "å¹³åĿĩ": 4251,
      "http://": 4252,
      "ats": 4253,
      "äººåı£": 4254,
      "çīĮ": 4255,
      "Rep": 4256,
      "åĨľä¸ļ": 4257,
      "éĽ·": 4258,
      "çĪ¸": 4259,
      "Post": 4260,
      "begin": 4261,
      "éĴĪå¯¹": 4262,
      "åª": 4263,
      "é¸¡": 4264,
      "å¤ļæķ°": 4265,
      "åįĪ": 4266,
      "åıĳå±ķçļĦ": 4267,
      "éº»": 4268,
      "priv": 4269,
      "æĺ¯ä»Ģä¹Ī": 4270,
      "Don": 4271,
      "acc": 4272,
      "vari": 4273,
      "æĢĿç»´": 4274,
      "cir": 4275,
      "among": 4276,
      "çĽ¸åºĶ": 4277,
      "çº·": 4278,
      "]Ċ": 4279,
      "pick": 4280,
      "indows": 4281,
      "åı¤ä»£": 4282,
      "above": 4283,
      "struction": 4284,
      "Pol": 4285,
      "åĭ¤": 4286,
      "è§Ħå¾ĭ": 4287,
      "æİī": 4288,
      "in,": 4289,
      "å°¤åħ¶": 4290,
      "National": 4291,
      "kill": 4292,
      "suggest": 4293,
      "çļĦæĹ¶éĹ´": 4294,
      "abl": 4295,
      "ury": 4296,
      "heart": 4297,
      "æ¸©åº¦": 4298,
      "ç»ĺ": 4299,
      "hit": 4300,
      "bring": 4301,
      "email": 4302,
      "IG": 4303,
      "across": 4304,
      "dom": 4305,
      "çº¯": 4306,
      "ä¸ºä»Ģä¹Ī": 4307,
      "method": 4308,
      "ï¼Įåħ¶ä¸Ń": 4309,
      "arter": 4310,
      "ony": 4311,
      "fully": 4312,
      "foot": 4313,
      "éĢĲæ¸Ĳ": 4314,
      "çĽ¸åĲĮ": 4315,
      "ãĢĤæľī": 4316,
      "å®ĥçļĦ": 4317,
      "åħ³æ³¨": 4318,
      "åĪ©çĽĬ": 4319,
      "benef": 4320,
      "éģµ": 4321,
      "tar": 4322,
      "åıĤèĢĥ": 4323,
      "ãĢĤä»İ": 4324,
      "matter": 4325,
      "è±Ĩ": 4326,
      "æĩĤ": 4327,
      "CP": 4328,
      "opportun": 4329,
      "believe": 4330,
      "ising": 4331,
      "è¯¦": 4332,
      "åĪĨå¸ĥ": 4333,
      "stay": 4334,
      "åĩłä¸ª": 4335,
      "NA": 4336,
      ".\"": 4337,
      "compan": 4338,
      "ery": 4339,
      "å®īè£ħ": 4340,
      "said.Ċ": 4341,
      "ï¼ĮæıĲé«ĺ": 4342,
      "åĬĽéĩı": 4343,
      "ä¸¥æł¼": 4344,
      "ï¼ħ": 4345,
      "taking": 4346,
      "dou": 4347,
      "æ¡£": 4348,
      "åĨ°": 4349,
      "åĸĿ": 4350,
      "Euro": 4351,
      "æĢĿèĢĥ": 4352,
      "åĮĸçļĦ": 4353,
      "å¤ļå°ĳ": 4354,
      "é«ĺçļĦ": 4355,
      "èį£": 4356,
      "ç»ĥä¹ł": 4357,
      "çļĦãĢĬ": 4358,
      "wood": 4359,
      "discuss": 4360,
      "æ¯ķä¸ļ": 4361,
      "é¦Ĩ": 4362,
      "us,": 4363,
      "æıĴ": 4364,
      "ape": 4365,
      "Her": 4366,
      "ene": 4367,
      "èµĦæľ¬": 4368,
      "æĬµ": 4369,
      "éļĶ": 4370,
      "blog": 4371,
      "ides": 4372,
      "duct": 4373,
      "fast": 4374,
      "mov": 4375,
      "ateg": 4376,
      "è§Ħæ¨¡": 4377,
      "å¼Ł": 4378,
      "æ±¡æŁĵ": 4379,
      "çĽ¸äºĴ": 4380,
      "Cont": 4381,
      "æĽ¿": 4382,
      "æķ¬": 4383,
      "æł¸å¿ĥ": 4384,
      "åĲī": 4385,
      "World": 4386,
      "å¤ļç§į": 4387,
      "å¤ªéĺ³": 4388,
      "åĽ°éļ¾": 4389,
      "æĪĲéķ¿": 4390,
      "polic": 4391,
      "æıĲåįĩ": 4392,
      "contact": 4393,
      "anything": 4394,
      "è¿İ": 4395,
      "åĬĽï¼Į": 4396,
      "å½¢è±¡": 4397,
      "young": 4398,
      "è°ĥæŁ¥": 4399,
      "çī©çĲĨ": 4400,
      "fail": 4401,
      "æĳĦ": 4402,
      "åĨħçļĦ": 4403,
      "çĻ»è®°": 4404,
      "cult": 4405,
      "ouch": 4406,
      "éĩįè§Ĩ": 4407,
      "character": 4408,
      "æī¿æĭħ": 4409,
      "çľł": 4410,
      "meas": 4411,
      "acy": 4412,
      "æĦŁè§ī": 4413,
      "Of": 4414,
      "äººä½ĵ": 4415,
      "è¿«": 4416,
      "While": 4417,
      "ä¸»é¢ĺ": 4418,
      "ï¼ĮéĤ£ä¹Ī": 4419,
      "ä¸Ģå®ļçļĦ": 4420,
      "åĨľæĿĳ": 4421,
      "åĹ": 4422,
      "æ²¿": 4423,
      "AD": 4424,
      "èĩ£": 4425,
      "åĨħéĥ¨": 4426,
      "wer": 4427,
      "ä¸¤ç§į": 4428,
      "éĩĳèŀį": 4429,
      "PM": 4430,
      "host": 4431,
      "ä½³": 4432,
      "mess": 4433,
      "æĿĥåĪ©": 4434,
      "éĩįè¦ģçļĦ": 4435,
      "ä½ĵçİ°": 4436,
      "æ¨ª": 4437,
      "ount": 4438,
      "or,": 4439,
      "film": 4440,
      "flo": 4441,
      "Des": 4442,
      "å¢Ļ": 4443,
      "ption": 4444,
      "ä¹ĭåīį": 4445,
      "å¡Ķ": 4446,
      "åĪĩï¼ĮéŁ³": 4447,
      "å²Ĺ": 4448,
      "é¢Ħéĺ²": 4449,
      "èĤ¤": 4450,
      "hind": 4451,
      "å¹ħ": 4452,
      "ä¼Ł": 4453,
      "å¦»": 4454,
      "Sch": 4455,
      "å¥½ï¼Į": 4456,
      "æĢķ": 4457,
      "åĲ´": 4458,
      "Mr.": 4459,
      "ä»ĸä»¬çļĦ": 4460,
      "fire": 4461,
      "County": 4462,
      "åĩ½": 4463,
      "oud": 4464,
      "held": 4465,
      "Dis": 4466,
      "mand": 4467,
      "artment": 4468,
      "Che": 4469,
      "ï¼Įä»¥åıĬ": 4470,
      "comput": 4471,
      "èĢħçļĦ": 4472,
      "åĬŀæ³ķ": 4473,
      "èĢĲ": 4474,
      "curity": 4475,
      "æ¾": 4476,
      "å¤įæĿĤ": 4477,
      "rate": 4478,
      "å¹¿æ³Ľ": 4479,
      "tit": 4480,
      "ä¸ĭéĿ¢": 4481,
      "taken": 4482,
      "almost": 4483,
      "ï¼Įå¹¶ä¸Ķ": 4484,
      "ç¼´": 4485,
      "value": 4486,
      "çī©çļĦ": 4487,
      "æļĹ": 4488,
      "Off": 4489,
      "track": 4490,
      "ances": 4491,
      "Ab": 4492,
      "å®£ä¼ł": 4493,
      "åºĨ": 4494,
      "æ´ŀ": 4495,
      "reco": 4496,
      "åħ¨çĲĥ": 4497,
      "visit": 4498,
      "éĵ¾": 4499,
      "é©±": 4500,
      "sess": 4501,
      "è´¹çĶ¨": 4502,
      "åı¦ä¸Ģ": 4503,
      "èĿ": 4504,
      "sex": 4505,
      "è®¼": 4506,
      "å¼ĥ": 4507,
      "ãĢĤæīĢä»¥": 4508,
      "çļĦé«ĺ": 4509,
      "ï¼Įä¸ĢèĪ¬": 4510,
      "ï¼Įéĥ½": 4511,
      "Pe": 4512,
      "ç«ŀäºī": 4513,
      "ç²Ĵ": 4514,
      "--------": 4515,
      "draw": 4516,
      "èĥ¡": 4517,
      "è·ĳ": 4518,
      "girl": 4519,
      "éĢĤåºĶ": 4520,
      "ç¬¬åĽĽ": 4521,
      "ï¼ĮåĲİ": 4522,
      "ards": 4523,
      "æ°§åĮĸ": 4524,
      "æĺ¯âĢľ": 4525,
      "else": 4526,
      "åŃĲçļĦ": 4527,
      "ï¼ĮéĢļè¿ĩ": 4528,
      "print": 4529,
      "æĿ¥æºĲ": 4530,
      "-year": 4531,
      "espe": 4532,
      "è¦": 4533,
      "uses": 4534,
      "ino": 4535,
      "space": 4536,
      "æĸĩåŃĹ": 4537,
      "South": 4538,
      "whole": 4539,
      "é¤Ĳ": 4540,
      "create": 4541,
      "likely": 4542,
      "å®ĮåĸĦ": 4543,
      "lay": 4544,
      "phys": 4545,
      "åľ°ä½į": 4546,
      "North": 4547,
      "ä¸»åĬ¨": 4548,
      "åħ¬åħĥ": 4549,
      "section": 4550,
      "aver": 4551,
      "final": 4552,
      "ç§ĺ": 4553,
      "èĵĿ": 4554,
      "è§ĦåĪĴ": 4555,
      "below": 4556,
      "lab": 4557,
      "City": 4558,
      "PC": 4559,
      "çĴ": 4560,
      "ST": 4561,
      "èĩªåĬ¨": 4562,
      "mun": 4563,
      "period": 4564,
      "ä¹ĺ": 4565,
      "cup": 4566,
      "èĤ¾": 4567,
      "ging": 4568,
      "flow": 4569,
      "å£ģ": 4570,
      "cred": 4571,
      "ä½ĵèĤ²": 4572,
      "publ": 4573,
      "ially": 4574,
      "çİ°å®ŀ": 4575,
      "due": 4576,
      "rown": 4577,
      "docu": 4578,
      "æĬ½": 4579,
      "çļĦãĢĤĊ": 4580,
      "School": 4581,
      "æ£Ģæµĭ": 4582,
      "æĬĳ": 4583,
      "Serv": 4584,
      "åŃĲå¥³": 4585,
      "ife": 4586,
      "someone": 4587,
      "ä¸ĢçĽ´": 4588,
      "ington": 4589,
      "single": 4590,
      "çĺ¤": 4591,
      "relation": 4592,
      "theĊ": 4593,
      "åĩ¡": 4594,
      "content": 4595,
      "è¯īè®¼": 4596,
      "çĬ¯ç½ª": 4597,
      "å¹´ä»£": 4598,
      "court": 4599,
      "è¯Ńæĸĩ": 4600,
      "è´¦": 4601,
      "exper": 4602,
      "è®ºæĸĩ": 4603,
      "CD": 4604,
      "æĻĭ": 4605,
      "ï¼Įå°±æĺ¯": 4606,
      "ies.": 4607,
      "åŃ¦ç§ĳ": 4608,
      "åĮ»éĻ¢": 4609,
      "Part": 4610,
      "probably": 4611,
      "æľĹ": 4612,
      "hor": 4613,
      "ded": 4614,
      "çŁ¿": 4615,
      "ç±į": 4616,
      "inc": 4617,
      "åĲĹï¼Ł": 4618,
      "ly.": 4619,
      "text": 4620,
      "åĩĿ": 4621,
      "ï¼Įè¿Ļæł·": 4622,
      "æľºä¼ļ": 4623,
      "spo": 4624,
      "çŃīãĢĤĊ": 4625,
      "æµª": 4626,
      "services": 4627,
      "æ»¡è¶³": 4628,
      "news": 4629,
      "ï¼Įèĥ½": 4630,
      "famil": 4631,
      "trying": 4632,
      "äºİæĺ¯": 4633,
      "é¥Ń": 4634,
      "further": 4635,
      "æķĮ": 4636,
      "typ": 4637,
      "Cent": 4638,
      "announ": 4639,
      "time,": 4640,
      "ðł": 4641,
      "Ã©": 4642,
      "äº¤æĺĵ": 4643,
      "pan": 4644,
      "fill": 4645,
      "æ·¡": 4646,
      "æįŁå¤±": 4647,
      "æľºåĪ¶": 4648,
      "\"I": 4649,
      "Here": 4650,
      "è¿ĻéĩĮ": 4651,
      "æĿ¨": 4652,
      "çĶŁæĢģ": 4653,
      "issue": 4654,
      "al,": 4655,
      "æĢ§ãĢĤ": 4656,
      "æ³½": 4657,
      "åĪ¶ä½ľ": 4658,
      "fo": 4659,
      "ä¹ĭåĲİï¼Į": 4660,
      "force": 4661,
      "everything": 4662,
      "eter": 4663,
      "continu": 4664,
      "ç¼ĺ": 4665,
      "gain": 4666,
      "non-": 4667,
      "ãĢĤãĢĢåıĪ": 4668,
      "èĥ¸": 4669,
      "according": 4670,
      "å°ıåŃ¦": 4671,
      "åħ¼": 4672,
      "å¦Ĥä¸ĭ": 4673,
      "init": 4674,
      "éĨĴ": 4675,
      "official": 4676,
      "former": 4677,
      "Dr": 4678,
      "!!": 4679,
      "pretty": 4680,
      "tre": 4681,
      "spir": 4682,
      "æ±½è½¦": 4683,
      "quite": 4684,
      "chall": 4685,
      "åŃ¦æľŁ": 4686,
      "Su": 4687,
      "black": 4688,
      "ï¼Įè¿Ļæĺ¯": 4689,
      "represent": 4690,
      "è¿¹": 4691,
      "ä½ĵä¼ļ": 4692,
      "åıįæĺł": 4693,
      "ET": 4694,
      "éŀ": 4695,
      "åŃ¦éĻ¢": 4696,
      "ison": 4697,
      "rather": 4698,
      "Europe": 4699,
      "ilities": 4700,
      "åĨł": 4701,
      "åĽĽãĢģ": 4702,
      "è§īå¾Ĺ": 4703,
      "'ll": 4704,
      "æķ°éĩı": 4705,
      "ä¹īåĬ¡": 4706,
      "éĽħ": 4707,
      "èħĶ": 4708,
      "åħ±åĴĮ": 4709,
      "ä¸ģ": 4710,
      "é¥°": 4711,
      "å¹¶ä¸į": 4712,
      "çī¹èī²": 4713,
      "çĪĨ": 4714,
      "favor": 4715,
      "è²Į": 4716,
      "ä»ģ": 4717,
      "æĢİæł·": 4718,
      "âĢĿãĢĤĊ": 4719,
      "either": 4720,
      "èį·": 4721,
      "èĭ±åĽ½": 4722,
      "sequ": 4723,
      "å¡ĳ": 4724,
      "äººæ°ĳæ³ķéĻ¢": 4725,
      "åĪĨéĴŁ": 4726,
      "th,": 4727,
      "çªĹ": 4728,
      "Mark": 4729,
      "å¤ļï¼Į": 4730,
      "æģ¢": 4731,
      "åĬĽçļĦ": 4732,
      "version": 4733,
      "ided": 4734,
      "ä¸ĭåĪĹ": 4735,
      "åħ¬åħ±": 4736,
      "æľĢåĲİ": 4737,
      "exist": 4738,
      "asked": 4739,
      "æĦŁåıĹ": 4740,
      "pose": 4741,
      "äºĨãĢĤĊ": 4742,
      "çĽ¸å½ĵ": 4743,
      "æĹ¦": 4744,
      "points": 4745,
      "necess": 4746,
      "æ½®": 4747,
      "environment": 4748,
      "æ¯Ķä¾ĭ": 4749,
      "wanted": 4750,
      "ãĢĤãĢĬ": 4751,
      "æĬļ": 4752,
      "æĸ¹éĿ¢çļĦ": 4753,
      "lease": 4754,
      "didn't": 4755,
      "March": 4756,
      "èĭĹ": 4757,
      "easy": 4758,
      "forward": 4759,
      "item": 4760,
      "Park": 4761,
      "buy": 4762,
      "åĽ½åĨħ": 4763,
      "TV": 4764,
      "æĪĲç«ĭ": 4765,
      "åĳ¼åĲ¸": 4766,
      "lex": 4767,
      "ä¸ĭçļĦ": 4768,
      "ç¢į": 4769,
      "æİ¥è§¦": 4770,
      "æģ©": 4771,
      "åıªæĺ¯": 4772,
      "åĶ¯": 4773,
      "éĽĨä¸Ń": 4774,
      "æĹ¥å¸¸": 4775,
      "account": 4776,
      "éĶĢåĶ®": 4777,
      "æ³¡": 4778,
      "è°·": 4779,
      "signific": 4780,
      "ï¼Įå¤ļ": 4781,
      "èµĦéĩĳ": 4782,
      "äººæīį": 4783,
      "æĢ§åĴĮ": 4784,
      "Act": 4785,
      "ners": 4786,
      "çĶµèĦĳ": 4787,
      "ä¾Ŀæ³ķ": 4788,
      "sco": 4789,
      "ç©ºæ°Ķ": 4790,
      "works": 4791,
      "è¾Ľ": 4792,
      "æł¹æľ¬": 4793,
      "å°ıæĹ¶": 4794,
      "respect": 4795,
      "J.": 4796,
      "death": 4797,
      "åĪ©äºİ": 4798,
      "ç«¹": 4799,
      "enjoy": 4800,
      "pict": 4801,
      "æĥĬ": 4802,
      "sem": 4803,
      "å¤§éĩı": 4804,
      "aĊ": 4805,
      "çŀ": 4806,
      "é»ĺ": 4807,
      "æĪĲäºĨ": 4808,
      "ique": 4809,
      "others": 4810,
      "itted": 4811,
      "door": 4812,
      "els": 4813,
      "term": 4814,
      "ä¸įåĪ°": 4815,
      ".âĢĿ": 4816,
      "Sm": 4817,
      "æ¯ıå¤©": 4818,
      "especially": 4819,
      "æľ±": 4820,
      "éĻµ": 4821,
      "require": 4822,
      "çĦ¶èĢĮ": 4823,
      "æīĢè°ĵ": 4824,
      "äºĭä¸ļ": 4825,
      "bel": 4826,
      "options": 4827,
      "conf": 4828,
      "entire": 4829,
      "æī£": 4830,
      "trave": 4831,
      "è¾Ĩ": 4832,
      "hom": 4833,
      "From": 4834,
      "è¶ĭ": 4835,
      "Thank": 4836,
      "pet": 4837,
      "åĢ¾": 4838,
      "æ»ĳ": 4839,
      "æŃ»äº¡": 4840,
      "study": 4841,
      "å¾Ĵ": 4842,
      "nothing": 4843,
      "åĭĩ": 4844,
      "ians": 4845,
      "website": 4846,
      "ham": 4847,
      "çĶŁç´ł": 4848,
      "yl": 4849,
      "perfect": 4850,
      "æµĭè¯ķ": 4851,
      "æĪĺçķ¥": 4852,
      "bank": 4853,
      "address": 4854,
      "student": 4855,
      "ä¼ĺç§Ģ": 4856,
      "å®ĩ": 4857,
      "beaut": 4858,
      "è´¯": 4859,
      "å³°": 4860,
      "éģĵè·¯": 4861,
      "åĵ²": 4862,
      "ecut": 4863,
      "behind": 4864,
      "èĸĦ": 4865,
      "åĪ¶éĢł": 4866,
      "Your": 4867,
      "ä¹Łä¸į": 4868,
      "ï¼Įä¹Łæĺ¯": 4869,
      "history": 4870,
      "ients": 4871,
      "it.Ċ": 4872,
      "åĬŀçĲĨ": 4873,
      "çĲĨæĥ³": 4874,
      "War": 4875,
      "ãĢĤä¸Ģ": 4876,
      "performance": 4877,
      "æĿ¥è¶Ĭ": 4878,
      "President": 4879,
      "åķĨåĵģ": 4880,
      "åįģäºĮ": 4881,
      "ai": 4882,
      "ç³»åĪĹ": 4883,
      "çĽ¾": 4884,
      "Cr": 4885,
      "æĹĭ": 4886,
      "urs": 4887,
      "ä¼¦": 4888,
      "ä¸ĢçĤ¹": 4889,
      "å°º": 4890,
      "tool": 4891,
      "join": 4892,
      "è®¨è®º": 4893,
      "ï¼ĮåºĶ": 4894,
      "exc": 4895,
      "è¶ĬæĿ¥è¶Ĭ": 4896,
      "Spe": 4897,
      "èµµ": 4898,
      "æŁ±": 4899,
      "å¤ļçļĦ": 4900,
      "ried": 4901,
      "toward": 4902,
      "æ¢ħ": 4903,
      "æģ¢å¤į": 4904,
      "è¿ĽæŃ¥": 4905,
      "ä¸´åºĬ": 4906,
      "âĹ": 4907,
      "RO": 4908,
      "tee": 4909,
      "wonder": 4910,
      "ä¿Ħ": 4911,
      "ï¼Įè¿ĻäºĽ": 4912,
      "king": 4913,
      "store": 4914,
      "æķĻæĿĲ": 4915,
      "âĦ": 4916,
      "o,": 4917,
      "æ´Ľ": 4918,
      "amer": 4919,
      "Rev": 4920,
      "glo": 4921,
      "æķ¢": 4922,
      "æĳ©": 4923,
      "needs": 4924,
      "AB": 4925,
      "active": 4926,
      "ç»ĵæĿŁ": 4927,
      "åİŁçĲĨ": 4928,
      "medi": 4929,
      "çıį": 4930,
      "ä¼ļè®®": 4931,
      "April": 4932,
      "æ³ķãĢĭ": 4933,
      "æľīäºĨ": 4934,
      "èİ«": 4935,
      "çļĨ": 4936,
      "$P$ãĢĢãĢĢ": 4937,
      "Po": 4938,
      "match": 4939,
      "saw": 4940,
      "Gre": 4941,
      "-in": 4942,
      "techn": 4943,
      "æĿľ": 4944,
      "èĳĹåĲį": 4945,
      "æĿ¥è¯´": 4946,
      "è§ĦåĪĻ": 4947,
      "building": 4948,
      "ä»²": 4949,
      "æĢ§ãĢģ": 4950,
      "super": 4951,
      "çıŃçº§": 4952,
      "ï¼Įæķħ": 4953,
      "ice,": 4954,
      "çĸı": 4955,
      "ump": 4956,
      "åĪĢ": 4957,
      "ä¹ĭåĲİ": 4958,
      "resh": 4959,
      "å±¥": 4960,
      "mail": 4961,
      "è¹": 4962,
      "upon": 4963,
      "é¼»": 4964,
      "å£®": 4965,
      "äºĭä»¶": 4966,
      "çļĦåŃ¦ä¹ł": 4967,
      "series": 4968,
      "Windows": 4969,
      "å¼ĢæĶ¾": 4970,
      "åĵĪ": 4971,
      "éĩįå¤§": 4972,
      "è¡°": 4973,
      "similar": 4974,
      "ague": 4975,
      "åį±éĻ©": 4976,
      "æŀĿ": 4977,
      "é¡¿": 4978,
      "å½»": 4979,
      "èĤ¯": 4980,
      "éĺ²æŃ¢": 4981,
      "éŃı": 4982,
      "ãĢĤæĪĳä»¬": 4983,
      "Li": 4984,
      "çĶĺ": 4985,
      "anim": 4986,
      "Friday": 4987,
      "è¿ĩåİ»": 4988,
      "èĢĹ": 4989,
      "åĪĨç±»": 4990,
      "ï¼ĮåĽł": 4991,
      "æĪ¿å±ĭ": 4992,
      "æķĪçİĩ": 4993,
      "natur": 4994,
      "ï¼Įä¸»è¦ģ": 4995,
      "ding": 4996,
      "dam": 4997,
      "æĬĢèĥ½": 4998,
      "è¡ĮåĬ¨": 4999,
      "çļĦä¸Ģä¸ª": 5000,
      "worth": 5001,
      "ä¼Ĭ": 5002,
      "æĥħç»ª": 5003,
      "crit": 5004,
      "è´¸": 5005,
      "ederal": 5006,
      "æĦıè§ģ": 5007,
      "Pa": 5008,
      "ns": 5009,
      "iment": 5010,
      "ç»§æī¿": 5011,
      "æ¸¯": 5012,
      "èķ": 5013,
      "âĨ": 5014,
      "media": 5015,
      "range": 5016,
      "true": 5017,
      "stri": 5018,
      "angu": 5019,
      "åĪ¤æĸŃ": 5020,
      "æ·±åħ¥": 5021,
      "everyone": 5022,
      "æĢ§è´¨": 5023,
      "Center": 5024,
      "æīĭæ®µ": 5025,
      "white": 5026,
      "ment,": 5027,
      "éĽĨä½ĵ": 5028,
      "associ": 5029,
      "æĭį": 5030,
      "èĥ¶": 5031,
      "æĢ§èĥ½": 5032,
      "å¦ĤæŃ¤": 5033,
      "CH": 5034,
      "Cour": 5035,
      "ancial": 5036,
      "approach": 5037,
      "ãĢĤä½Ĩæĺ¯": 5038,
      "æķ´ä½ĵ": 5039,
      "ä¿¡åı·": 5040,
      "age,": 5041,
      "aged": 5042,
      "I've": 5043,
      "çļĦåľ°æĸ¹": 5044,
      "table": 5045,
      "ation.Ċ": 5046,
      "éĻĲåĪ¶": 5047,
      "as,": 5048,
      "LE": 5049,
      "æĤ²": 5050,
      "wish": 5051,
      "ç»´æĬ¤": 5052,
      "ilt": 5053,
      "attack": 5054,
      "ministr": 5055,
      "å¸¦æĿ¥": 5056,
      "bod": 5057,
      "dest": 5058,
      "ä»¿": 5059,
      "åľĪ": 5060,
      "æ¢°": 5061,
      "æ¨¡åŀĭ": 5062,
      "å®¢æĪ·": 5063,
      "éĩįæĸ°": 5064,
      "è¯¾æĸĩ": 5065,
      "previous": 5066,
      "spr": 5067,
      "ä¼ļæľī": 5068,
      "éĤ£äºĽ": 5069,
      "related": 5070,
      "å®ŀè¡Į": 5071,
      "dig": 5072,
      ")ï¼Į": 5073,
      "Reg": 5074,
      "select": 5075,
      "è°Ĳ": 5076,
      "jud": 5077,
      "please": 5078,
      "ç»ķ": 5079,
      "Well": 5080,
      "on.": 5081,
      "ify": 5082,
      "Je": 5083,
      "ï¼ĮèĢĮæĺ¯": 5084,
      "said,": 5085,
      "å¹¼åĦ¿åĽŃ": 5086,
      "è¿ĩç¨ĭä¸Ńï¼Į": 5087,
      "San": 5088,
      "ä¹Į": 5089,
      "å½ĵæĹ¶": 5090,
      "Oc": 5091,
      "continue": 5092,
      "\",": 5093,
      "Pre": 5094,
      "purch": 5095,
      "subject": 5096,
      "aur": 5097,
      "æľ¬æĸĩ": 5098,
      "å®ļä¹ī": 5099,
      "åªĴ": 5100,
      "seems": 5101,
      "çŁĽ": 5102,
      "åĩ½æķ°": 5103,
      "risk": 5104,
      "cil": 5105,
      "æ£®": 5106,
      "ournal": 5107,
      "High": 5108,
      "çĽĳçĿ£": 5109,
      "July": 5110,
      "Day": 5111,
      "çļĦä¸Ģç§į": 5112,
      "çļ®èĤ¤": 5113,
      "ä¸ĭéĻį": 5114,
      "firm": 5115,
      "åİĭåĬĽ": 5116,
      "é¼ł": 5117,
      "Pat": 5118,
      "PS": 5119,
      "æ³¥": 5120,
      "dle": 5121,
      "appear": 5122,
      "ï¼Įä»ĸä»¬": 5123,
      "Satur": 5124,
      "Art": 5125,
      "âĳ¢": 5126,
      "èĻİ": 5127,
      "tware": 5128,
      "æļĸ": 5129,
      "Fir": 5130,
      "æĢģåº¦": 5131,
      "ç«Ł": 5132,
      "æµ®": 5133,
      "vert": 5134,
      "æ·»": 5135,
      "è¾ŀ": 5136,
      "ä¸įè¿ĩ": 5137,
      "è·Ŀç¦»": 5138,
      "å®Ŀå®Ŀ": 5139,
      "çĬ¶åĨµ": 5140,
      "ï¼ĮçĶļèĩ³": 5141,
      "ãĢĤå®ĥ": 5142,
      "logical": 5143,
      "Web": 5144,
      "å½ĵäºĭ": 5145,
      "significant": 5146,
      "running": 5147,
      "å§Ķåĳĺä¼ļ": 5148,
      "ends": 5149,
      "Char": 5150,
      "èģĮå·¥": 5151,
      "æĥħæĦŁ": 5152,
      "weight": 5153,
      "August": 5154,
      "v.": 5155,
      "åĲ¸æĶ¶": 5156,
      "çļĦåĨħå®¹": 5157,
      "i.": 5158,
      "åĪĨåŃĲ": 5159,
      "mother": 5160,
      "diffic": 5161,
      "SE": 5162,
      "connect": 5163,
      "è§Ĵåº¦": 5164,
      "particip": 5165,
      "æĮ¯": 5166,
      "è´Ŀ": 5167,
      "éĢĤå½ĵ": 5168,
      "Stud": 5169,
      "June": 5170,
      "ä¼¸": 5171,
      "å¤Ħäºİ": 5172,
      "æģĲ": 5173,
      "ä¸ªæľĪ": 5174,
      "çļĩå¸Ŀ": 5175,
      "æĮĳ": 5176,
      "ä¹ĥ": 5177,
      "Read": 5178,
      "Im": 5179,
      "åŃ©åŃĲçļĦ": 5180,
      "learn": 5181,
      "lock": 5182,
      "gress": 5183,
      "fight": 5184,
      "å¹´é¾Ħ": 5185,
      "éļĨ": 5186,
      "éĩĮçļĦ": 5187,
      "alter": 5188,
      "ä¸ĵå®¶": 5189,
      "base": 5190,
      "ä¸¹": 5191,
      "èµŀ": 5192,
      "provided": 5193,
      "oogle": 5194,
      "situ": 5195,
      "åºĦ": 5196,
      "ä¼łæĴŃ": 5197,
      "hu": 5198,
      "æĹĹ": 5199,
      "played": 5200,
      "éĻ·": 5201,
      "åĮºåĪ«": 5202,
      "price": 5203,
      "vention": 5204,
      "indic": 5205,
      "çī¹åĪ«æĺ¯": 5206,
      "å¿ĺ": 5207,
      "è´«": 5208,
      "æľ¬èº«": 5209,
      "å¿½": 5210,
      "lower": 5211,
      "Ger": 5212,
      "åģ¶": 5213,
      "recomm": 5214,
      "ç¼ºä¹ı": 5215,
      "æľĢé«ĺ": 5216,
      "gets": 5217,
      "explain": 5218,
      "staff": 5219,
      "åķĬ": 5220,
      "çģ°": 5221,
      "earch": 5222,
      "å·¥ä½ľï¼Į": 5223,
      "block": 5224,
      "sat": 5225,
      "Par": 5226,
      "idea": 5227,
      "æĶ¾åľ¨": 5228,
      "install": 5229,
      "åĩĨç¡®": 5230,
      "å·¥ä½ľçļĦ": 5231,
      "deb": 5232,
      "agre": 5233,
      "sed": 5234,
      "åħ±åĴĮåĽ½": 5235,
      "States": 5236,
      "ï¼Īä¸Ģ": 5237,
      "äººãĢģ": 5238,
      "è¿Ķ": 5239,
      "improve": 5240,
      "é¢ľèī²": 5241,
      "æĿ¥è¯´ï¼Į": 5242,
      "ival": 5243,
      "accept": 5244,
      "ç´«": 5245,
      "common": 5246,
      "Aust": 5247,
      "äºĭå®ŀ": 5248,
      "åľ¨äºİ": 5249,
      "role": 5250,
      "å¤įä¹ł": 5251,
      "ï¼ĮåĬł": 5252,
      "éĻ¶": 5253,
      "article": 5254,
      "äººçī©": 5255,
      "David": 5256,
      "bert": 5257,
      "size": 5258,
      "éĺµ": 5259,
      "âĢľI": 5260,
      "ung": 5261,
      "swe": 5262,
      "ux": 5263,
      "results": 5264,
      "è§Ĥå¿µ": 5265,
      "å²¸": 5266,
      "è¿ħéĢŁ": 5267,
      "åĲĮåŃ¦ä»¬": 5268,
      "å¼ºè°ĥ": 5269,
      "èħĲ": 5270,
      "æīĢåľ¨": 5271,
      "goal": 5272,
      "å®ŀä¹ł": 5273,
      "ðłĢ": 5274,
      "House": 5275,
      "asing": 5276,
      "è¡Ģç®¡": 5277,
      "hair": 5278,
      "months": 5279,
      "ðłĢ¤": 5280,
      "ention": 5281,
      "itten": 5282,
      "æİ¢ç´¢": 5283,
      "general": 5284,
      "hope": 5285,
      "ç»Łè®¡": 5286,
      "éĹ®é¢ĺçļĦ": 5287,
      "total": 5288,
      "ä¸Ńæľī": 5289,
      "required": 5290,
      "æ¡ĥ": 5291,
      "ãĢĤãĢĢãĢĢ": 5292,
      "couple": 5293,
      "åĽºå®ļ": 5294,
      "Tech": 5295,
      "ï¼ĮåĮħæĭ¬": 5296,
      "çº¤": 5297,
      "ä¸Ĭæµ·": 5298,
      "plant": 5299,
      "that,": 5300,
      "ler": 5301,
      "shot": 5302,
      "Ber": 5303,
      "è¯º": 5304,
      "cret": 5305,
      "regard": 5306,
      "inj": 5307,
      "Ho": 5308,
      "'ve": 5309,
      "èįĲ": 5310,
      "viol": 5311,
      "æĦŁæĥħ": 5312,
      "establ": 5313,
      "æ°ĳä¸»": 5314,
      "é¢Ī": 5315,
      "è§ĤçĤ¹": 5316,
      "Red": 5317,
      "imm": 5318,
      "ÂłÂł": 5319,
      "æĦĪ": 5320,
      "communic": 5321,
      "é¼ĵåĬ±": 5322,
      "éĿ¢å¯¹": 5323,
      "ources": 5324,
      "ples": 5325,
      "å¿«éĢŁ": 5326,
      "é¥®é£Ł": 5327,
      "åĪºæ¿Ģ": 5328,
      "ãĢĭĊ": 5329,
      "sens": 5330,
      "responsi": 5331,
      "CE": 5332,
      "çŁĽçĽ¾": 5333,
      "Go": 5334,
      "åıªèĥ½": 5335,
      "ance,": 5336,
      "æ¡Īä»¶": 5337,
      "features": 5338,
      "UN": 5339,
      "åĩŃ": 5340,
      "management": 5341,
      "è¡¨éĿ¢": 5342,
      "åĲįç§°": 5343,
      "iful": 5344,
      "added": 5345,
      "é©¾é©¶": 5346,
      "hours": 5347,
      "sense": 5348,
      "ä¸»ä»»": 5349,
      "æł¡åĽŃ": 5350,
      "protect": 5351,
      "ï¼Įè¿Ļç§į": 5352,
      "energy": 5353,
      "æ³Į": 5354,
      "simple": 5355,
      "bly": 5356,
      "ently": 5357,
      "decision": 5358,
      "outside": 5359,
      "æĭĶ": 5360,
      "ran": 5361,
      "combin": 5362,
      "president": 5363,
      "å±Ĭ": 5364,
      "è®¾æĸ½": 5365,
      "scri": 5366,
      "åıĳèĤ²": 5367,
      "oil": 5368,
      "various": 5369,
      "ä¸Ĭè¿°": 5370,
      "ators": 5371,
      "assist": 5372,
      "received": 5373,
      "æ´»åĬ¨ï¼Į": 5374,
      "çĸ¼": 5375,
      "éŁ©": 5376,
      "Str": 5377,
      "speak": 5378,
      "Dr.": 5379,
      "æ±Ĺ": 5380,
      "éĹ®é¢ĺï¼Į": 5381,
      "industry": 5382,
      "æĿ¥çľĭ": 5383,
      "æĮĤ": 5384,
      "style": 5385,
      "ally,": 5386,
      "èģĶåĲĪ": 5387,
      "morning": 5388,
      "Department": 5389,
      "å®Įæķ´": 5390,
      "tour": 5391,
      "includes": 5392,
      "via": 5393,
      "comment": 5394,
      "åŁºéĩĳ": 5395,
      "prim": 5396,
      "games": 5397,
      "Val": 5398,
      "reme": 5399,
      "uel": 5400,
      "ift": 5401,
      "ze": 5402,
      "lost": 5403,
      "dog": 5404,
      "nice": 5405,
      "åħ±äº§": 5406,
      "song": 5407,
      "ä½įäºİ": 5408,
      "èĪį": 5409,
      "LL": 5410,
      "èħ°": 5411,
      "original": 5412,
      "NO": 5413,
      "anyone": 5414,
      "production": 5415,
      "çĦ¦": 5416,
      "and,": 5417,
      "è§Ī": 5418,
      "political": 5419,
      "First": 5420,
      "color": 5421,
      "ï¼Įæ²¡æľī": 5422,
      "amount": 5423,
      "Au": 5424,
      "ations,": 5425,
      "ledge": 5426,
      "æĭľ": 5427,
      "ç»¿èī²": 5428,
      "åķĨä¸ļ": 5429,
      "ä¾¯": 5430,
      "æ±¤": 5431,
      "mic": 5432,
      "å¸Ń": 5433,
      "å¢¨": 5434,
      "star": 5435,
      "object": 5436,
      "é«ĺåº¦": 5437,
      "rid": 5438,
      "åī²": 5439,
      "æĶ¹åĸĦ": 5440,
      "è®°å¿Ĩ": 5441,
      "Wash": 5442,
      "âĢĻll": 5443,
      "é«ĺï¼Į": 5444,
      "year,": 5445,
      "åı¦å¤ĸ": 5446,
      "\"The": 5447,
      "ç²ĺ": 5448,
      "å¹³åı°": 5449,
      "æ³ķï¼Į": 5450,
      "çºł": 5451,
      "relationship": 5452,
      "æ¯ĶèµĽ": 5453,
      "åħ¶å®ŀ": 5454,
      "åħĥç´ł": 5455,
      "æľīäºĽ": 5456,
      "èĲ½å®ŀ": 5457,
      "éģŃ": 5458,
      "express": 5459,
      "éħįåĲĪ": 5460,
      "argu": 5461,
      "network": 5462,
      "æļĤ": 5463,
      "Google": 5464,
      "ports": 5465,
      "ä¼ĺåĬ¿": 5466,
      "ä»¥åĲİ": 5467,
      "éĶ»": 5468,
      "è¡¨æĺİ": 5469,
      "na": 5470,
      "è°±": 5471,
      "çļĦæĸ¹å¼ı": 5472,
      "office": 5473,
      "æ¼«": 5474,
      "åĪĨéħį": 5475,
      "playing": 5476,
      "ox": 5477,
      "screen": 5478,
      "increase": 5479,
      "ills": 5480,
      "ä¸Ģå¹´": 5481,
      "åĽŀçŃĶ": 5482,
      "åĸ»": 5483,
      "æľīéĻĲ": 5484,
      "ãĢĤè¿Ļç§į": 5485,
      "çıł": 5486,
      "éĢĥ": 5487,
      "çļĦä¸»": 5488,
      "moved": 5489,
      "ä»İäºĭ": 5490,
      "recogn": 5491,
      "El": 5492,
      "åħ¶ä¸Ń": 5493,
      "é¢Ĺ": 5494,
      "æ¶īåıĬ": 5495,
      "minutes": 5496,
      "éĺ¶çº§": 5497,
      "ãĢĤçĶ±äºİ": 5498,
      "éĢĤåĲĪ": 5499,
      "stock": 5500,
      "MA": 5501,
      "):": 5502,
      "æİ¨åĬ¨": 5503,
      "ç±³ï¼Į": 5504,
      "æĺ¯ä¸į": 5505,
      "äººåľ¨": 5506,
      "ç²Ĺ": 5507,
      "åĵ¥": 5508,
      "ï¼Įä¸įèĥ½": 5509,
      "åŁºäºİ": 5510,
      "å°±åı¯ä»¥": 5511,
      "è´¡": 5512,
      "rock": 5513,
      "å°Ŀ": 5514,
      "ç¾¤ä¼Ĺ": 5515,
      "moment": 5516,
      "har": 5517,
      "soon": 5518,
      "æ¸ħæ¥ļ": 5519,
      "äºĨä¸Ģä¸ª": 5520,
      "æħ§": 5521,
      "å¯¹æĸ¹": 5522,
      "drop": 5523,
      "spect": 5524,
      "legal": 5525,
      "æ¹¾": 5526,
      "åĨĽäºĭ": 5527,
      "bot": 5528,
      "cannot": 5529,
      "æĳĨ": 5530,
      "stant": 5531,
      "all,": 5532,
      "Canad": 5533,
      "Please": 5534,
      "sil": 5535,
      "æĭ¥æľī": 5536,
      "pli": 5537,
      "contribut": 5538,
      "èµĭ": 5539,
      "ers.Ċ": 5540,
      "Fin": 5541,
      "MS": 5542,
      "æĺ¯ï¼ļ": 5543,
      "Eng": 5544,
      "ban": 5545,
      "éĵľ": 5546,
      "Sen": 5547,
      "ç£¨": 5548,
      "Wed": 5549,
      "sus": 5550,
      "tradition": 5551,
      "æĿ¥èĩª": 5552,
      "rodu": 5553,
      "ç»´çĶŁç´ł": 5554,
      "åĲ«æľī": 5555,
      "ä¸įèī¯": 5556,
      "rect": 5557,
      "*||": 5558,
      "pm": 5559,
      "soft": 5560,
      "rul": 5561,
      "Health": 5562,
      "è¿Ļæł·çļĦ": 5563,
      "mis": 5564,
      "ç¾Ĭ": 5565,
      "rew": 5566,
      "åĿ¦": 5567,
      "option": 5568,
      "æķ´çĲĨ": 5569,
      "dict": 5570,
      "ges": 5571,
      "touch": 5572,
      "pair": 5573,
      "M.": 5574,
      "aign": 5575,
      "å¥ī": 5576,
      "smo": 5577,
      "åĨľæ°ĳ": 5578,
      "åħįçĸ«": 5579,
      "ination": 5580,
      "Oh": 5581,
      "âĪ": 5582,
      "standard": 5583,
      "istic": 5584,
      "can't": 5585,
      "park": 5586,
      "å¾ĭå¸Ī": 5587,
      "æ¯įäº²": 5588,
      "è·¨": 5589,
      "çļĦãĢģ": 5590,
      "simply": 5591,
      "began": 5592,
      "åıªè¦ģ": 5593,
      "user": 5594,
      "feature": 5595,
      "fit": 5596,
      "TO": 5597,
      "Sci": 5598,
      "plement": 5599,
      "åį±å®³": 5600,
      "takes": 5601,
      "æŁ³": 5602,
      "sle": 5603,
      "ief": 5604,
      "fair": 5605,
      "åĪ«äºº": 5606,
      "release": 5607,
      "éº¦": 5608,
      "åŀĤ": 5609,
      "æ³ķè§Ħ": 5610,
      "å¿«ä¹Ĳ": 5611,
      "æľīæīĢ": 5612,
      "åĩºçīĪ": 5613,
      "çł´åĿı": 5614,
      "ç»ĻäºĪ": 5615,
      "âĢĿâĢľ": 5616,
      "åħļçļĦ": 5617,
      "selves": 5618,
      "request": 5619,
      "time.": 5620,
      "åĩºï¼Į": 5621,
      "åŁºåĽł": 5622,
      "æīĭæľ¯": 5623,
      "æ¬§æ´²": 5624,
      "corpor": 5625,
      "åħ·å¤ĩ": 5626,
      "éĩĳå±ŀ": 5627,
      "ä¸ĭæĿ¥": 5628,
      "effective": 5629,
      "heav": 5630,
      "ï¼Įå¯¹äºİ": 5631,
      "æĻ¶": 5632,
      "tegr": 5633,
      "cul": 5634,
      ">>": 5635,
      "police": 5636,
      "è¾ĵåħ¥": 5637,
      "contract": 5638,
      "èĩªä¸»": 5639,
      "clean": 5640,
      "leave": 5641,
      "å¤©ï¼Į": 5642,
      "ç»ıåİĨ": 5643,
      "aft": 5644,
      "çļĦåİŁåĽł": 5645,
      "International": 5646,
      "å¤§å°ı": 5647,
      "ä¸Ģå®ļè¦ģ": 5648,
      "companies": 5649,
      "å¯¿": 5650,
      "å´ĩ": 5651,
      "åħģ": 5652,
      "January": 5653,
      "æĺ¯çĶ±": 5654,
      "mob": 5655,
      "provides": 5656,
      "æ©": 5657,
      "higher": 5658,
      "åĲĲ": 5659,
      "document": 5660,
      "ç¼ĸè¾ĳ": 5661,
      "æľªæĿ¥": 5662,
      "æĤī": 5663,
      "æİ¨è¿Ľ": 5664,
      "åı¬": 5665,
      "Septem": 5666,
      "åľ°ï¼Į": 5667,
      "commit": 5668,
      "åĲ¯åĬ¨": 5669,
      "engine": 5670,
      "å¯Ħ": 5671,
      "Associ": 5672,
      "å¹³è¡¡": 5673,
      "empt": 5674,
      "September": 5675,
      "è¡¥åħħ": 5676,
      "inary": 5677,
      "ä¸ĢåĪĩ": 5678,
      "party": 5679,
      "åºĹ": 5680,
      "åľ°åĿĢ": 5681,
      "æµħ": 5682,
      "è¿·": 5683,
      "æĦŁåĪ°": 5684,
      "Lo": 5685,
      "æĻºèĥ½": 5686,
      "ires": 5687,
      "æĪ´": 5688,
      "source": 5689,
      "Gener": 5690,
      "ãĢĤå¯¹": 5691,
      "åĪ¸": 5692,
      "oid": 5693,
      "åŃ¦ãĢģ": 5694,
      "åĢºåĬ¡": 5695,
      "çĲ´": 5696,
      "éĶ»çĤ¼": 5697,
      "woman": 5698,
      "areas": 5699,
      "ert": 5700,
      "èĢĮè¨Ģ": 5701,
      "private": 5702,
      "UR": 5703,
      "drug": 5704,
      "shows": 5705,
      "è´·æ¬¾": 5706,
      "å½¹": 5707,
      "ï¼Ľï¼Ī": 5708,
      "aging": 5709,
      "coach": 5710,
      "è´¢åĬ¡": 5711,
      "Mus": 5712,
      "ctions": 5713,
      "å°±ä¸ļ": 5714,
      "remember": 5715,
      "van": 5716,
      "ä¼ı": 5717,
      "å¤©ä¸ĭ": 5718,
      "åŃ¦çļĦ": 5719,
      "cook": 5720,
      "living": 5721,
      "æ³°": 5722,
      "spital": 5723,
      "å¾ªçİ¯": 5724,
      "å±ı": 5725,
      "friends": 5726,
      "gas": 5727,
      "æ¬£": 5728,
      "é³": 5729,
      "IV": 5730,
      "âĢĻve": 5731,
      "natural": 5732,
      "è®°è½½": 5733,
      "æĭĵ": 5734,
      "ä¸Ģèĩ´": 5735,
      "æŁĲäºĽ": 5736,
      "Every": 5737,
      "å°ıç»Ħ": 5738,
      "ä¹Łä¼ļ": 5739,
      "security": 5740,
      "Nove": 5741,
      "file": 5742,
      "æľºæ¢°": 5743,
      "property": 5744,
      "Up": 5745,
      "wel": 5746,
      "åľ°çļĦ": 5747,
      "ä¹ĭï¼Į": 5748,
      "squ": 5749,
      "CA": 5750,
      "å±¥è¡Į": 5751,
      "æĿĨ": 5752,
      "åĳĬè¯ī": 5753,
      "needed": 5754,
      "histor": 5755,
      "gave": 5756,
      "didnâĢĻt": 5757,
      "æĹģ": 5758,
      "æİ¨èįĲ": 5759,
      "inste": 5760,
      "çľŁå®ŀ": 5761,
      "potential": 5762,
      "ç³»ç»ŁçļĦ": 5763,
      "impact": 5764,
      "ç»Łæ²»": 5765,
      "çĤ¹ï¼Į": 5766,
      "è¡Ĺ": 5767,
      "å¥³æĢ§": 5768,
      "tober": 5769,
      "difficult": 5770,
      "quarter": 5771,
      "ç®±": 5772,
      "himself": 5773,
      "çļĦæĸ°": 5774,
      "div": 5775,
      "åĲĦä¸ª": 5776,
      "gar": 5777,
      "å£°éŁ³": 5778,
      "æ²ŁéĢļ": 5779,
      "æłĩå¿Ĺ": 5780,
      "William": 5781,
      "çİ°åľº": 5782,
      "çĶ¨äºº": 5783,
      "moder": 5784,
      "ä½ĵéªĮ": 5785,
      "doesn't": 5786,
      ")ãĢģ": 5787,
      "tic": 5788,
      "that's": 5789,
      "surpr": 5790,
      "éĢĴ": 5791,
      "products": 5792,
      "drive": 5793,
      "æ³¨éĩį": 5794,
      "changes": 5795,
      "çĹħäºº": 5796,
      "çĩķ": 5797,
      "answer": 5798,
      "èħ¿": 5799,
      "fa": 5800,
      "ceed": 5801,
      "çºµ": 5802,
      "gam": 5803,
      "è§Ħå®ļï¼Į": 5804,
      "Black": 5805,
      "cand": 5806,
      "çĶµæ±ł": 5807,
      "mine": 5808,
      "mention": 5809,
      "west": 5810,
      "itself": 5811,
      "ç¥Ń": 5812,
      "è¿½æ±Ĥ": 5813,
      "æ¡Ĩ": 5814,
      "åħ¶å®ĥ": 5815,
      "å¿ł": 5816,
      "inside": 5817,
      "ç¾½": 5818,
      "ç¡®ä¿Ŀ": 5819,
      "lic": 5820,
      "loss": 5821,
      "ï¼Įä¼ļ": 5822,
      "created": 5823,
      "æī«": 5824,
      "blood": 5825,
      "achie": 5826,
      "ä»Ļ": 5827,
      "usually": 5828,
      "åĭĴ": 5829,
      "hear": 5830,
      "ml": 5831,
      "cat": 5832,
      "Bu": 5833,
      "å¦Ļ": 5834,
      "occur": 5835,
      "è½¦è¾Ĩ": 5836,
      "financial": 5837,
      "itary": 5838,
      "å¹´ï¼Ī": 5839,
      "October": 5840,
      "collect": 5841,
      "expected": 5842,
      "sn": 5843,
      "Sco": 5844,
      "æīİ": 5845,
      "Washington": 5846,
      "you're": 5847,
      "ï¼ĮæŃ¤": 5848,
      "bon": 5849,
      "è´§å¸ģ": 5850,
      "åĬłå·¥": 5851,
      "No.": 5852,
      "å²©": 5853,
      "æĿ¯": 5854,
      "ny": 5855,
      "è°ĭ": 5856,
      "summer": 5857,
      "treatment": 5858,
      "åĲĮæł·": 5859,
      "click": 5860,
      "anced": 5861,
      "Hol": 5862,
      "èĥĮæĻ¯": 5863,
      "ï¼Īä¸Ģï¼ī": 5864,
      "å·®å¼Ĥ": 5865,
      "wall": 5866,
      "atory": 5867,
      "æĪĲåĳĺ": 5868,
      "ãĢĤè¿ĻäºĽ": 5869,
      "employe": 5870,
      "idge": 5871,
      "åĬ³åĬ¨èĢħ": 5872,
      "äºĮï¼ī": 5873,
      "reli": 5874,
      "ç²®": 5875,
      "âĶ": 5876,
      "System": 5877,
      "Let": 5878,
      "Brit": 5879,
      "åĲĦé¡¹": 5880,
      "çļĦå¿ĥ": 5881,
      "regular": 5882,
      "father": 5883,
      "çĮª": 5884,
      "execut": 5885,
      "Inc.": 5886,
      "a-": 5887,
      "medical": 5888,
      "çİ¯èĬĤ": 5889,
      "E.": 5890,
      "proved": 5891,
      "ä½Ĩæĺ¯": 5892,
      "çĽĨ": 5893,
      "November": 5894,
      "çĿĽ": 5895,
      "åįıè°ĥ": 5896,
      "ring": 5897,
      "Net": 5898,
      "ä»¥åīį": 5899,
      "äººçĶŁ": 5900,
      "è¥¿æĸ¹": 5901,
      "cing": 5902,
      "ï¼Įè¿Ļä¸ª": 5903,
      "bi": 5904,
      "issues": 5905,
      "éģĩåĪ°": 5906,
      "çº¹": 5907,
      "Ear": 5908,
      "ä¸įå°ĳ": 5909,
      "vision": 5910,
      "popular": 5911,
      "al.": 5912,
      "seven": 5913,
      "technology": 5914,
      "professional": 5915,
      "åŃ¦å®¶": 5916,
      "note": 5917,
      "currently": 5918,
      "æĤŁ": 5919,
      "except": 5920,
      "ï¼Įè¢«": 5921,
      "hood": 5922,
      "labor": 5923,
      "langu": 5924,
      "åĩī": 5925,
      "investig": 5926,
      "Engl": 5927,
      "ufact": 5928,
      "heard": 5929,
      "players": 5930,
      "wise": 5931,
      "âĢľThe": 5932,
      "fine": 5933,
      "n.": 5934,
      "inv": 5935,
      "MP": 5936,
      "åŃ¤": 5937,
      "Dan": 5938,
      "Internet": 5939,
      "âĦĥ": 5940,
      "éĥ½ä¼ļ": 5941,
      "ä»ĸäºº": 5942,
      "software": 5943,
      "ãĢģå¤§": 5944,
      "n,": 5945,
      "refer": 5946,
      "æııè¿°": 5947,
      "å¯º": 5948,
      "cele": 5949,
      "Comp": 5950,
      "written": 5951,
      "æįŁå®³": 5952,
      "er.Ċ": 5953,
      "gun": 5954,
      "Then": 5955,
      "åĩłä¹İ": 5956,
      "recently": 5957,
      "å±Ī": 5958,
      "æŃ£åľ¨": 5959,
      "worked": 5960,
      "them.": 5961,
      "Mr": 5962,
      "æ¼ı": 5963,
      "me,": 5964,
      "became": 5965,
      "Sam": 5966,
      "æ¸¡": 5967,
      "æĪĲåĪĨ": 5968,
      "ate,": 5969,
      "looks": 5970,
      "ering": 5971,
      "oose": 5972,
      "leng": 5973,
      "ories": 5974,
      "è¾©": 5975,
      "å°ĳå¹´": 5976,
      "America": 5977,
      "é½¿": 5978,
      "ãĢĤ(": 5979,
      "æ°¨": 5980,
      "éļ¾ä»¥": 5981,
      "æī¾åĪ°": 5982,
      "mix": 5983,
      "Add": 5984,
      "å·¥èīº": 5985,
      "çĽŁ": 5986,
      "izing": 5987,
      "to-": 5988,
      "Sup": 5989,
      "ands": 5990,
      "è½´": 5991,
      "itter": 5992,
      "åĪĽä½ľ": 5993,
      "åĴĮè°Ĳ": 5994,
      "arri": 5995,
      "ure,": 5996,
      "å°ĸ": 5997,
      "æĪĲæŀľ": 5998,
      "one,": 5999,
      "âĨĴ": 6000,
      "-up": 6001,
      "campaign": 6002,
      "path": 6003,
      "years,": 6004,
      "åĳ¨åĽ´": 6005,
      "anch": 6006,
      "åĪĨæ³Į": 6007,
      "éĢļçŁ¥": 6008,
      "çĵľ": 6009,
      "ï¼īçļĦ": 6010,
      "bud": 6011,
      "ification": 6012,
      "separ": 6013,
      "åĽĬ": 6014,
      "Sw": 6015,
      "leav": 6016,
      "ishing": 6017,
      "èº«ä»½": 6018,
      "èĢĮä¸į": 6019,
      "mocr": 6020,
      "English": 6021,
      "serious": 6022,
      "ï¼ĮæĪĸèĢħ": 6023,
      "Paul": 6024,
      "ses": 6025,
      "reported": 6026,
      "fric": 6027,
      "ãĢģæľī": 6028,
      "prior": 6029,
      "çĽ¸ä¿¡": 6030,
      "tele": 6031,
      "rac": 6032,
      "Street": 6033,
      "adem": 6034,
      "astic": 6035,
      "ä½łä»¬": 6036,
      "R.": 6037,
      "è´Ńä¹°": 6038,
      "éĴĻ": 6039,
      "æ»´": 6040,
      "è¿Ļæĺ¯": 6041,
      "æ´¥": 6042,
      "rup": 6043,
      "however,": 6044,
      "application": 6045,
      "questions": 6046,
      "æ¶Ĥ": 6047,
      "Ben": 6048,
      "beautiful": 6049,
      "èµ¤": 6050,
      "è¦Ĩ": 6051,
      "Ke": 6052,
      "çļĦèĥ½åĬĽ": 6053,
      "ield": 6054,
      "economic": 6055,
      "åİĺ": 6056,
      "ometimes": 6057,
      "ãĢģä¸į": 6058,
      "ãĢģé«ĺ": 6059,
      "mass": 6060,
      "patient": 6061,
      "hael": 6062,
      "iet": 6063,
      "thern": 6064,
      "ä¸Ńåįİäººæ°ĳ": 6065,
      "conduct": 6066,
      "åįģäºĶ": 6067,
      "Sal": 6068,
      "å®Ļ": 6069,
      "èµĸ": 6070,
      "ä¸ĢæĿ¡": 6071,
      "device": 6072,
      "å±ħæ°ĳ": 6073,
      "Any": 6074,
      "æ³ī": 6075,
      "offers": 6076,
      "åĬ³åĬ¨åĲĪåĲĮ": 6077,
      "A,": 6078,
      "longer": 6079,
      "ãĢĤåĽłä¸º": 6080,
      "æģĴ": 6081,
      "å¾Ĳ": 6082,
      "sold": 6083,
      "è°ĥèĬĤ": 6084,
      "example,": 6085,
      "ç¨¿": 6086,
      "Thurs": 6087,
      "letter": 6088,
      "åĳ½ä»¤": 6089,
      "wrong": 6090,
      "instead": 6091,
      "å°½éĩı": 6092,
      "æ°´ï¼Į": 6093,
      "affect": 6094,
      "looked": 6095,
      "Also": 6096,
      "å§»": 6097,
      "shall": 6098,
      "çº²": 6099,
      "çĭĹ": 6100,
      "æĹ©æľŁ": 6101,
      "è¯Ħä¼°": 6102,
      "St.": 6103,
      "analys": 6104,
      "åıĻ": 6105,
      "èªī": 6106,
      "clin": 6107,
      "Tues": 6108,
      "paper": 6109,
      "evidence": 6110,
      "determin": 6111,
      "è¾¨": 6112,
      "ING": 6113,
      "gg": 6114,
      "zz": 6115,
      "çĲĨå¿µ": 6116,
      "writing": 6117,
      "æĻ®éģį": 6118,
      "ï¼Įèĩª": 6119,
      "æĭ¼": 6120,
      "hi": 6121,
      "ï¼Įä¸Ķ": 6122,
      "æŃ£å¼ı": 6123,
      "è¯¦ç»Ĩ": 6124,
      "prep": 6125,
      "å½ĵäºĭäºº": 6126,
      "Afric": 6127,
      "ease": 6128,
      "covered": 6129,
      "çļĦçĶŁæ´»": 6130,
      "Jack": 6131,
      "felt": 6132,
      "introdu": 6133,
      "å¹³æĸ¹": 6134,
      "dead": 6135,
      "opportunity": 6136,
      "å°ĺ": 6137,
      "æ°ĶåĢĻ": 6138,
      "day.": 6139,
      "shown": 6140,
      "THE": 6141,
      "äºĨâĢľ": 6142,
      "ï¼ļãĢĬ": 6143,
      "Phil": 6144,
      "éĤ¦": 6145,
      "ä¸ĩåħĥ": 6146,
      "è´¸æĺĵ": 6147,
      "aily": 6148,
      "è¿Ĳè¾ĵ": 6149,
      "orge": 6150,
      "åĨĻä½ľ": 6151,
      "vic": 6152,
      "åĨĴ": 6153,
      "clus": 6154,
      "Most": 6155,
      "exact": 6156,
      "ä¸ŃåĽ½çļĦ": 6157,
      "turned": 6158,
      "cool": 6159,
      "é©¬åħĭ": 6160,
      "credit": 6161,
      "Law": 6162,
      "youâĢĻre": 6163,
      "leaders": 6164,
      "image": 6165,
      "åĮħåĲ«": 6166,
      "å¼Ĥå¸¸": 6167,
      "æĮĩæłĩ": 6168,
      "decided": 6169,
      "è¿ŀç»Ń": 6170,
      "fre": 6171,
      "anger": 6172,
      "growth": 6173,
      "Are": 6174,
      "åį³åı¯": 6175,
      "å¿§": 6176,
      "L.": 6177,
      "å°¤åħ¶æĺ¯": 6178,
      "å§¿": 6179,
      "æııåĨĻ": 6180,
      "Cali": 6181,
      "è¡Ģæ¶²": 6182,
      "åĻ¨çļĦ": 6183,
      "åŃ©åŃĲä»¬": 6184,
      "-based": 6185,
      "bill": 6186,
      "èĥĢ": 6187,
      "åŃ¦ä¹łçļĦ": 6188,
      "è¯Ĺäºº": 6189,
      "attle": 6190,
      "æī°": 6191,
      "See": 6192,
      "Last": 6193,
      "()": 6194,
      "sort": 6195,
      "cross": 6196,
      "åľ°çĲĨ": 6197,
      "Dece": 6198,
      "race": 6199,
      "Why": 6200,
      "bum": 6201,
      "bab": 6202,
      "Bro": 6203,
      "æīĵå¼Ģ": 6204,
      "immedi": 6205,
      "celebr": 6206,
      "ffer": 6207,
      "è¾ĸ": 6208,
      "éĢĨ": 6209,
      "code": 6210,
      "æ·±åĪ»": 6211,
      "aughter": 6212,
      "forn": 6213,
      "åĿ¡": 6214,
      "çªģåĩº": 6215,
      "å¢ĵ": 6216,
      "native": 6217,
      "åį°åº¦": 6218,
      "pul": 6219,
      "IâĢĻve": 6220,
      "tur": 6221,
      "ä»įçĦ¶": 6222,
      "explo": 6223,
      "å°Ĭéĩį": 6224,
      "ament": 6225,
      "åħĪçĶŁ": 6226,
      "âĸ": 6227,
      "æľĢå¤§çļĦ": 6228,
      "chance": 6229,
      "deep": 6230,
      "crim": 6231,
      "çĵ¦": 6232,
      "focus": 6233,
      "å®¢è§Ĥ": 6234,
      "ï¼Įè¿ĺæľī": 6235,
      "ä¸Ńåįİäººæ°ĳåħ±åĴĮåĽ½": 6236,
      "emer": 6237,
      "cip": 6238,
      "%ï¼Į": 6239,
      "sched": 6240,
      "training": 6241,
      "Work": 6242,
      "December": 6243,
      "ables": 6244,
      "ites": 6245,
      "æ¶Īéĺ²": 6246,
      "necessary": 6247,
      "goes": 6248,
      "éļľç¢į": 6249,
      "åĬłåħ¥": 6250,
      "èĪĴ": 6251,
      "nov": 6252,
      "æĺĮ": 6253,
      "Even": 6254,
      "demand": 6255,
      "åĽ¾çīĩ": 6256,
      "æµĭéĩı": 6257,
      "Wednes": 6258,
      "write": 6259,
      "fix": 6260,
      "æ¯ıä¸Ģ": 6261,
      "additional": 6262,
      "ï¼Įè¯·": 6263,
      "å¤º": 6264,
      "knew": 6265,
      "designed": 6266,
      "å±Ĥæ¬¡": 6267,
      "ãĢĤâĢĿĊ": 6268,
      "inde": 6269,
      "haps": 6270,
      "é¸£": 6271,
      "çļĦåħ³ç³»": 6272,
      "ä¹Łåı¯ä»¥": 6273,
      "giving": 6274,
      "e-": 6275,
      "éħįç½®": 6276,
      "åĸ·": 6277,
      "BC": 6278,
      "meeting": 6279,
      "èĢĥçĶŁ": 6280,
      "broad": 6281,
      "æ°Ľ": 6282,
      "veh": 6283,
      "Pal": 6284,
      "uk": 6285,
      "Commun": 6286,
      "La": 6287,
      "åĳ¨æľŁ": 6288,
      "ï¼Įå°ı": 6289,
      "Trans": 6290,
      "çľ¼çĿĽ": 6291,
      "ï¼Įæ¯Ķå¦Ĥ": 6292,
      "words": 6293,
      "è¿Ľè¡ĮäºĨ": 6294,
      "comfort": 6295,
      "nation": 6296,
      "Rich": 6297,
      "çº¦å®ļ": 6298,
      "Ang": 6299,
      "Californ": 6300,
      "éĿĴå¹´": 6301,
      "safe": 6302,
      "reading": 6303,
      "lip": 6304,
      "piece": 6305,
      "push": 6306,
      "å¹ķ": 6307,
      "åĨħåŃĺ": 6308,
      "åĽ½æ°ĳ": 6309,
      "åħĪè¿Ľ": 6310,
      "éĥ¡": 6311,
      "Direct": 6312,
      "served": 6313,
      "æīĢå¾Ĺ": 6314,
      "éĢĲæŃ¥": 6315,
      "å¿Į": 6316,
      "interview": 6317,
      "mach": 6318,
      "åįķåħĥ": 6319,
      "stuff": 6320,
      "æĥħå½¢": 6321,
      "æ¶µ": 6322,
      "center": 6323,
      "rain": 6324,
      "å©ļå§»": 6325,
      "located": 6326,
      "èĥ½æºĲ": 6327,
      "ken": 6328,
      "leading": 6329,
      "receive": 6330,
      "rights": 6331,
      "éĥģ": 6332,
      "æľĢå¤§": 6333,
      "slow": 6334,
      "mod": 6335,
      "æ³ķçļĦ": 6336,
      "olar": 6337,
      "æľīäºº": 6338,
      "Sim": 6339,
      "umb": 6340,
      "è¯ĬæĸŃ": 6341,
      "feed": 6342,
      "Febr": 6343,
      "çĶ¨äººåįķä½į": 6344,
      "ï¼īãĢĤĊ": 6345,
      "international": 6346,
      "æĥ³è±¡": 6347,
      "pite": 6348,
      "æŃ£æĺ¯": 6349,
      "çļĦè¦ģæ±Ĥ": 6350,
      "maintain": 6351,
      "throughout": 6352,
      "integr": 6353,
      "CT": 6354,
      "ç«ĭåį³": 6355,
      "æ°ĳéĹ´": 6356,
      "åĴĮâĢľ": 6357,
      "target": 6358,
      "æĲľ": 6359,
      "è¡Ģåİĭ": 6360,
      "Cap": 6361,
      "sun": 6362,
      "ä»°": 6363,
      "ato": 6364,
      "çļĦçłĶç©¶": 6365,
      "åĪ·": 6366,
      "ç¬¬äºĶ": 6367,
      "Michael": 6368,
      "February": 6369,
      "-old": 6370,
      "imag": 6371,
      "éĢ»": 6372,
      "ä¸§": 6373,
      "ç±»ä¼¼": 6374,
      "erson": 6375,
      "åĮ»åŃ¦": 6376,
      "ãĢĮ": 6377,
      "æ¶ĪåĮĸ": 6378,
      "length": 6379,
      "rote": 6380,
      "Republic": 6381,
      "éª¤": 6382,
      "Court": 6383,
      "éĺĶ": 6384,
      "Public": 6385,
      "y.Ċ": 6386,
      "æľºåĬ¨": 6387,
      "ï¼Įäºº": 6388,
      "ãĢį": 6389,
      "included": 6390,
      "fresh": 6391,
      "å¾¡": 6392,
      "å¼ºçļĦ": 6393,
      "è¯ģæį®": 6394,
      "ç§¯ç´¯": 6395,
      "çĽ¸åºĶçļĦ": 6396,
      "(\"": 6397,
      "appoint": 6398,
      "problems": 6399,
      "response": 6400,
      "ï¼Įåį´": 6401,
      "å¿Ļ": 6402,
      "http://www.": 6403,
      "äºķ": 6404,
      "movie": 6405,
      "è·ĥ": 6406,
      "æķ°çļĦ": 6407,
      "åı¯è§ģ": 6408,
      "dol": 6409,
      "èĦ¸": 6410,
      "ï¼Įæīįèĥ½": 6411,
      "East": 6412,
      "æ§": 6413,
      "ä»¥åĲİï¼Į": 6414,
      "kes": 6415,
      "å®ĩå®Ļ": 6416,
      "éħ¶": 6417,
      "åŀĥ": 6418,
      "ãĢĭä¸Ń": 6419,
      "ension": 6420,
      "ine,": 6421,
      "åľ¾": 6422,
      "çĪ¶äº²": 6423,
      "ãĢĤ$P$ãĢĢãĢĢ": 6424,
      "Â°": 6425,
      "è§Ħå®ļçļĦ": 6426,
      "stra": 6427,
      "èĤĮèĤī": 6428,
      "patients": 6429,
      "P.": 6430,
      "launch": 6431,
      "built": 6432,
      "æ³ķåĽ½": 6433,
      "Gl": 6434,
      "correct": 6435,
      "depart": 6436,
      "é¬": 6437,
      "åŀĥåľ¾": 6438,
      "sho": 6439,
      "suit": 6440,
      "çĬ¹": 6441,
      "åĲ¹": 6442,
      "å°ģå»º": 6443,
      "Over": 6444,
      "way,": 6445,
      "æĬ±": 6446,
      "Book": 6447,
      "weeks": 6448,
      "bility": 6449,
      "æŁĶ": 6450,
      "ä¸»è¦ģæĺ¯": 6451,
      "latest": 6452,
      "æĪĲå¹´": 6453,
      "èĢĥæł¸": 6454,
      "é£İæł¼": 6455,
      "collection": 6456,
      "æł¼å¼ı": 6457,
      "countri": 6458,
      "æ¿Ģåıĳ": 6459,
      "irth": 6460,
      "Tex": 6461,
      "Ma": 6462,
      "éĥ¨ä½į": 6463,
      "ï¼Įä¸įè¦ģ": 6464,
      "ï¼Įå½¢æĪĲ": 6465,
      "èĲ¨": 6466,
      "Obama": 6467,
      "åĲİæĿ¥": 6468,
      "onto": 6469,
      "practice": 6470,
      "èµ·è¯ī": 6471,
      "sor": 6472,
      "æĪĲçĨŁ": 6473,
      "effort": 6474,
      "å£¤": 6475,
      "Get": 6476,
      "æĸĳ": 6477,
      "å¤§å¤ļæķ°": 6478,
      "andĊ": 6479,
      "ç¾İä¸½": 6480,
      "cit": 6481,
      "çĶµè·¯": 6482,
      "hon": 6483,
      "brary": 6484,
      "knowledge": 6485,
      "æ¿Ģç´ł": 6486,
      "ity.": 6487,
      "extra": 6488,
      "consist": 6489,
      "åĮ»çĶŁ": 6490,
      "å¯¸": 6491,
      "çĶµè§Ĩ": 6492,
      "IM": 6493,
      "å¤Ħç½ļ": 6494,
      "average": 6495,
      "myself": 6496,
      "Lin": 6497,
      "multip": 6498,
      "åħħæ»¡": 6499,
      "sam": 6500,
      "thatâĢĻs": 6501,
      "wrote": 6502,
      "äºĭæĥħ": 6503,
      "charge": 6504,
      "brought": 6505,
      "å±ķç¤º": 6506,
      "Stat": 6507,
      "å¿ĥï¼Į": 6508,
      "ience": 6509,
      "æ³¨åĨĮ": 6510,
      "åŃŁ": 6511,
      "director": 6512,
      "ases": 6513,
      "è½¨": 6514,
      "AãĢģ": 6515,
      "Lon": 6516,
      "å®¿": 6517,
      "White": 6518,
      "earli": 6519,
      "çĶµè¯Ŀ": 6520,
      "vict": 6521,
      "din": 6522,
      "ä¸»ä½ĵ": 6523,
      "deliver": 6524,
      "åħ¸åŀĭ": 6525,
      "setting": 6526,
      "distribut": 6527,
      "club": 6528,
      "å¤±è´¥": 6529,
      "manufact": 6530,
      "a.Ċ": 6531,
      "æ´ª": 6532,
      "King": 6533,
      "æµģè¡Į": 6534,
      "æ³ķĊ": 6535,
      "ï¼ĮçĶ±äºİ": 6536,
      "rich": 6537,
      "in.": 6538,
      "grand": 6539,
      "èĴ¸": 6540,
      "ï¼ĮĊ": 6541,
      "åĬ¨åĬĽ": 6542,
      "æľīä¸Ģä¸ª": 6543,
      "é©¬åħĭæĢĿ": 6544,
      "æ»ĭ": 6545,
      "çĿ¡çľł": 6546,
      "å¥´": 6547,
      "travel": 6548,
      "åŃĿ": 6549,
      "èĽĭçĻ½è´¨": 6550,
      "lack": 6551,
      "ä¼į": 6552,
      "çļĦåīį": 6553,
      "ä¸Ĭä¸ĭ": 6554,
      "å¤§éĥ¨åĪĨ": 6555,
      "åĮĸãĢģ": 6556,
      "ãĢĤè¦ģ": 6557,
      "Mac": 6558,
      "è¿Ł": 6559,
      "åĲ«éĩı": 6560,
      "College": 6561,
      "èĳ¡": 6562,
      "èĳĽ": 6563,
      "administr": 6564,
      "ises": 6565,
      "prefer": 6566,
      "imate": 6567,
      "Out": 6568,
      "å°ıè¯´": 6569,
      "lying": 6570,
      "ãĢĤåĽłæŃ¤ï¼Į": 6571,
      "å®ļæľŁ": 6572,
      ".com/": 6573,
      "çŃĸçķ¥": 6574,
      "æķĻæİĪ": 6575,
      "åı¯èĥ½ä¼ļ": 6576,
      "äº¤éĢļäºĭæķħ": 6577,
      "æ²»çĲĨ": 6578,
      "å½¢æĢģ": 6579,
      "computer": 6580,
      "Air": 6581,
      "æ°¢": 6582,
      "æĸ¹ä¾¿": 6583,
      "ç§»åĬ¨": 6584,
      "Tom": 6585,
      "ä¿®æĶ¹": 6586,
      "çĸ¼çĹĽ": 6587,
      "æĹħæ¸¸": 6588,
      "å²Ĺä½į": 6589,
      "æĻºæħ§": 6590,
      "fan": 6591,
      "born": 6592,
      "speed": 6593,
      "man,": 6594,
      "placed": 6595,
      "Free": 6596,
      "çĤ¸": 6597,
      "å»·": 6598,
      "é¡ºåºı": 6599,
      "is.": 6600,
      "Good": 6601,
      "éĽķ": 6602,
      "camer": 6603,
      "ware": 6604,
      "æĮĩæĮ¥": 6605,
      "è½¬ç§»": 6606,
      "åıĺå¾Ĺ": 6607,
      "Micro": 6608,
      "me.": 6609,
      "å¤ļä¸ª": 6610,
      "James": 6611,
      "happy": 6612,
      "moving": 6613,
      "gradu": 6614,
      "æĥł": 6615,
      "olution": 6616,
      "favorite": 6617,
      "éĢĤçĶ¨": 6618,
      "green": 6619,
      "åħģè®¸": 6620,
      "display": 6621,
      "cru": 6622,
      "ç©·": 6623,
      "ç½²": 6624,
      "whose": 6625,
      "æ´»åĬ¨çļĦ": 6626,
      "ãĢĭçļĦ": 6627,
      "doesnâĢĻt": 6628,
      "limited": 6629,
      "è®¤å®ļ": 6630,
      "rael": 6631,
      "éªĹ": 6632,
      "player": 6633,
      "iqu": 6634,
      "Ter": 6635,
      "learning": 6636,
      "çī¢": 6637,
      "Ag": 6638,
      "å¾Īå¤§": 6639,
      "iff": 6640,
      "å¹¸ç¦ı": 6641,
      "éĢ»è¾ĳ": 6642,
      "involved": 6643,
      "åıįæĢĿ": 6644,
      "éĨĩ": 6645,
      "éªĳ": 6646,
      "èĤ¢": 6647,
      "è¯ķéªĮ": 6648,
      "Jap": 6649,
      "ï¼ĮéľĢè¦ģ": 6650,
      "bul": 6651,
      "è¯±": 6652,
      "books": 6653,
      "Manag": 6654,
      "æĬļåħ»": 6655,
      "çŃ¹": 6656,
      "ä¸ĸçķĮä¸Ĭ": 6657,
      "æ°ĳäºĭ": 6658,
      "ç¨Ģ": 6659,
      "Research": 6660,
      "ata": 6661,
      "çħ¤": 6662,
      "çĶŁåŃĺ": 6663,
      "kids": 6664,
      "federal": 6665,
      "Jul": 6666,
      "Mem": 6667,
      "ç¬¬ä¸Ģæ¬¡": 6668,
      "çĮ«": 6669,
      "ä¸ŃéĹ´": 6670,
      "åħ³èĬĤ": 6671,
      "p.m.": 6672,
      "æ¢¯": 6673,
      "ç§°âĢľ": 6674,
      "effic": 6675,
      "View": 6676,
      "events": 6677,
      "equip": 6678,
      "å©´": 6679,
      "antic": 6680,
      "ï¼Įä¸ŃåĽ½": 6681,
      "åħ»æĪĲ": 6682,
      "æĢ»æĺ¯": 6683,
      "åº¦çļĦ": 6684,
      "è´¡çĮ®": 6685,
      "æĬĢå·§": 6686,
      "________________": 6687,
      "bow": 6688,
      "æľīæľº": 6689,
      "æĹłè®º": 6690,
      "æĬķåħ¥": 6691,
      "å¾·åĽ½": 6692,
      "aste": 6693,
      "ume": 6694,
      "ern": 6695,
      "æľĢç»Ī": 6696,
      "dependent": 6697,
      "åĪĬ": 6698,
      "èī¯å¥½": 6699,
      "Israel": 6700,
      "åŁĥ": 6701,
      "å°ıçļĦ": 6702,
      "èĤª": 6703,
      "äºĶãĢģ": 6704,
      "å½ĵçĦ¶": 6705,
      "ç¤¾ä¼ļçļĦ": 6706,
      "thus": 6707,
      "released": 6708,
      "æµģç¨ĭ": 6709,
      "èī²çļĦ": 6710,
      "æľºåĻ¨": 6711,
      "çĶŁæĪĲ": 6712,
      "Thom": 6713,
      "èĢķ": 6714,
      "yourself": 6715,
      "è¯·æ±Ĥ": 6716,
      "saying": 6717,
      "Bus": 6718,
      "icles": 6719,
      "èħĬ": 6720,
      "ä¼ģä¸ļçļĦ": 6721,
      "appropri": 6722,
      "åĪ°çļĦ": 6723,
      "According": 6724,
      "æ®¿": 6725,
      "published": 6726,
      "starting": 6727,
      "CC": 6728,
      "policy": 6729,
      "èĦĤèĤª": 6730,
      "mg": 6731,
      "å¤«å¦»": 6732,
      "è¡¥åģ¿": 6733,
      "tried": 6734,
      "esĊ": 6735,
      "ï¼Įä¾¿": 6736,
      "Since": 6737,
      "Prof": 6738,
      "å®ª": 6739,
      "æī©å¤§": 6740,
      "Sub": 6741,
      "ãĢķ": 6742,
      "hous": 6743,
      "relig": 6744,
      "æ¡Į": 6745,
      "è¿ĺè¦ģ": 6746,
      "syn": 6747,
      "\"We": 6748,
      "åīª": 6749,
      "åĲįåŃĹ": 6750,
      "çķħ": 6751,
      "åıĺæĪĲ": 6752,
      "heat": 6753,
      "nearly": 6754,
      "News": 6755,
      "Green": 6756,
      "church": 6757,
      "........": 6758,
      "threat": 6759,
      "èĩ³å°ĳ": 6760,
      "èī²å½©": 6761,
      "ï¼Įä¸Ģä¸ª": 6762,
      "çº¤ç»´": 6763,
      "ç¨į": 6764,
      "distr": 6765,
      "åĪĽå»º": 6766,
      "commer": 6767,
      "rout": 6768,
      "influ": 6769,
      "ãĢĶ": 6770,
      "believ": 6771,
      "è®©åŃ¦çĶŁ": 6772,
      "ountain": 6773,
      "although": 6774,
      "global": 6775,
      "Del": 6776,
      "å½ĵåīį": 6777,
      "LO": 6778,
      "æģ°": 6779,
      "imum": 6780,
      "Mart": 6781,
      "send": 6782,
      "ampion": 6783,
      "èĥ½éĩı": 6784,
      "ustr": 6785,
      "preci": 6786,
      "åĲĮä¸Ģ": 6787,
      "rench": 6788,
      "åłĨ": 6789,
      "å¦ĩå¥³": 6790,
      "çī§": 6791,
      "éĢļä¿¡": 6792,
      "åŃĲå®«": 6793,
      "statement": 6794,
      "ãĢĤæľ¬": 6795,
      "ç§Ĵ": 6796,
      "canâĢĻt": 6797,
      "åĲ¦åĪĻ": 6798,
      "åĬ¨æľº": 6799,
      "åªĴä½ĵ": 6800,
      "frequ": 6801,
      "chan": 6802,
      "terms": 6803,
      "åĩºåı£": 6804,
      "ds": 6805,
      "æī¶": 6806,
      "Hel": 6807,
      "cm": 6808,
      "ä¼Ļ": 6809,
      "åĢ¡": 6810,
      "education": 6811,
      "çļĦä¸į": 6812,
      "attempt": 6813,
      "oul": 6814,
      "æ¯ıä¸Ģä¸ª": 6815,
      "Mor": 6816,
      "parents": 6817,
      "Austral": 6818,
      "SP": 6819,
      "çĶ¨æĿ¥": 6820,
      "æĸľ": 6821,
      "(I": 6822,
      "èĤ¯å®ļ": 6823,
      "æįķ": 6824,
      "bey": 6825,
      "amaz": 6826,
      "æĭĴ": 6827,
      "æłĳç«ĭ": 6828,
      "ä¹Ļæĸ¹": 6829,
      "SO": 6830,
      "èĲĦ": 6831,
      "å®ı": 6832,
      ")ãĢĤ": 6833,
      "åĦĴ": 6834,
      "çļĦæ°´": 6835,
      "advant": 6836,
      "æĬ¼": 6837,
      "å¹²éĥ¨": 6838,
      "åıĳæĺİ": 6839,
      "utions": 6840,
      "huge": 6841,
      "çĨŁæĤī": 6842,
      "è¿Ļä¹Ī": 6843,
      "è¶ĭåĬ¿": 6844,
      "bag": 6845,
      "bound": 6846,
      "ãĢĤä¾ĭå¦Ĥ": 6847,
      "mas": 6848,
      "å¼¯": 6849,
      "æĺİçĻ½": 6850,
      "dire": 6851,
      "çİ»": 6852,
      "å½¢å®¹": 6853,
      "prevent": 6854,
      "tick": 6855,
      "Other": 6856,
      "çĵ¶": 6857,
      "ï¼Įå¿ħé¡»": 6858,
      "èĳ¡èĲĦ": 6859,
      "havi": 6860,
      "åĲĹï¼ŁĊ": 6861,
      "éĶĭ": 6862,
      "rop": 6863,
      "d.": 6864,
      "Face": 6865,
      "ä¸²": 6866,
      "æĥľ": 6867,
      "åĮ¹": 6868,
      "ç¢±": 6869,
      "âĢķ": 6870,
      "çĥ¦": 6871,
      "-year-old": 6872,
      "Chin": 6873,
      "ION": 6874,
      "mist": 6875,
      "demon": 6876,
      "éĤ»": 6877,
      "paid": 6878,
      "éĥĳ": 6879,
      "normal": 6880,
      "ç¢İ": 6881,
      "brand": 6882,
      "çĶŁæ´»çļĦ": 6883,
      "formed": 6884,
      "self-": 6885,
      "eight": 6886,
      "boy": 6887,
      "Cur": 6888,
      "ç¥Ŀ": 6889,
      "standing": 6890,
      "ãĢĤéĢļè¿ĩ": 6891,
      "éŁµ": 6892,
      "lines": 6893,
      "unique": 6894,
      "åĩºè¡Ģ": 6895,
      "ç¬¬åįģ": 6896,
      "ï¼ĮåĪ°": 6897,
      "spent": 6898,
      "è¯ĹæŃĮ": 6899,
      "Mag": 6900,
      "è¯µ": 6901,
      "encour": 6902,
      "åĪĨäº«": 6903,
      "feet": 6904,
      "æŃ£ç¡®çļĦ": 6905,
      "activities": 6906,
      "sec": 6907,
      "æĴ¤": 6908,
      "ç¬¬ä¸Ģä¸ª": 6909,
      "ï¼Įä¸įä»ħ": 6910,
      "åıĳå¸ĥ": 6911,
      ".org": 6912,
      "âĢľWe": 6913,
      "æĬ¢": 6914,
      "military": 6915,
      "on-": 6916,
      "åĮĸï¼Į": 6917,
      "Although": 6918,
      "ä¼Ĳ": 6919,
      "serve": 6920,
      "èĤ¿çĺ¤": 6921,
      "ä¼¤å®³": 6922,
      "recommend": 6923,
      "æ¯ģ": 6924,
      "å®¾": 6925,
      "drink": 6926,
      "DA": 6927,
      "announced": 6928,
      "å¤¹": 6929,
      "dark": 6930,
      "aware": 6931,
      "bio": 6932,
      "æīĢæľīçļĦ": 6933,
      "æĬĳåĪ¶": 6934,
      "Rom": 6935,
      "acqu": 6936,
      "è±ª": 6937,
      "âĢĿï¼Ī": 6938,
      "verse": 6939,
      "fee": 6940,
      "æľīä»Ģä¹Ī": 6941,
      "igr": 6942,
      "æĲŃ": 6943,
      "éķ¿ï¼Į": 6944,
      "Miss": 6945,
      "-to-": 6946,
      "guy": 6947,
      "çĽ¸æ¯Ķ": 6948,
      "èľĤ": 6949,
      "unk": 6950,
      "å¸¸å¸¸": 6951,
      "çĶŁæ´»ä¸Ń": 6952,
      "age.": 6953,
      "äººå·¥": 6954,
      "London": 6955,
      "æľµ": 6956,
      "äº§çĶŁçļĦ": 6957,
      "åıĳè¡¨": 6958,
      "enced": 6959,
      "stream": 6960,
      "èµĦæł¼": 6961,
      "reng": 6962,
      "solution": 6963,
      "éĢĶå¾Ħ": 6964,
      "ender": 6965,
      "çĪ·": 6966,
      "ä½ľåĩº": 6967,
      "åĽ¢éĺŁ": 6968,
      "users": 6969,
      "binary": 6970,
      "Review": 6971,
      "mobile": 6972,
      "opin": 6973,
      "å¹³æĹ¶": 6974,
      "åıįå¤į": 6975,
      "çļĦæķĻåŃ¦": 6976,
      "éģµå®Ī": 6977,
      "FIG": 6978,
      "Saturday": 6979,
      "æľĢå¥½": 6980,
      "æıĲä¾ĽäºĨ": 6981,
      "èĴĻåı¤": 6982,
      "ä¸īåįģ": 6983,
      "åĽĽä¸ª": 6984,
      "çļĦè¿ĩç¨ĭ": 6985,
      "éĨī": 6986,
      "college": 6987,
      "themselves": 6988,
      "åı¥è¯Ŀ": 6989,
      "prin": 6990,
      "å°½ç®¡": 6991,
      "çĩ¥": 6992,
      "çļĦåİĨåı²": 6993,
      "è§£æĶ¾": 6994,
      "insur": 6995,
      "Many": 6996,
      "åŃĶåŃĲ": 6997,
      "mill": 6998,
      "ä¸ĭè½½": 6999,
      "ä»£çłģ": 7000,
      "å½ĵåľ°": 7001,
      "æĮĩåĩº": 7002,
      "è§£éĻ¤": 7003,
      "systems": 7004,
      "ana": 7005,
      "éĥ½è¦ģ": 7006,
      "åıĤæķ°": 7007,
      "èģĮè´£": 7008,
      "æī¹åĩĨ": 7009,
      "tho": 7010,
      "arily": 7011,
      "venue": 7012,
      "weekend": 7013,
      "SS": 7014,
      "maybe": 7015,
      "Gover": 7016,
      "wind": 7017,
      "BI": 7018,
      "æ£ĢéªĮ": 7019,
      "ï¼Įåıªæľī": 7020,
      "âĳ£": 7021,
      "saf": 7022,
      "BãĢģ": 7023,
      "sales": 7024,
      "éĤ®": 7025,
      "ç»ĨèıĮ": 7026,
      "Spr": 7027,
      "reve": 7028,
      "son,": 7029,
      "ingĊ": 7030,
      "challeng": 7031,
      "nature": 7032,
      "hab": 7033,
      "enge": 7034,
      "copy": 7035,
      "ä¸īï¼ī": 7036,
      "ãĢģæ°´": 7037,
      "æĪĲå°±": 7038,
      "äºĭçī©": 7039,
      "lies": 7040,
      "DNA": 7041,
      "sis": 7042,
      "ä¸ĵéĹ¨": 7043,
      "åľ¨ä¸Ģèµ·": 7044,
      "Tim": 7045,
      "listen": 7046,
      "åħ¬æ°ĳ": 7047,
      "å¼ºåĮĸ": 7048,
      "çļĦå¥½": 7049,
      "åĲĪæł¼": 7050,
      "èµł": 7051,
      "beat": 7052,
      "stain": 7053,
      "æıĲç¤º": 7054,
      "ester": 7055,
      "surface": 7056,
      "çļĦçī¹çĤ¹": 7057,
      "ç¤¾åĮº": 7058,
      "strate": 7059,
      "åĨĽéĺŁ": 7060,
      "ronic": 7061,
      "ï¼Įä¸Ĭ": 7062,
      "äºĮæĺ¯": 7063,
      "General": 7064,
      "èµ·æĿ¥ï¼Į": 7065,
      "ä¸Ģæĸ¹": 7066,
      "æľŁéĻĲ": 7067,
      "ãĢĤå¯¹äºİ": 7068,
      "åįıåķĨ": 7069,
      "äºĴçĽ¸": 7070,
      "AND": 7071,
      "åĲĪæ³ķ": 7072,
      "ãĢĤä¸į": 7073,
      "çĦĬ": 7074,
      "åħĶ": 7075,
      "ming": 7076,
      "teen": 7077,
      "åĪĿæŃ¥": 7078,
      "ment.": 7079,
      "æĬ¤çĲĨ": 7080,
      "æ·ĭ": 7081,
      "è®¯": 7082,
      "çĴĥ": 7083,
      "positive": 7084,
      "OF": 7085,
      "Sk": 7086,
      "mi": 7087,
      "æĿĥçĽĬ": 7088,
      "title": 7089,
      "å½¼": 7090,
      "apter": 7091,
      "ays": 7092,
      "æĶ¶éĽĨ": 7093,
      "Class": 7094,
      "çļĦç¤¾ä¼ļ": 7095,
      "è´¢æĶ¿": 7096,
      "reser": 7097,
      "çĶŁçĲĨ": 7098,
      "æĢª": 7099,
      "ï¼Įç»Ļ": 7100,
      "Mid": 7101,
      "F.": 7102,
      "hur": 7103,
      "Sunday": 7104,
      "ç°": 7105,
      "complex": 7106,
      "ï¼Įä¸įæĸŃ": 7107,
      "plat": 7108,
      "vey": 7109,
      "ries": 7110,
      "æ¯ıå¹´": 7111,
      "spot": 7112,
      "ç»ĦåĲĪ": 7113,
      "åŃ¦èĢħ": 7114,
      "gree": 7115,
      "çļĦæĹ¶åĢĻï¼Į": 7116,
      "accom": 7117,
      "èģĶç½ĳ": 7118,
      "ç§°ä¸ºâĢľ": 7119,
      "rom": 7120,
      "EL": 7121,
      "Cong": 7122,
      "UK": 7123,
      "å¤ĸçļĦ": 7124,
      "ä»ĵ": 7125,
      "åīįï¼Į": 7126,
      "çŃĭ": 7127,
      "åĺ´": 7128,
      "ä»Ķ": 7129,
      "co-": 7130,
      "cise": 7131,
      "å®ħ": 7132,
      "æĵ¦": 7133,
      "æľīçĿĢ": 7134,
      "æ·»åĬł": 7135,
      "plans": 7136,
      "æı´": 7137,
      "æŃ¥éª¤": 7138,
      "ãĢĤæł¹æį®": 7139,
      "\".": 7140,
      "pressure": 7141,
      "described": 7142,
      "temper": 7143,
      "å¤±åİ»": 7144,
      "äº¤æį¢": 7145,
      "organiz": 7146,
      "organization": 7147,
      "æĪª": 7148,
      "particularly": 7149,
      "ä¸īå¹´": 7150,
      "Indian": 7151,
      "ï¼ĮæľīçļĦ": 7152,
      "ç§ĳåŃ¦å®¶": 7153,
      "åŃĺåĤ¨": 7154,
      "quickly": 7155,
      "implement": 7156,
      "æīĭæľº": 7157,
      "ãĢģä¸Ń": 7158,
      "neigh": 7159,
      "çĽ´åĪ°": 7160,
      "æĬĬæı¡": 7161,
      "æĤ¬": 7162,
      "Christian": 7163,
      "isl": 7164,
      "å¤©çļĦ": 7165,
      "career": 7166,
      "uth": 7167,
      "åĬŀåħ¬": 7168,
      "save": 7169,
      "finally": 7170,
      "Group": 7171,
      "s)": 7172,
      "èµ·ï¼Į": 7173,
      "ence,": 7174,
      "çĽ®å½ķ": 7175,
      "Church": 7176,
      "pread": 7177,
      "åı¸æ³ķ": 7178,
      "èī°": 7179,
      "ç¡®è®¤": 7180,
      "beginning": 7181,
      "æľ¬è´¨": 7182,
      "å¼ºçĥĪ": 7183,
      "interesting": 7184,
      "ava": 7185,
      "çĶµæºĲ": 7186,
      "é©±åĬ¨": 7187,
      "ï¼Įåħ·æľī": 7188,
      "åĽ½å®¶çļĦ": 7189,
      "å°ĳæķ°": 7190,
      "æī©å±ķ": 7191,
      "éī´å®ļ": 7192,
      "Tri": 7193,
      "ï¼Įçľĭ": 7194,
      "ald": 7195,
      "ä¸įå¤Ł": 7196,
      "Home": 7197,
      "high-": 7198,
      "æµ·æ´ĭ": 7199,
      "disease": 7200,
      "gives": 7201,
      "æĳĺ": 7202,
      "IL": 7203,
      "Japan": 7204,
      "dete": 7205,
      "å·¥ä¼¤": 7206,
      "è¿Ŀæ³ķ": 7207,
      "nut": 7208,
      "Star": 7209,
      "considered": 7210,
      "åº¦ï¼Į": 7211,
      "æħ¢æĢ§": 7212,
      "allows": 7213,
      "years.": 7214,
      "Big": 7215,
      "æıŃ": 7216,
      "(and": 7217,
      "åħ±äº§åħļ": 7218,
      "å®ŀéĻħä¸Ĭ": 7219,
      "stic": 7220,
      "æĺ¯å¯¹": 7221,
      "æłı": 7222,
      "åºĶæĢ¥": 7223,
      "åıĶ": 7224,
      "Sur": 7225,
      "bol": 7226,
      "Who": 7227,
      "ãĢģå°ı": 7228,
      "æĿ°": 7229,
      "boo": 7230,
      "billion": 7231,
      "åºĻ": 7232,
      "çĤ®": 7233,
      "kept": 7234,
      "çģµæ´»": 7235,
      "æľºåĬ¨è½¦": 7236,
      "mitted": 7237,
      "Mer": 7238,
      "åıĳçĹħ": 7239,
      "ote": 7240,
      "fortun": 7241,
      "ä¸ªä½ĵ": 7242,
      "ï¼Įåıªè¦ģ": 7243,
      "æĺ¯æľĢ": 7244,
      "çĪ¸çĪ¸": 7245,
      "max": 7246,
      "çŃīçŃī": 7247,
      "impress": 7248,
      "å¤§ä¼ļ": 7249,
      "named": 7250,
      "PD": 7251,
      "message": 7252,
      "é¢ĺçĽ®": 7253,
      "avoid": 7254,
      "Play": 7255,
      "regul": 7256,
      "ç¾İåħĥ": 7257,
      "åĲįãĢĤ": 7258,
      "é¥±": 7259,
      "location": 7260,
      "Jer": 7261,
      "åŃ¦æľ¯": 7262,
      "Smith": 7263,
      "èµ¶": 7264,
      "one.": 7265,
      "æĲŀ": 7266,
      "us.": 7267,
      "å¼Ħ": 7268,
      "extreme": 7269,
      "ç©´": 7270,
      "éĥİ": 7271,
      "ï¼ĪäºĮï¼ī": 7272,
      "ï¼ĮåĲĦ": 7273,
      "farm": 7274,
      "valu": 7275,
      "åľºæīĢ": 7276,
      "download": 7277,
      "äºĪä»¥": 7278,
      "çļĦæķĻèĤ²": 7279,
      "HT": 7280,
      "easily": 7281,
      "æĢ§æł¼": 7282,
      "neg": 7283,
      "Photo": 7284,
      "PR": 7285,
      "award": 7286,
      "California": 7287,
      "Bay": 7288,
      "attention": 7289,
      "PA": 7290,
      "åīĳ": 7291,
      "(C": 7292,
      "course,": 7293,
      "multiple": 7294,
      "åħ¬åı¸çļĦ": 7295,
      "sett": 7296,
      "èĢģå¹´": 7297,
      "streng": 7298,
      "birth": 7299,
      "è¯¾é¢ĺ": 7300,
      "nu": 7301,
      "daughter": 7302,
      "BA": 7303,
      "liter": 7304,
      "bottom": 7305,
      "ï¼Įé«ĺ": 7306,
      "æ¸Ĺ": 7307,
      "Vir": 7308,
      "them,": 7309,
      "ä¸ŃãĢĤ": 7310,
      "actions": 7311,
      "enty": 7312,
      "annel": 7313,
      "fish": 7314,
      "successful": 7315,
      "sometimes": 7316,
      "rank": 7317,
      "eat": 7318,
      "èĤ¡ç¥¨": 7319,
      "Oct": 7320,
      "ï¼ļåľ¨": 7321,
      "åĪĳäºĭ": 7322,
      "æĺ¯æľī": 7323,
      "patter": 7324,
      "ãĢģåľ¨": 7325,
      "UT": 7326,
      "ç¡ķ": 7327,
      "åħ¬å®ī": 7328,
      "æķħéļľ": 7329,
      "Super": 7330,
      "ä¸¾è¡Į": 7331,
      "æ¯Ķåĸ»": 7332,
      "year.": 7333,
      "å£³": 7334,
      "iced": 7335,
      "æĳĩ": 7336,
      "ju": 7337,
      "Sto": 7338,
      "ï¼ĮæĪĲä¸º": 7339,
      "ç¦»å¼Ģ": 7340,
      "ico": 7341,
      "wants": 7342,
      "Mary": 7343,
      "){": 7344,
      "å¤§åŃ¦çĶŁ": 7345,
      "Pet": 7346,
      "çī©åĵģ": 7347,
      "physical": 7348,
      "trust": 7349,
      "åĲ¨": 7350,
      "åĬĽãĢĤ": 7351,
      "atives": 7352,
      "out,": 7353,
      "çļĦè¡Įä¸º": 7354,
      "è¸ı": 7355,
      "éķ¿çļĦ": 7356,
      "æĽ´å¥½": 7357,
      "fat": 7358,
      "çļĦçŁ¥è¯Ĩ": 7359,
      "ï¼Įä¹Łå°±æĺ¯": 7360,
      "æŀª": 7361,
      "èĩªæ²»": 7362,
      "åĺī": 7363,
      "choice": 7364,
      "ç¿»è¯ĳ": 7365,
      "ML": 7366,
      "ä¼łè¾ĵ": 7367,
      "äºĭé¡¹": 7368,
      "åĬ¨æĢģ": 7369,
      "è½¬åĮĸ": 7370,
      "éĽĨåĽ¢": 7371,
      "gold": 7372,
      "lives": 7373,
      "çļĦåŃ¦çĶŁ": 7374,
      "'d": 7375,
      "çº¢èī²": 7376,
      "rol": 7377,
      "allowed": 7378,
      "stick": 7379,
      "ville": 7380,
      "ç¾İçļĦ": 7381,
      "Board": 7382,
      "éĶģ": 7383,
      "èĬ¯": 7384,
      "fem": 7385,
      "rap": 7386,
      "åī©": 7387,
      "states": 7388,
      "æĹ¨": 7389,
      "ç´§å¼ł": 7390,
      "éĹ²": 7391,
      "ä»£è°¢": 7392,
      "hands": 7393,
      "thous": 7394,
      "Because": 7395,
      "ope": 7396,
      "æ³ķãĢģ": 7397,
      "çªģçĦ¶": 7398,
      "åħĦ": 7399,
      "å§ĭç»Ī": 7400,
      "æ¬¡ï¼Į": 7401,
      "ties": 7402,
      "consum": 7403,
      "ä¸Ĭåįĩ": 7404,
      "è½¬æį¢": 7405,
      "ä¾ĽåºĶ": 7406,
      "å¿ħçĦ¶": 7407,
      "surv": 7408,
      "æŁ¥çľĭ": 7409,
      "èľľ": 7410,
      "ç§įç±»": 7411,
      "relative": 7412,
      "trade": 7413,
      "æĽ¹æĵį": 7414,
      "è¦ģæ³¨æĦı": 7415,
      "George": 7416,
      "åıĳå±ķï¼Į": 7417,
      "Loc": 7418,
      "yn": 7419,
      "warm": 7420,
      "èī¾": 7421,
      "behavi": 7422,
      "IR": 7423,
      "çĥĤ": 7424,
      "åı¯èĥ½æĺ¯": 7425,
      "æ··åĲĪ": 7426,
      "å¸ĪçĶŁ": 7427,
      "Em": 7428,
      "finish": 7429,
      "completely": 7430,
      "Company": 7431,
      "groups": 7432,
      "certainly": 7433,
      "ä¸»ç®¡": 7434,
      "å¼¦": 7435,
      "ady": 7436,
      "instit": 7437,
      "å»ī": 7438,
      "Wil": 7439,
      "double": 7440,
      "iar": 7441,
      "åĨ³çŃĸ": 7442,
      "complet": 7443,
      "carry": 7444,
      "associated": 7445,
      "çŃ¾è®¢": 7446,
      "åľŁå£¤": 7447,
      "åħ¬éĩĮ": 7448,
      "Council": 7449,
      "çĶ²æĸ¹": 7450,
      "å®ĹæķĻ": 7451,
      "undred": 7452,
      "modern": 7453,
      "åĩºçĶŁ": 7454,
      "N.": 7455,
      "åģľæŃ¢": 7456,
      "åĵ²åŃ¦": 7457,
      "middle": 7458,
      "æĪĴ": 7459,
      "album": 7460,
      "Year": 7461,
      "analy": 7462,
      "Instit": 7463,
      "ä¼ĳæģ¯": 7464,
      "âĢĿæĺ¯": 7465,
      "åĨħï¼Į": 7466,
      "cum": 7467,
      "capt": 7468,
      "talking": 7469,
      "straight": 7470,
      "Facebook": 7471,
      "obtain": 7472,
      "ç¡«": 7473,
      "èĪĮ": 7474,
      "ic,": 7475,
      "æľįåĬ¡åĻ¨": 7476,
      "çļĦäºĭæĥħ": 7477,
      "å®¶çļĦ": 7478,
      "Flor": 7479,
      "Bill": 7480,
      "è¾ĵåĩº": 7481,
      "ä»¤äºº": 7482,
      "excell": 7483,
      "olf": 7484,
      "ä»¥æĿ¥": 7485,
      "ç¯®": 7486,
      "catch": 7487,
      "æĻ¨": 7488,
      "Top": 7489,
      "çİ»çĴĥ": 7490,
      "åı°æ¹¾": 7491,
      "W.": 7492,
      "èĤ©": 7493,
      "ä»¥ä¸º": 7494,
      "èĬ½": 7495,
      "throw": 7496,
      "å¤©çĦ¶": 7497,
      "Lou": 7498,
      "trip": 7499,
      "åĲĪæĪĲ": 7500,
      "æĥħåĨµï¼Į": 7501,
      "Time": 7502,
      "window": 7503,
      "psy": 7504,
      "you,": 7505,
      "thinking": 7506,
      "choose": 7507,
      "è§£æŀĲ": 7508,
      "controll": 7509,
      "b.": 7510,
      "å¾Īéļ¾": 7511,
      "Ret": 7512,
      "è¯įè¯Ń": 7513,
      "he's": 7514,
      "ero": 7515,
      "æŀĦå»º": 7516,
      "tor": 7517,
      "æºª": 7518,
      "éģĵï¼Į": 7519,
      "Mil": 7520,
      "Apple": 7521,
      "æĽ¾ç»ı": 7522,
      "wait": 7523,
      "åĽ¾åĥı": 7524,
      "hus": 7525,
      "suffer": 7526,
      "HO": 7527,
      "è¾½": 7528,
      "å¸¸è§Ħ": 7529,
      "ç¾İæľ¯": 7530,
      "ä¸ĺ": 7531,
      "æĸ¼": 7532,
      "Bank": 7533,
      "èģĺ": 7534,
      "é«ĺæł¡": 7535,
      "åħ³å¿ĥ": 7536,
      "up,": 7537,
      "æ¬£èµı": 7538,
      "åŃĲãĢĤ": 7539,
      "BS": 7540,
      "iel": 7541,
      "parts": 7542,
      "ule": 7543,
      "iving": 7544,
      "in-": 7545,
      "autom": 7546,
      "ä»²è£ģ": 7547,
      "å¤ļå¹´": 7548,
      "increased": 7549,
      "ãĢĤè¿Ļæł·": 7550,
      "éĥ¨çļĦ": 7551,
      "ights": 7552,
      "providing": 7553,
      "æ£®æŀĹ": 7554,
      "degree": 7555,
      "äºŃ": 7556,
      "scient": 7557,
      "now,": 7558,
      "åıĳè¾¾": 7559,
      "Port": 7560,
      "åİħ": 7561,
      "éĩĮéĿ¢": 7562,
      "åĢ¼å¾Ĺ": 7563,
      "Def": 7564,
      "ä¸ĬãĢĤ": 7565,
      "è®¾ç«ĭ": 7566,
      "European": 7567,
      "ä¼łæŁĵ": 7568,
      "äº«åıĹ": 7569,
      "Monday": 7570,
      "éĹª": 7571,
      "ãĢĭï¼Ī": 7572,
      "candid": 7573,
      "éĥ½ä¸į": 7574,
      "ä¸ĢåĲį": 7575,
      "scr": 7576,
      "sites": 7577,
      "æ¸ł": 7578,
      "fans": 7579,
      "inch": 7580,
      "å¤§éĩıçļĦ": 7581,
      "è¢ĭ": 7582,
      "session": 7583,
      "Rock": 7584,
      "è¦ģæľī": 7585,
      "è©": 7586,
      "omen": 7587,
      "ç»´æĮģ": 7588,
      "cel": 7589,
      "æ³ķå®ļ": 7590,
      "construction": 7591,
      "budget": 7592,
      "åĪĨï¼Į": 7593,
      "lied": 7594,
      "stage": 7595,
      "za": 7596,
      "aker": 7597,
      "ç§ĳçłĶ": 7598,
      "çĶľ": 7599,
      "bs": 7600,
      "åľ°éľĩ": 7601,
      "æĺ¯ä»¥": 7602,
      "Mal": 7603,
      "Program": 7604,
      "å¹½": 7605,
      "d,": 7606,
      "cases": 7607,
      "CãĢģ": 7608,
      "capital": 7609,
      "ry,": 7610,
      "Service": 7611,
      "reflect": 7612,
      "].": 7613,
      "åĪĩï¼ĮðłĢ¤": 7614,
      "å¤ļæł·": 7615,
      "Lu": 7616,
      "highly": 7617,
      "poor": 7618,
      "äºĭï¼Į": 7619,
      "difference": 7620,
      "ç®ĢåįķçļĦ": 7621,
      "lam": 7622,
      "ofĊ": 7623,
      "directly": 7624,
      "åŃĲãĢģ": 7625,
      "developed": 7626,
      "ä¸»å¼ł": 7627,
      "çĶµåİĭ": 7628,
      "itely": 7629,
      "micro": 7630,
      "Great": 7631,
      "PT": 7632,
      "ç»Ŀå¯¹": 7633,
      "ensure": 7634,
      "ç¼´çº³": 7635,
      "Att": 7636,
      "EM": 7637,
      "People": 7638,
      "Ty": 7639,
      "chair": 7640,
      "æ±ģ": 7641,
      "duc": 7642,
      "æĺ¾èĳĹ": 7643,
      "é¥²": 7644,
      "hospital": 7645,
      "çĳŀ": 7646,
      "figure": 7647,
      "Two": 7648,
      "æĶ¹è¿Ľ": 7649,
      "æĸ¹éĿ¢ï¼Į": 7650,
      "âĺ": 7651,
      "Open": 7652,
      "ãĤ": 7653,
      "ad,": 7654,
      "å·¢": 7655,
      "lie": 7656,
      "Angel": 7657,
      "GB": 7658,
      "æµĻ": 7659,
      "å¸¸è§ģçļĦ": 7660,
      "variety": 7661,
      "wife": 7662,
      "æĨ": 7663,
      "inated": 7664,
      "è¯ģä¹¦": 7665,
      "å¥Ķ": 7666,
      "åĲĦç±»": 7667,
      "parent": 7668,
      "unit": 7669,
      "medic": 7670,
      "æĽ´å¤ļçļĦ": 7671,
      "è´¤": 7672,
      "numbers": 7673,
      "ï¼Įä¿ĥè¿Ľ": 7674,
      "å¤§åĪ©": 7675,
      "çī©ä½ĵ": 7676,
      "åĵģè´¨": 7677,
      "Met": 7678,
      "çĸĨ": 7679,
      "ä¿ĿåŃĺ": 7680,
      "Ann": 7681,
      "Once": 7682,
      "Gold": 7683,
      "ï¼ĮåŁ¹åħ»": 7684,
      "è¢Ń": 7685,
      "èİ·åıĸ": 7686,
      "èĳ¬": 7687,
      "ae": 7688,
      "ãĢĤâĢĶâĢĶ": 7689,
      "scen": 7690,
      "å¿į": 7691,
      "å¹»": 7692,
      "æľ¬äºº": 7693,
      "æĸ°éĹ»": 7694,
      "æį·": 7695,
      "XX": 7696,
      "measure": 7697,
      "æĸĩçĮ®": 7698,
      "æĿĥçļĦ": 7699,
      "çĭ¬çī¹": 7700,
      "ï¼Įæł¹æį®": 7701,
      "arden": 7702,
      "è½¬åıĺ": 7703,
      "éĵº": 7704,
      "agree": 7705,
      "åĪł": 7706,
      "ips": 7707,
      "æµģåĬ¨": 7708,
      "Jes": 7709,
      "èį¡": 7710,
      "å°ıæľĭåıĭ": 7711,
      "ously": 7712,
      "dollar": 7713,
      "Pri": 7714,
      "forms": 7715,
      "oted": 7716,
      "çĶµæµģ": 7717,
      "street": 7718,
      "èĦ¾": 7719,
      "blue": 7720,
      "growing": 7721,
      "åĬĽãĢģ": 7722,
      "èĤĥ": 7723,
      "beyond": 7724,
      "åĩºåıĳ": 7725,
      "ãĢĭãĢĬ": 7726,
      "åħ»èĢģ": 7727,
      "çļĦä¸ľè¥¿": 7728,
      "æĴŀ": 7729,
      "spend": 7730,
      "compon": 7731,
      "æĮĸ": 7732,
      "restaur": 7733,
      "isn't": 7734,
      "æĥħèĬĤ": 7735,
      "çĸ²": 7736,
      "bing": 7737,
      "è¯ŀ": 7738,
      "æ°Ķä½ĵ": 7739,
      "ä¸°å¯ĮçļĦ": 7740,
      "Journal": 7741,
      "this.": 7742,
      "aly": 7743,
      "frame": 7744,
      "å¸ĿåĽ½": 7745,
      "conference": 7746,
      "è¾Ī": 7747,
      "ä¸įåĨį": 7748,
      "å§Ĳ": 7749,
      "oph": 7750,
      "decl": 7751,
      "analysis": 7752,
      "@example": 7753,
      "Thanks": 7754,
      "ä¸īè§Ĵ": 7755,
      "éĴ»": 7756,
      "die": 7757,
      "programs": 7758,
      "uce": 7759,
      "çİĦ": 7760,
      "NY": 7761,
      "comments": 7762,
      "exactly": 7763,
      "å±ħä½ı": 7764,
      "Robert": 7765,
      "è¿Ŀåıį": 7766,
      "åĪ¤åĨ³": 7767,
      "åħ¨ä½ĵ": 7768,
      "dated": 7769,
      "åıĳåĩº": 7770,
      "ç½ĳç«Ļ": 7771,
      "æĽ¼": 7772,
      "customers": 7773,
      "ä»¥ä¸ĬçļĦ": 7774,
      "æĦıåĳ³": 7775,
      "åĨįæ¬¡": 7776,
      "å¯ĨåĪĩ": 7777,
      "ãĢĳĊ": 7778,
      "benefit": 7779,
      "purpose": 7780,
      "ç¡¬çĽĺ": 7781,
      "sets": 7782,
      "è¬": 7783,
      "é¢Ħæµĭ": 7784,
      "è¾ī": 7785,
      "ç¦ģæŃ¢": 7786,
      "lots": 7787,
      "roy": 7788,
      "pitch": 7789,
      "ç¥¥": 7790,
      "âĢĿåĴĮâĢľ": 7791,
      "rit": 7792,
      "è®¿éĹ®": 7793,
      "pow": 7794,
      "resist": 7795,
      "éĹ®é¢ĺãĢĤ": 7796,
      "floor": 7797,
      "éĩįå¤į": 7798,
      "China": 7799,
      "ä½¿çĶ¨çļĦ": 7800,
      "èĩ³ä»Ĭ": 7801,
      "towards": 7802,
      "sto": 7803,
      "Well,": 7804,
      "çħ®": 7805,
      "æ¬ł": 7806,
      "vote": 7807,
      "åį§": 7808,
      "å±ķå¼Ģ": 7809,
      "æįŁä¼¤": 7810,
      "empor": 7811,
      "interested": 7812,
      "strict": 7813,
      "æĳ¸": 7814,
      "ä½İäºİ": 7815,
      "FL": 7816,
      "appropriate": 7817,
      "re-": 7818,
      "details": 7819,
      "bes": 7820,
      "åĬ©äºİ": 7821,
      "åµ": 7822,
      "skin": 7823,
      "å®¤åĨħ": 7824,
      "æĸĹäºī": 7825,
      "ä½ĵåĪ¶": 7826,
      "eyes": 7827,
      "Russ": 7828,
      "ä¸Ģæ®µ": 7829,
      "Rel": 7830,
      "åħĭï¼Į": 7831,
      "åĲ«ä¹ī": 7832,
      "Bre": 7833,
      "Bel": 7834,
      "çĭĤ": 7835,
      "ç£·": 7836,
      "è¿Ľç¨ĭ": 7837,
      "æľīåĵªäºĽ": 7838,
      "åħ¬åħĥåīį": 7839,
      "å°ĨåĨĽ": 7840,
      "çļĦæĢĿæĥ³": 7841,
      "ä¼ĺåĮĸ": 7842,
      "ï¼ĮæĪĳåĽ½": 7843,
      "æ²³åįĹ": 7844,
      "æ¤İ": 7845,
      "digital": 7846,
      "picture": 7847,
      "hib": 7848,
      "portion": 7849,
      "died": 7850,
      "Hum": 7851,
      "edge": 7852,
      "å·©": 7853,
      "annual": 7854,
      "husband": 7855,
      "guest": 7856,
      "ï¼ĮæĹ¢": 7857,
      "levels": 7858,
      "writ": 7859,
      "limit": 7860,
      "æ°¸è¿ľ": 7861,
      "é£ŁçĶ¨": 7862,
      "ä¹ĭä¸ĢãĢĤ": 7863,
      "dream": 7864,
      "æłª": 7865,
      "atever": 7866,
      "hundred": 7867,
      "out.": 7868,
      "Office": 7869,
      "åĬłä»¥": 7870,
      "transfer": 7871,
      "èĩ³äºİ": 7872,
      "British": 7873,
      "ï¼ļä¸Ģ": 7874,
      "rupt": 7875,
      "greater": 7876,
      "language": 7877,
      "çģ«çģ¾": 7878,
      "çļĦåıĺåĮĸ": 7879,
      "sleep": 7880,
      "ube": 7881,
      "åĵģç§į": 7882,
      "ç¼Ŀ": 7883,
      "strateg": 7884,
      "increasing": 7885,
      "åģļåĩº": 7886,
      "Ver": 7887,
      "Democr": 7888,
      "Hist": 7889,
      "(S": 7890,
      "å°±è¦ģ": 7891,
      "DO": 7892,
      "Click": 7893,
      "IF": 7894,
      "ï¼Įæīį": 7895,
      "æľīâĢľ": 7896,
      "Texas": 7897,
      "%çļĦ": 7898,
      "brain": 7899,
      "switch": 7900,
      "client": 7901,
      "æĮĳæĪĺ": 7902,
      "åİĺç±³": 7903,
      "æµ¸": 7904,
      "çŃīçº§": 7905,
      "solute": 7906,
      "å±±ä¸ľ": 7907,
      "éĢīé¡¹": 7908,
      "progress": 7909,
      "server": 7910,
      "voice": 7911,
      "åĴ¨è¯¢Ċ": 7912,
      "èįĴ": 7913,
      "åĲ¸å¼ķ": 7914,
      "Fil": 7915,
      "å¯¹åºĶ": 7916,
      "å±Ģéĥ¨": 7917,
      "å°Ŀè¯ķ": 7918,
      "èĥľåĪ©": 7919,
      "ï¼Įè¯¥": 7920,
      "æľĪç»ı": 7921,
      "loved": 7922,
      "Lab": 7923,
      "æ¡Ĥ": 7924,
      "åĲ¾": 7925,
      "ç½Ĺæĸ¯": 7926,
      "berg": 7927,
      "çģĮ": 7928,
      "direction": 7929,
      "åĨ»": 7930,
      "Business": 7931,
      "rief": 7932,
      "è®©æĪĳä»¬": 7933,
      "åĽ¾å½¢": 7934,
      "æĪ¿äº§": 7935,
      "opening": 7936,
      "å¿ĥèĦı": 7937,
      "å¾Īå¿«": 7938,
      "feeling": 7939,
      "ãĢĤä¸ĢèĪ¬": 7940,
      "ãĢĤä¸º": 7941,
      "åį±æľº": 7942,
      "rat": 7943,
      "Fol": 7944,
      "æ³Ħ": 7945,
      "å¾Īå¤§çļĦ": 7946,
      "å¹´ï¼ī": 7947,
      "hest": 7948,
      "exer": 7949,
      "crow": 7950,
      "ii": 7951,
      "NE": 7952,
      "æıĲåīį": 7953,
      "æİ¥åı£": 7954,
      "ï¼Įä¸ºäºĨ": 7955,
      "è§Ĩé¢ĳ": 7956,
      "çī©ï¼Į": 7957,
      "è¯´çļĦ": 7958,
      "wear": 7959,
      "æĭĨ": 7960,
      "daily": 7961,
      "plus": 7962,
      "commercial": 7963,
      "winning": 7964,
      "ulty": 7965,
      "useum": 7966,
      "bat": 7967,
      "ye": 7968,
      "defense": 7969,
      "çļĦå®īåħ¨": 7970,
      "idents": 7971,
      "Chic": 7972,
      "å¯»æī¾": 7973,
      "ations.": 7974,
      "åİŁå§ĭ": 7975,
      "FIG.": 7976,
      "overall": 7977,
      "åĽ½åĬ¡": 7978,
      "Bur": 7979,
      "assess": 7980,
      "è¡¨æ¼Ķ": 7981,
      "çĬ¬": 7982,
      "æĶ¶çĽĬ": 7983,
      "èĩªè¡Į": 7984,
      "land,": 7985,
      "éĿ¢ä¸´": 7986,
      "åĪĩï¼ĮðłĢ¤éŁ³": 7987,
      "CPU": 7988,
      "French": 7989,
      "rian": 7990,
      "èĪĩ": 7991,
      "Phone": 7992,
      "ht": 7993,
      "éĹ´çļĦ": 7994,
      "ä¸įçŁ¥": 7995,
      "Mill": 7996,
      "-time": 7997,
      "ï¼Įå¯¼èĩ´": 7998,
      "mechan": 7999,
      "traditional": 8000,
      "Like": 8001,
      "éģĵçĲĨ": 8002,
      "èĩªä¿¡": 8003,
      "memory": 8004,
      "ï¼Įä¸Ń": 8005,
      "nother": 8006,
      "æİ¢ç©¶": 8007,
      "ideas": 8008,
      "èĦĬ": 8009,
      "æ¶ĪéĻ¤": 8010,
      "Cop": 8011,
      "ãĢĤè¿Ļæĺ¯": 8012,
      "åıįå¯¹": 8013,
      "civil": 8014,
      "èĶ¬": 8015,
      "éģĹä¼ł": 8016,
      "TE": 8017,
      "åı¹": 8018,
      "æĴĳ": 8019,
      "ï¼ĮæľĢåĲİ": 8020,
      "æ¶¨": 8021,
      "you.": 8022,
      "About": 8023,
      "åĶ¯ä¸Ģ": 8024,
      "ãĢĤåıĪ": 8025,
      "é«ĺèĢĥ": 8026,
      "çıŃä¸»ä»»": 8027,
      "task": 8028,
      "cture": 8029,
      "eval": 8030,
      "ï¼Įä¹Łåı¯ä»¥": 8031,
      "è¾Ĳ": 8032,
      "çĽ¸åħ³çļĦ": 8033,
      "æµĨ": 8034,
      "ä½ĵåĨħ": 8035,
      "æºĥ": 8036,
      "ç»Īäºİ": 8037,
      "èŁ": 8038,
      "photograph": 8039,
      "earlier": 8040,
      "Florid": 8041,
      "slight": 8042,
      "That's": 8043,
      "Vol": 8044,
      "enh": 8045,
      "åĪ©æ¶¦": 8046,
      "å¼ºåº¦": 8047,
      "è®¤ä¸ºï¼Į": 8048,
      "district": 8049,
      "æĺĨ": 8050,
      "safety": 8051,
      "åĴ³": 8052,
      "posted": 8053,
      "çĶŁåĬ¨": 8054,
      "è¾ĥå¤§": 8055,
      "produce": 8056,
      "radio": 8057,
      "åĩºçİ°äºĨ": 8058,
      "lose": 8059,
      "ä½ľçĶ¨ãĢĤ": 8060,
      "äººä¸º": 8061,
      "å¹´è½»": 8062,
      "çĻ¾å§ĵ": 8063,
      "è¯¸èĳĽ": 8064,
      "Back": 8065,
      "ively": 8066,
      "mental": 8067,
      "å¹¶ä¸įæĺ¯": 8068,
      "äº¤å¾Ģ": 8069,
      "æĢĿè·¯": 8070,
      "çĻ½èī²": 8071,
      "purchase": 8072,
      "core": 8073,
      "è£ħç½®": 8074,
      "register": 8075,
      "ech": 8076,
      "compared": 8077,
      "strug": 8078,
      "èĬĤæĹ¥": 8079,
      "æŁĲç§į": 8080,
      "åįģåħŃ": 8081,
      "repe": 8082,
      "perhaps": 8083,
      "æľīæķĪçļĦ": 8084,
      "è±¡å¾ģ": 8085,
      "Look": 8086,
      "Found": 8087,
      "èĳ£": 8088,
      "å¤©æ°Ķ": 8089,
      "å¹¿åĳĬ": 8090,
      "followed": 8091,
      "åı¥åŃĲ": 8092,
      "å¹¶ä¸Ķ": 8093,
      "Fore": 8094,
      "pool": 8095,
      "æ»¤": 8096,
      "åīįçļĦ": 8097,
      "kick": 8098,
      "çķĻä¸ĭ": 8099,
      "ä¹Łå°±æĺ¯": 8100,
      "èĪŁ": 8101,
      "appreci": 8102,
      "Brown": 8103,
      "è¯´æ³ķ": 8104,
      "apt": 8105,
      "ï¼Įä¸¤": 8106,
      "å¼ºåĪ¶": 8107,
      "ä¸ľåĮĹ": 8108,
      "changed": 8109,
      "ãĢĤæį®": 8110,
      "During": 8111,
      "fant": 8112,
      "categ": 8113,
      "âĢĿçŃī": 8114,
      "(e": 8115,
      "æ°¯": 8116,
      "ãĢĤä»¥": 8117,
      "well,": 8118,
      "toĊ": 8119,
      "åľ°äº§": 8120,
      "åĩ¤": 8121,
      "ices,": 8122,
      "å¼ķåıĳ": 8123,
      "æĢ»ä½ĵ": 8124,
      "ãĢĤè¿Ļä¸ª": 8125,
      "ä»Ģä¹Īæĺ¯": 8126,
      "Ham": 8127,
      "æ³ª": 8128,
      "æĻ°": 8129,
      "science": 8130,
      "haven": 8131,
      "ä¸īç§į": 8132,
      "Hill": 8133,
      "Techno": 8134,
      "åĲĮæĦı": 8135,
      "è¯Ī": 8136,
      "åĤ¬": 8137,
      "åľ°éĿ¢": 8138,
      "ç¥ĸåĽ½": 8139,
      "éĹ¹": 8140,
      "poly": 8141,
      "H.": 8142,
      "èŀº": 8143,
      "master": 8144,
      "æ¡Īä¾ĭ": 8145,
      "ï¼Įå®ĥä»¬": 8146,
      "grade": 8147,
      "é¬¼": 8148,
      "å¾½": 8149,
      "åĸĤ": 8150,
      "itz": 8151,
      "obvious": 8152,
      "Twitter": 8153,
      "åįģåĽĽ": 8154,
      "ç¢°": 8155,
      "Educ": 8156,
      "å¯¹æ¯Ķ": 8157,
      "Vis": 8158,
      "solid": 8159,
      "Each": 8160,
      "âĢĿ,": 8161,
      "çªģçł´": 8162,
      "æĢĴ": 8163,
      "ivity": 8164,
      "èĩªè§ī": 8165,
      "region": 8166,
      "æķĻèĤ²çļĦ": 8167,
      "guys": 8168,
      "æ³»": 8169,
      "åĽ¢ç»ĵ": 8170,
      "map": 8171,
      "åĮĹæĸ¹": 8172,
      "ahead": 8173,
      "é«ĺä¸Ń": 8174,
      "immediately": 8175,
      "able,": 8176,
      "mat": 8177,
      "ä¸Ģä½į": 8178,
      "him.": 8179,
      "activity": 8180,
      "iant": 8181,
      "æĺ¥ç§ĭ": 8182,
      "ç¢ĳ": 8183,
      "ements": 8184,
      "eye": 8185,
      "xim": 8186,
      "âĢĿåŃĹ": 8187,
      "DE": 8188,
      "åľ°çĤ¹": 8189,
      "è¯´ï¼ļ": 8190,
      "åŃ¦ä¹łï¼Į": 8191,
      "Hot": 8192,
      "åħ¬å¼ı": 8193,
      "glass": 8194,
      "æī¿åĮħ": 8195,
      "planning": 8196,
      "ä¿¡çĶ¨": 8197,
      "æ°´çļĦ": 8198,
      "åĭĥ": 8199,
      "æħİ": 8200,
      "cry": 8201,
      "çĽĹ": 8202,
      "rot": 8203,
      "respond": 8204,
      "stories": 8205,
      "proced": 8206,
      "åĮĢ": 8207,
      "åİ»åĴ¨è¯¢Ċ": 8208,
      "èĲ¥éĶĢ": 8209,
      "this,": 8210,
      "Wal": 8211,
      "(a": 8212,
      "åħ¬å¼Ģ": 8213,
      "eth": 8214,
      "åĽ½åĬ¡éĻ¢": 8215,
      "accur": 8216,
      "æ¡ĳ": 8217,
      "åįģå¹´": 8218,
      "Best": 8219,
      "éĤ£æł·": 8220,
      "ä¹ĭå¤Ħ": 8221,
      "ï¼Įäººä»¬": 8222,
      "åŃ¦çĶŁåľ¨": 8223,
      "äººåĴ¨è¯¢": 8224,
      "Under": 8225,
      "æĭĸ": 8226,
      "å§Ĩ": 8227,
      "æľŁçļĦ": 8228,
      "å¹¿å¤§": 8229,
      "diag": 8230,
      "CR": 8231,
      "ç§©": 8232,
      "æĲº": 8233,
      "achieve": 8234,
      "äººåĴ¨è¯¢è¿ĩĊ": 8235,
      "button": 8236,
      "Another": 8237,
      "gone": 8238,
      "trail": 8239,
      "éŃĤ": 8240,
      "éģĤ": 8241,
      "èĢĮä¸Ķ": 8242,
      "çļĦç²¾ç¥ŀ": 8243,
      "Commission": 8244,
      "virt": 8245,
      "è¿ĶåĽŀ": 8246,
      "spirit": 8247,
      "Gen": 8248,
      "largest": 8249,
      "æ¾³": 8250,
      "yard": 8251,
      "æĭĺ": 8252,
      "CS": 8253,
      "èµģ": 8254,
      "åĴĮç¤¾ä¼ļ": 8255,
      "åĪĨæķ°": 8256,
      "ia.": 8257,
      "åĴĮåħ¶ä»ĸ": 8258,
      "Int": 8259,
      "meaning": 8260,
      "finished": 8261,
      "AA": 8262,
      "ultim": 8263,
      "teams": 8264,
      "skill": 8265,
      "åı«åģļ": 8266,
      "reports": 8267,
      "tun": 8268,
      "lor": 8269,
      "å§Ķæīĺ": 8270,
      "åľ¨ãĢĬ": 8271,
      "senior": 8272,
      "è¯ĨåĪ«": 8273,
      "dress": 8274,
      "signal": 8275,
      "items": 8276,
      "å¤§äºİ": 8277,
      "èĵĦ": 8278,
      "éħ¬": 8279,
      "ï¼Įåħ¨": 8280,
      "åľ¨è¿Ļ": 8281,
      "ancy": 8282,
      "well.": 8283,
      "ç¬Ķè®°": 8284,
      "å¿ĥçļĦ": 8285,
      "ç§Łèµģ": 8286,
      "secut": 8287,
      "ç»ĵè®º": 8288,
      "æľĢæĹ©": 8289,
      "åıī": 8290,
      "Word": 8291,
      "ï¼Įä¾ĭå¦Ĥ": 8292,
      "wed": 8293,
      "èĩĤ": 8294,
      "helped": 8295,
      "ado": 8296,
      "çĤī": 8297,
      "æĽ°ï¼ļâĢľ": 8298,
      "generally": 8299,
      "é¾Ł": 8300,
      "æº¶æ¶²": 8301,
      "æľ¬ä¹¦": 8302,
      "technolog": 8303,
      "continued": 8304,
      "èĭ±éĽĦ": 8305,
      "Corpor": 8306,
      "ãĢĭï¼ļâĢľ": 8307,
      "å²³": 8308,
      "åįĹäº¬": 8309,
      "clud": 8310,
      "è¶³å¤Ł": 8311,
      "ï¼īï¼ļ": 8312,
      "Frank": 8313,
      "CL": 8314,
      "çľĭï¼Į": 8315,
      "çīµ": 8316,
      "reveal": 8317,
      "å¤ķ": 8318,
      "æ¯Ľæ³½": 8319,
      "ENT": 8320,
      "types": 8321,
      "ä¸Ĭæľī": 8322,
      "çŁ¥è¯ĨçļĦ": 8323,
      "çºłçº·": 8324,
      "ades": 8325,
      "æĭ¨": 8326,
      "icated": 8327,
      "æ¡£æ¡Ī": 8328,
      "GO": 8329,
      "æİĺ": 8330,
      "River": 8331,
      "challenge": 8332,
      "cert": 8333,
      "è¯ģåĪ¸": 8334,
      "è¦ģç´ł": 8335,
      "Posted": 8336,
      "So,": 8337,
      "çĶ±æŃ¤": 8338,
      "inĊ": 8339,
      "é¢ĳçİĩ": 8340,
      "éĥ½èĥ½": 8341,
      "èĤ¡ä¸ľ": 8342,
      "æģĭ": 8343,
      "æĦ¿æĦı": 8344,
      "expand": 8345,
      "Â£": 8346,
      "ãĢģæĸ°": 8347,
      "IE": 8348,
      "estim": 8349,
      "èĽĩ": 8350,
      "Page": 8351,
      "??": 8352,
      "election": 8353,
      "çĪ²": 8354,
      "constit": 8355,
      "&&": 8356,
      "æľ¬ç§ĳ": 8357,
      "cancer": 8358,
      "åİŁæĿ¥": 8359,
      "passed": 8360,
      "çĶµå½±": 8361,
      "çĮľ": 8362,
      "umn": 8363,
      "èĥģ": 8364,
      "ano": 8365,
      "Jud": 8366,
      "çº¿çļĦ": 8367,
      "produced": 8368,
      "åįļå£«": 8369,
      "there's": 8370,
      "attract": 8371,
      "ãĢĤä¸ºäºĨ": 8372,
      "Win": 8373,
      "owners": 8374,
      "æĢ¥æĢ§": 8375,
      "effects": 8376,
      "èľĢ": 8377,
      "PE": 8378,
      "****": 8379,
      "deli": 8380,
      "ram": 8381,
      "concept": 8382,
      "Arch": 8383,
      "Rob": 8384,
      "primary": 8385,
      "æ¯Ľæ³½ä¸ľ": 8386,
      "work,": 8387,
      "definitely": 8388,
      "çĥŃçĪ±": 8389,
      "è¾ĥä¸º": 8390,
      "List": 8391,
      "ä¼¼ä¹İ": 8392,
      "èĭıèģĶ": 8393,
      "åı¯ä»¥åľ¨": 8394,
      "ï¼ĮåĬłå¼º": 8395,
      "ä»¥âĢľ": 8396,
      "æ¨¡æĭŁ": 8397,
      "lap": 8398,
      "ago,": 8399,
      "Power": 8400,
      "éĥ½åľ¨": 8401,
      "ãĢĢãĢĢï¼Ī": 8402,
      "ance.": 8403,
      "èİ²": 8404,
      "up.": 8405,
      "Dec": 8406,
      "asc": 8407,
      "ç®Ń": 8408,
      "éĺ³åħī": 8409,
      "ç»ıåħ¸": 8410,
      "ï¼Įä¸ĭ": 8411,
      "offered": 8412,
      "éĽ¾": 8413,
      "grant": 8414,
      "çİ¯ä¿Ŀ": 8415,
      "åĳĪçİ°": 8416,
      "èµ«": 8417,
      "çŁ£": 8418,
      "åįĹåĮĹ": 8419,
      "èħ¾": 8420,
      "phen": 8421,
      "forts": 8422,
      "æ¬¢è¿İ": 8423,
      "æĢĢåŃķ": 8424,
      "è¾Ĳå°Ħ": 8425,
      "Award": 8426,
      "æľŁï¼Į": 8427,
      "çº³ç¨İ": 8428,
      "complain": 8429,
      "åĮĸåĲĪ": 8430,
      "å½¢çĬ¶": 8431,
      "population": 8432,
      "itar": 8433,
      "Tor": 8434,
      "åħ±äº«": 8435,
      "faith": 8436,
      "ãĢĤåı¯": 8437,
      "transport": 8438,
      "è¿ª": 8439,
      "æ¿ĢåĬ±": 8440,
      "adjust": 8441,
      "éĤ£ä¸ª": 8442,
      "forex": 8443,
      "doctor": 8444,
      "sweet": 8445,
      "Down": 8446,
      "Alex": 8447,
      "ãĢĭãĢĤ": 8448,
      "showed": 8449,
      "æ¼Ĥ": 8450,
      "ï¼Īä»Ĭ": 8451,
      "seeing": 8452,
      "æķĪåºĶ": 8453,
      "åĴĮå¹³": 8454,
      "vehicle": 8455,
      "evalu": 8456,
      "çºªå¿µ": 8457,
      "responsible": 8458,
      "èĬ³": 8459,
      "è¿Ŀçº¦": 8460,
      "hotel": 8461,
      "ä»£çĲĨ": 8462,
      "åħ¨æĸĩ": 8463,
      "cold": 8464,
      "æľīåĪ©äºİ": 8465,
      "basic": 8466,
      "trou": 8467,
      "a's": 8468,
      "çŃīäºİ": 8469,
      "ç¬¦åı·": 8470,
      "è¢ģ": 8471,
      "éĺ²æ²»": 8472,
      "secret": 8473,
      "ä¸Ļ": 8474,
      "weather": 8475,
      "central": 8476,
      "æīĭç»Ń": 8477,
      "Child": 8478,
      "\":": 8479,
      "çĽ¸ä¼¼": 8480,
      "å¼¥": 8481,
      "culture": 8482,
      "åį³ä½¿": 8483,
      "æİ¥è¿ĳ": 8484,
      "äºĴèģĶç½ĳ": 8485,
      "éĦ": 8486,
      "thank": 8487,
      "contr": 8488,
      "peace": 8489,
      "Nov": 8490,
      "connection": 8491,
      "å¸Īï¼ļ": 8492,
      "å°±ä¸į": 8493,
      "''": 8494,
      "emot": 8495,
      "çĮĽ": 8496,
      "æĦģ": 8497,
      "è®¤çŁ¥": 8498,
      "well-": 8499,
      "ç¡¬ä»¶": 8500,
      "trial": 8501,
      "æ¶Īæ¯Ĵ": 8502,
      "ï¼Įåģļ": 8503,
      "èŀįåĲĪ": 8504,
      "Tuesday": 8505,
      "fing": 8506,
      "wasn't": 8507,
      "æķĻå¸ĪçļĦ": 8508,
      "å°±èĥ½": 8509,
      "counter": 8510,
      "gent": 8511,
      "éĶħ": 8512,
      "åĸĦäºİ": 8513,
      "closed": 8514,
      "roid": 8515,
      "åħĪåĲİ": 8516,
      "costs": 8517,
      "excellent": 8518,
      "åįģåħ«": 8519,
      "foreign": 8520,
      "Blue": 8521,
      "è¥¿åĮĹ": 8522,
      "æ»ŀ": 8523,
      "stood": 8524,
      "arent": 8525,
      "bac": 8526,
      "ï¼ĮåĲĳ": 8527,
      "satis": 8528,
      "æħ¢æħ¢": 8529,
      "(or": 8530,
      "ellow": 8531,
      "pap": 8532,
      "ä¸ľåįĹ": 8533,
      "è¡ĮçļĦ": 8534,
      "éļ¶": 8535,
      "alleg": 8536,
      "èĸª": 8537,
      "Carol": 8538,
      "æķĻæ¡Ī": 8539,
      "ä¸¢": 8540,
      "legisl": 8541,
      "åĻ¨å®ĺ": 8542,
      "å·©åĽº": 8543,
      "é»Ħæ²³": 8544,
      "arrest": 8545,
      "fact,": 8546,
      "çĶŁï¼Į": 8547,
      "çİ°ä»£åĮĸ": 8548,
      "ï¼¿": 8549,
      "countries": 8550,
      "remo": 8551,
      "è¦ĨçĽĸ": 8552,
      "æķĻçłĶ": 8553,
      "åĽ¾ä¹¦": 8554,
      "ä¸Ĭè¯¾": 8555,
      "æĽ´æĸ°": 8556,
      "doub": 8557,
      "Show": 8558,
      "dry": 8559,
      "guess": 8560,
      "æĻĵ": 8561,
      "isnâĢĻt": 8562,
      "Cle": 8563,
      "that.": 8564,
      "å·¡": 8565,
      "å²Ń": 8566,
      "æĸĩåĮĸçļĦ": 8567,
      "å¨ĺ": 8568,
      "çĲĨçĶ±": 8569,
      "wit": 8570,
      "ä¸Ńåįİæ°ĳæĹı": 8571,
      "ston": 8572,
      "å¸¸çĶ¨": 8573,
      "auto": 8574,
      "nd": 8575,
      "ä¸Ģå¤©": 8576,
      "advert": 8577,
      "è¡Įï¼Į": 8578,
      "Sha": 8579,
      "officials": 8580,
      "mir": 8581,
      "Congress": 8582,
      "çī©æµģ": 8583,
      "éĿĴæĺ¥": 8584,
      "spl": 8585,
      "isions": 8586,
      "seemed": 8587,
      "MO": 8588,
      "æł½": 8589,
      "ä¸īåĽ½": 8590,
      "å·¨å¤§": 8591,
      "æĬĴ": 8592,
      "ç¤¼ä»ª": 8593,
      "æ»ļ": 8594,
      "æ¶Īå¤±": 8595,
      "Thursday": 8596,
      "æĸ¹æ³ķï¼Į": 8597,
      "ä¸ĬéĿ¢": 8598,
      "æĪ¿åľ°äº§": 8599,
      "Check": 8600,
      "åħ½": 8601,
      "å¯Ĩåº¦": 8602,
      "Sum": 8603,
      "benefits": 8604,
      "è°¨": 8605,
      "ç½Ĺé©¬": 8606,
      "profit": 8607,
      "å¥ĳ": 8608,
      "ids": 8609,
      "éĿŀæ³ķ": 8610,
      "è°ĥè§£": 8611,
      "Scott": 8612,
      "ãĢĤçĦ¶èĢĮ": 8613,
      "æ¸ħæĻ°": 8614,
      "Distr": 8615,
      "spread": 8616,
      "jun": 8617,
      "structure": 8618,
      "competition": 8619,
      "Ve": 8620,
      "ona": 8621,
      "æĽ´ä¸º": 8622,
      "I'll": 8623,
      "é©»": 8624,
      "è¡¨çİ°ä¸º": 8625,
      "m,": 8626,
      "å¤ļæ¬¡": 8627,
      "conditions": 8628,
[...]
