{
  "version": "1.0",
  "truncation": null,
  "padding": null,
  "added_tokens": [
    {
      "id": 0,
      "content": "[PAD]",
      "single_word": false,
      "lstrip": false,
      "rstrip": false,
      "normalized": false,
      "special": true
    },
    {
      "id": 1,
      "content": "[CLS]",
      "single_word": false,
      "lstrip": false,
      "rstrip": false,
      "normalized": false,
      "special": true
    },
    {
      "id": 2,
      "content": "[SEP]",
      "single_word": false,
      "lstrip": false,
      "rstrip": false,
      "normalized": false,
      "special": true
    },
    {
      "id": 3,
      "content": "[MASK]",
      "single_word": false,
      "lstrip": false,
      "rstrip": false,
      "normalized": false,
      "special": true
    },
    {
      "id": 4,
      "content": "[EXT_0]",
      "single_word": false,
      "lstrip": false,
      "rstrip": false,
      "normalized": false,
      "special": true
    },
    {
      "id": 5,
      "content": "[EXT_1]",
      "single_word": false,
      "lstrip": false,
      "rstrip": false,
      "normalized": false,
      "special": true
    },
    {
      "id": 6,
      "content": "[EXT_2]",
      "single_word": false,
      "lstrip": false,
      "rstrip": false,
      "normalized": false,
      "special": true
    },
    {
      "id": 7,
      "content": "[EXT_3]",
      "single_word": false,
      "lstrip": false,
      "rstrip": false,
      "normalized": false,
      "special": true
    },
    {
      "id": 8,
      "content": "[EXT_4]",
      "single_word": false,
      "lstrip": false,
      "rstrip": false,
      "normalized": false,
      "special": true
    },
    {
      "id": 9,
      "content": "[EXT_5]",
      "single_word": false,
      "lstrip": false,
      "rstrip": false,
      "normalized": false,
      "special": true
    },
    {
      "id": 10,
      "content": "[EXT_6]",
      "single_word": false,
      "lstrip": false,
      "rstrip": false,
      "normalized": false,
      "special": true
    },
    {
      "id": 11,
      "content": "[EXT_7]",
      "single_word": false,
      "lstrip": false,
      "rstrip": false,
      "normalized": false,
      "special": true
    },
    {
      "id": 12,
      "content": "[EXT_8]",
      "single_word": false,
      "lstrip": false,
      "rstrip": false,
      "normalized": false,
      "special": true
    },
    {
      "id": 13,
      "content": "[EXT_9]",
      "single_word": false,
      "lstrip": false,
      "rstrip": false,
      "normalized": false,
      "special": true
    },
    {
      "id": 14,
      "content": "[EXT_10]",
      "single_word": false,
      "lstrip": false,
      "rstrip": false,
      "normalized": false,
      "special": true
    },
    {
      "id": 15,
      "content": "[EXT_11]",
      "single_word": false,
      "lstrip": false,
      "rstrip": false,
      "normalized": false,
      "special": true
    },
    {
      "id": 16,
      "content": "[EXT_12]",
      "single_word": false,
      "lstrip": false,
      "rstrip": false,
      "normalized": false,
      "special": true
    },
    {
      "id": 17,
      "content": "[EXT_13]",
      "single_word": false,
      "lstrip": false,
      "rstrip": false,
      "normalized": false,
      "special": true
    },
    {
      "id": 18,
      "content": "[EXT_14]",
      "single_word": false,
      "lstrip": false,
      "rstrip": false,
      "normalized": false,
      "special": true
    },
    {
      "id": 19,
      "content": "[EXT_15]",
      "single_word": false,
      "lstrip": false,
      "rstrip": false,
      "normalized": false,
      "special": true
    },
    {
      "id": 20,
      "content": "[EXT_16]",
      "single_word": false,
      "lstrip": false,
      "rstrip": false,
      "normalized": false,
      "special": true
    },
    {
      "id": 21,
      "content": "[EXT_17]",
      "single_word": false,
      "lstrip": false,
      "rstrip": false,
      "normalized": false,
      "special": true
    },
    {
      "id": 22,
      "content": "[EXT_18]",
      "single_word": false,
      "lstrip": false,
      "rstrip": false,
      "normalized": false,
      "special": true
    },
    {
      "id": 23,
      "content": "[EXT_19]",
      "single_word": false,
      "lstrip": false,
      "rstrip": false,
      "normalized": false,
      "special": true
    },
    {
      "id": 24,
      "content": "[EXT_20]",
      "single_word": false,
      "lstrip": false,
      "rstrip": false,
      "normalized": false,
      "special": true
    },
    {
      "id": 25,
      "content": "[EXT_21]",
      "single_word": false,
      "lstrip": false,
      "rstrip": false,
      "normalized": false,
      "special": true
    },
    {
      "id": 26,
      "content": "[EXT_22]",
      "single_word": false,
      "lstrip": false,
      "rstrip": false,
      "normalized": false,
      "special": true
    },
    {
      "id": 27,
      "content": "[EXT_23]",
      "single_word": false,
      "lstrip": false,
      "rstrip": false,
      "normalized": false,
      "special": true
    },
    {
      "id": 28,
      "content": "[EXT_24]",
      "single_word": false,
      "lstrip": false,
      "rstrip": false,
      "normalized": false,
      "special": true
    },
    {
      "id": 29,
      "content": "[EXT_25]",
      "single_word": false,
      "lstrip": false,
      "rstrip": false,
      "normalized": false,
      "special": true
    },
    {
      "id": 30,
      "content": "[EXT_26]",
      "single_word": false,
      "lstrip": false,
      "rstrip": false,
      "normalized": false,
      "special": true
    },
    {
      "id": 31,
      "content": "[EXT_27]",
      "single_word": false,
      "lstrip": false,
      "rstrip": false,
      "normalized": false,
      "special": true
    },
    {
      "id": 32,
      "content": "[EXT_28]",
      "single_word": false,
      "lstrip": false,
      "rstrip": false,
      "normalized": false,
      "special": true
    },
    {
      "id": 33,
      "content": "[EXT_29]",
      "single_word": false,
      "lstrip": false,
      "rstrip": false,
      "normalized": false,
      "special": true
    },
    {
      "id": 34,
      "content": "[EXT_30]",
      "single_word": false,
      "lstrip": false,
      "rstrip": false,
      "normalized": false,
      "special": true
    },
    {
      "id": 35,
      "content": "[EXT_31]",
      "single_word": false,
      "lstrip": false,
      "rstrip": false,
      "normalized": false,
      "special": true
    },
    {
      "id": 36,
      "content": "[EXT_32]",
      "single_word": false,
      "lstrip": false,
      "rstrip": false,
      "normalized": false,
      "special": true
    },
    {
      "id": 37,
      "content": "[EXT_33]",
      "single_word": false,
      "lstrip": false,
      "rstrip": false,
      "normalized": false,
      "special": true
    },
    {
      "id": 38,
      "content": "[EXT_34]",
      "single_word": false,
      "lstrip": false,
      "rstrip": false,
      "normalized": false,
      "special": true
    },
    {
      "id": 39,
      "content": "[EXT_35]",
      "single_word": false,
      "lstrip": false,
      "rstrip": false,
      "normalized": false,
      "special": true
    },
    {
      "id": 40,
      "content": "[EXT_36]",
      "single_word": false,
      "lstrip": false,
      "rstrip": false,
      "normalized": false,
      "special": true
    },
    {
      "id": 41,
      "content": "[EXT_37]",
      "single_word": false,
      "lstrip": false,
      "rstrip": false,
      "normalized": false,
      "special": true
    },
    {
      "id": 42,
      "content": "[EXT_38]",
      "single_word": false,
      "lstrip": false,
      "rstrip": false,
      "normalized": false,
      "special": true
    },
    {
      "id": 43,
      "content": "[EXT_39]",
      "single_word": false,
      "lstrip": false,
      "rstrip": false,
      "normalized": false,
      "special": true
    },
    {
      "id": 44,
      "content": "[EXT_40]",
      "single_word": false,
      "lstrip": false,
      "rstrip": false,
      "normalized": false,
      "special": true
    },
    {
      "id": 45,
      "content": "[EXT_41]",
      "single_word": false,
      "lstrip": false,
      "rstrip": false,
      "normalized": false,
      "special": true
    },
    {
      "id": 46,
      "content": "[EXT_42]",
      "single_word": false,
      "lstrip": false,
      "rstrip": false,
      "normalized": false,
      "special": true
    },
    {
      "id": 47,
      "content": "[EXT_43]",
      "single_word": false,
      "lstrip": false,
      "rstrip": false,
      "normalized": false,
      "special": true
    },
    {
      "id": 48,
      "content": "[EXT_44]",
      "single_word": false,
      "lstrip": false,
      "rstrip": false,
      "normalized": false,
      "special": true
    },
    {
      "id": 49,
      "content": "[EXT_45]",
      "single_word": false,
      "lstrip": false,
      "rstrip": false,
      "normalized": false,
      "special": true
    },
    {
      "id": 50,
      "content": "[EXT_46]",
      "single_word": false,
      "lstrip": false,
      "rstrip": false,
      "normalized": false,
      "special": true
    },
    {
      "id": 51,
      "content": "[EXT_47]",
      "single_word": false,
      "lstrip": false,
      "rstrip": false,
      "normalized": false,
      "special": true
    },
    {
      "id": 52,
      "content": "[EXT_48]",
      "single_word": false,
      "lstrip": false,
      "rstrip": false,
      "normalized": false,
      "special": true
    },
    {
      "id": 53,
      "content": "[EXT_49]",
      "single_word": false,
      "lstrip": false,
      "rstrip": false,
      "normalized": false,
      "special": true
    },
    {
      "id": 54,
      "content": "[EXT_50]",
      "single_word": false,
      "lstrip": false,
      "rstrip": false,
      "normalized": false,
      "special": true
    },
    {
      "id": 55,
      "content": "[EXT_51]",
      "single_word": false,
      "lstrip": false,
      "rstrip": false,
      "normalized": false,
      "special": true
    },
    {
      "id": 56,
      "content": "[EXT_52]",
      "single_word": false,
      "lstrip": false,
      "rstrip": false,
      "normalized": false,
      "special": true
    },
    {
      "id": 57,
      "content": "[EXT_53]",
      "single_word": false,
      "lstrip": false,
      "rstrip": false,
      "normalized": false,
      "special": true
    },
    {
      "id": 58,
      "content": "[EXT_54]",
      "single_word": false,
      "lstrip": false,
      "rstrip": false,
      "normalized": false,
      "special": true
    },
    {
      "id": 59,
      "content": "[EXT_55]",
      "single_word": false,
      "lstrip": false,
      "rstrip": false,
      "normalized": false,
      "special": true
    },
    {
      "id": 60,
      "content": "[EXT_56]",
      "single_word": false,
      "lstrip": false,
      "rstrip": false,
      "normalized": false,
      "special": true
    },
    {
      "id": 61,
      "content": "[EXT_57]",
      "single_word": false,
      "lstrip": false,
      "rstrip": false,
      "normalized": false,
      "special": true
    },
    {
      "id": 62,
      "content": "[EXT_58]",
      "single_word": false,
      "lstrip": false,
      "rstrip": false,
      "normalized": false,
      "special": true
    },
    {
      "id": 63,
      "content": "[EXT_59]",
      "single_word": false,
      "lstrip": false,
      "rstrip": false,
      "normalized": false,
      "special": true
    },
    {
      "id": 64,
      "content": "[EXT_60]",
      "single_word": false,
      "lstrip": false,
      "rstrip": false,
      "normalized": false,
      "special": true
    },
    {
      "id": 65,
      "content": "[EXT_61]",
      "single_word": false,
      "lstrip": false,
      "rstrip": false,
      "normalized": false,
      "special": true
    },
    {
      "id": 66,
      "content": "[EXT_62]",
      "single_word": false,
      "lstrip": false,
      "rstrip": false,
      "normalized": false,
      "special": true
    },
    {
      "id": 67,
      "content": "[EXT_63]",
      "single_word": false,
      "lstrip": false,
      "rstrip": false,
      "normalized": false,
      "special": true
    },
    {
      "id": 68,
      "content": "[EXT_64]",
      "single_word": false,
      "lstrip": false,
      "rstrip": false,
      "normalized": false,
      "special": true
    },
    {
      "id": 69,
      "content": "[EXT_65]",
      "single_word": false,
      "lstrip": false,
      "rstrip": false,
      "normalized": false,
      "special": true
    },
    {
      "id": 70,
      "content": "[EXT_66]",
      "single_word": false,
      "lstrip": false,
      "rstrip": false,
      "normalized": false,
      "special": true
    },
    {
      "id": 71,
      "content": "[EXT_67]",
      "single_word": false,
      "lstrip": false,
      "rstrip": false,
      "normalized": false,
      "special": true
    },
    {
      "id": 72,
      "content": "[EXT_68]",
      "single_word": false,
      "lstrip": false,
      "rstrip": false,
      "normalized": false,
      "special": true
    },
    {
      "id": 73,
      "content": "[EXT_69]",
      "single_word": false,
      "lstrip": false,
      "rstrip": false,
      "normalized": false,
      "special": true
    },
    {
      "id": 74,
      "content": "[EXT_70]",
      "single_word": false,
      "lstrip": false,
      "rstrip": false,
      "normalized": false,
      "special": true
    },
    {
      "id": 75,
      "content": "[EXT_71]",
      "single_word": false,
      "lstrip": false,
      "rstrip": false,
      "normalized": false,
      "special": true
    },
    {
      "id": 76,
      "content": "[EXT_72]",
      "single_word": false,
      "lstrip": false,
      "rstrip": false,
      "normalized": false,
      "special": true
    },
    {
      "id": 77,
      "content": "[EXT_73]",
      "single_word": false,
      "lstrip": false,
      "rstrip": false,
      "normalized": false,
      "special": true
    },
    {
      "id": 78,
      "content": "[EXT_74]",
      "single_word": false,
      "lstrip": false,
      "rstrip": false,
      "normalized": false,
      "special": true
    },
    {
      "id": 79,
      "content": "[EXT_75]",
      "single_word": false,
      "lstrip": false,
      "rstrip": false,
      "normalized": false,
      "special": true
    },
    {
      "id": 80,
      "content": "[EXT_76]",
      "single_word": false,
      "lstrip": false,
      "rstrip": false,
      "normalized": false,
      "special": true
    },
    {
      "id": 81,
      "content": "[EXT_77]",
      "single_word": false,
      "lstrip": false,
      "rstrip": false,
      "normalized": false,
      "special": true
    },
    {
      "id": 82,
      "content": "[EXT_78]",
      "single_word": false,
      "lstrip": false,
      "rstrip": false,
      "normalized": false,
      "special": true
    },
    {
      "id": 83,
      "content": "[EXT_79]",
      "single_word": false,
      "lstrip": false,
      "rstrip": false,
      "normalized": false,
      "special": true
    },
    {
      "id": 84,
      "content": "[EXT_80]",
      "single_word": false,
      "lstrip": false,
      "rstrip": false,
      "normalized": false,
      "special": true
    },
    {
      "id": 85,
      "content": "[EXT_81]",
      "single_word": false,
      "lstrip": false,
      "rstrip": false,
      "normalized": false,
      "special": true
    },
    {
      "id": 86,
      "content": "[EXT_82]",
      "single_word": false,
      "lstrip": false,
      "rstrip": false,
      "normalized": false,
      "special": true
    },
    {
      "id": 87,
      "content": "[EXT_83]",
      "single_word": false,
      "lstrip": false,
      "rstrip": false,
      "normalized": false,
      "special": true
    },
    {
      "id": 88,
      "content": "[EXT_84]",
      "single_word": false,
      "lstrip": false,
      "rstrip": false,
      "normalized": false,
      "special": true
    },
    {
      "id": 89,
      "content": "[EXT_85]",
      "single_word": false,
      "lstrip": false,
      "rstrip": false,
      "normalized": false,
      "special": true
    },
    {
      "id": 90,
      "content": "[EXT_86]",
      "single_word": false,
      "lstrip": false,
      "rstrip": false,
      "normalized": false,
      "special": true
    },
    {
      "id": 91,
      "content": "[EXT_87]",
      "single_word": false,
      "lstrip": false,
      "rstrip": false,
      "normalized": false,
      "special": true
    },
    {
      "id": 92,
      "content": "[EXT_88]",
      "single_word": false,
      "lstrip": false,
      "rstrip": false,
      "normalized": false,
      "special": true
    },
    {
      "id": 93,
      "content": "[EXT_89]",
      "single_word": false,
      "lstrip": false,
      "rstrip": false,
      "normalized": false,
      "special": true
    },
    {
      "id": 94,
      "content": "[EXT_90]",
      "single_word": false,
      "lstrip": false,
      "rstrip": false,
      "normalized": false,
      "special": true
    },
    {
      "id": 95,
      "content": "[EXT_91]",
      "single_word": false,
      "lstrip": false,
      "rstrip": false,
      "normalized": false,
      "special": true
    },
    {
      "id": 96,
      "content": "[EXT_92]",
      "single_word": false,
      "lstrip": false,
      "rstrip": false,
      "normalized": false,
      "special": true
    },
    {
      "id": 97,
      "content": "[EXT_93]",
      "single_word": false,
      "lstrip": false,
      "rstrip": false,
      "normalized": false,
      "special": true
    },
    {
      "id": 98,
      "content": "[EXT_94]",
      "single_word": false,
      "lstrip": false,
      "rstrip": false,
      "normalized": false,
      "special": true
    },
    {
      "id": 99,
      "content": "[EXT_95]",
      "single_word": false,
      "lstrip": false,
      "rstrip": false,
      "normalized": false,
      "special": true
    },
    {
      "id": 100,
      "content": "[EXT_96]",
      "single_word": false,
      "lstrip": false,
      "rstrip": false,
      "normalized": false,
      "special": true
    },
    {
      "id": 101,
      "content": "[EXT_97]",
      "single_word": false,
      "lstrip": false,
      "rstrip": false,
      "normalized": false,
      "special": true
    },
    {
      "id": 102,
      "content": "[EXT_98]",
      "single_word": false,
      "lstrip": false,
      "rstrip": false,
      "normalized": false,
      "special": true
    },
    {
      "id": 103,
      "content": "[EXT_99]",
      "single_word": false,
      "lstrip": false,
      "rstrip": false,
      "normalized": false,
      "special": true
    },
    {
      "id": 104,
      "content": "[EXT_100]",
      "single_word": false,
      "lstrip": false,
      "rstrip": false,
      "normalized": false,
      "special": true
    },
    {
      "id": 105,
      "content": "[EXT_101]",
      "single_word": false,
      "lstrip": false,
      "rstrip": false,
      "normalized": false,
      "special": true
    },
    {
      "id": 106,
      "content": "[EXT_102]",
      "single_word": false,
      "lstrip": false,
      "rstrip": false,
      "normalized": false,
      "special": true
    },
    {
      "id": 107,
      "content": "[EXT_103]",
      "single_word": false,
      "lstrip": false,
      "rstrip": false,
      "normalized": false,
      "special": true
    },
    {
      "id": 108,
      "content": "[EXT_104]",
      "single_word": false,
      "lstrip": false,
      "rstrip": false,
      "normalized": false,
      "special": true
    },
    {
      "id": 109,
      "content": "[EXT_105]",
      "single_word": false,
      "lstrip": false,
      "rstrip": false,
      "normalized": false,
      "special": true
    },
    {
      "id": 110,
      "content": "[EXT_106]",
      "single_word": false,
      "lstrip": false,
      "rstrip": false,
      "normalized": false,
      "special": true
    },
    {
      "id": 111,
      "content": "[EXT_107]",
      "single_word": false,
      "lstrip": false,
      "rstrip": false,
      "normalized": false,
      "special": true
    },
    {
      "id": 112,
      "content": "[EXT_108]",
      "single_word": false,
      "lstrip": false,
      "rstrip": false,
      "normalized": false,
      "special": true
    },
    {
      "id": 113,
      "content": "[EXT_109]",
      "single_word": false,
      "lstrip": false,
      "rstrip": false,
      "normalized": false,
      "special": true
    },
    {
      "id": 114,
      "content": "[EXT_110]",
      "single_word": false,
      "lstrip": false,
      "rstrip": false,
      "normalized": false,
      "special": true
    },
    {
      "id": 115,
      "content": "[EXT_111]",
      "single_word": false,
      "lstrip": false,
      "rstrip": false,
      "normalized": false,
      "special": true
    },
    {
      "id": 116,
      "content": "[EXT_112]",
      "single_word": false,
      "lstrip": false,
      "rstrip": false,
      "normalized": false,
      "special": true
    },
    {
      "id": 117,
      "content": "[EXT_113]",
      "single_word": false,
      "lstrip": false,
      "rstrip": false,
      "normalized": false,
      "special": true
    },
    {
      "id": 118,
      "content": "[EXT_114]",
      "single_word": false,
      "lstrip": false,
      "rstrip": false,
      "normalized": false,
      "special": true
    },
    {
      "id": 119,
      "content": "[EXT_115]",
      "single_word": false,
      "lstrip": false,
      "rstrip": false,
      "normalized": false,
      "special": true
    },
    {
      "id": 120,
      "content": "[EXT_116]",
      "single_word": false,
      "lstrip": false,
      "rstrip": false,
      "normalized": false,
      "special": true
    },
    {
      "id": 121,
      "content": "[EXT_117]",
      "single_word": false,
      "lstrip": false,
      "rstrip": false,
      "normalized": false,
      "special": true
    },
    {
      "id": 122,
      "content": "[EXT_118]",
      "single_word": false,
      "lstrip": false,
      "rstrip": false,
      "normalized": false,
      "special": true
    },
    {
      "id": 123,
      "content": "[EXT_119]",
      "single_word": false,
      "lstrip": false,
      "rstrip": false,
      "normalized": false,
      "special": true
    },
    {
      "id": 124,
      "content": "[EXT_120]",
      "single_word": false,
      "lstrip": false,
      "rstrip": false,
      "normalized": false,
      "special": true
    },
    {
      "id": 125,
      "content": "[EXT_121]",
      "single_word": false,
      "lstrip": false,
      "rstrip": false,
      "normalized": false,
      "special": true
    },
    {
      "id": 126,
      "content": "[EXT_122]",
      "single_word": false,
      "lstrip": false,
      "rstrip": false,
      "normalized": false,
      "special": true
    },
    {
      "id": 127,
      "content": "[EXT_123]",
      "single_word": false,
      "lstrip": false,
      "rstrip": false,
      "normalized": false,
      "special": true
    },
    {
      "id": 128,
      "content": "[EXT_124]",
      "single_word": false,
      "lstrip": false,
      "rstrip": false,
      "normalized": false,
      "special": true
    },
    {
      "id": 129,
      "content": "[EXT_125]",
      "single_word": false,
      "lstrip": false,
      "rstrip": false,
      "normalized": false,
      "special": true
    },
    {
      "id": 130,
      "content": "[EXT_126]",
      "single_word": false,
      "lstrip": false,
      "rstrip": false,
      "normalized": false,
      "special": true
    },
    {
      "id": 131,
      "content": "[EXT_127]",
      "single_word": false,
      "lstrip": false,
      "rstrip": false,
      "normalized": false,
      "special": true
    },
    {
      "id": 132,
      "content": "[EXT_128]",
      "single_word": false,
      "lstrip": false,
      "rstrip": false,
      "normalized": false,
      "special": true
    },
    {
      "id": 133,
      "content": "[EXT_129]",
      "single_word": false,
      "lstrip": false,
      "rstrip": false,
      "normalized": false,
      "special": true
    },
    {
      "id": 134,
      "content": "[EXT_130]",
      "single_word": false,
      "lstrip": false,
      "rstrip": false,
      "normalized": false,
      "special": true
    },
    {
      "id": 135,
      "content": "[EXT_131]",
      "single_word": false,
      "lstrip": false,
      "rstrip": false,
      "normalized": false,
      "special": true
    },
    {
      "id": 136,
      "content": "[EXT_132]",
      "single_word": false,
      "lstrip": false,
      "rstrip": false,
      "normalized": false,
      "special": true
    },
    {
      "id": 137,
      "content": "[EXT_133]",
      "single_word": false,
      "lstrip": false,
      "rstrip": false,
      "normalized": false,
      "special": true
    },
    {
      "id": 138,
      "content": "[EXT_134]",
      "single_word": false,
      "lstrip": false,
      "rstrip": false,
      "normalized": false,
      "special": true
    },
    {
      "id": 139,
      "content": "[EXT_135]",
      "single_word": false,
      "lstrip": false,
      "rstrip": false,
      "normalized": false,
      "special": true
    },
    {
      "id": 140,
      "content": "[EXT_136]",
      "single_word": false,
      "lstrip": false,
      "rstrip": false,
      "normalized": false,
      "special": true
    },
    {
      "id": 141,
      "content": "[EXT_137]",
      "single_word": false,
      "lstrip": false,
      "rstrip": false,
      "normalized": false,
      "special": true
    },
    {
      "id": 142,
      "content": "[EXT_138]",
      "single_word": false,
      "lstrip": false,
      "rstrip": false,
      "normalized": false,
      "special": true
    },
    {
      "id": 143,
      "content": "[EXT_139]",
      "single_word": false,
      "lstrip": false,
      "rstrip": false,
      "normalized": false,
      "special": true
    },
    {
      "id": 144,
      "content": "[EXT_140]",
      "single_word": false,
      "lstrip": false,
      "rstrip": false,
      "normalized": false,
      "special": true
    },
    {
      "id": 145,
      "content": "[EXT_141]",
      "single_word": false,
      "lstrip": false,
      "rstrip": false,
      "normalized": false,
      "special": true
    },
    {
      "id": 146,
      "content": "[EXT_142]",
      "single_word": false,
      "lstrip": false,
      "rstrip": false,
      "normalized": false,
      "special": true
    },
    {
      "id": 147,
      "content": "[EXT_143]",
      "single_word": false,
      "lstrip": false,
      "rstrip": false,
      "normalized": false,
      "special": true
    },
    {
      "id": 148,
      "content": "[EXT_144]",
      "single_word": false,
      "lstrip": false,
      "rstrip": false,
      "normalized": false,
      "special": true
    },
    {
      "id": 149,
      "content": "[EXT_145]",
      "single_word": false,
      "lstrip": false,
      "rstrip": false,
      "normalized": false,
      "special": true
    },
    {
      "id": 150,
      "content": "[EXT_146]",
      "single_word": false,
      "lstrip": false,
      "rstrip": false,
      "normalized": false,
      "special": true
    },
    {
      "id": 151,
      "content": "[EXT_147]",
      "single_word": false,
      "lstrip": false,
      "rstrip": false,
      "normalized": false,
      "special": true
    },
    {
      "id": 152,
      "content": "[EXT_148]",
      "single_word": false,
      "lstrip": false,
      "rstrip": false,
      "normalized": false,
      "special": true
    },
    {
      "id": 153,
      "content": "[EXT_149]",
      "single_word": false,
      "lstrip": false,
      "rstrip": false,
      "normalized": false,
      "special": true
    },
    {
      "id": 154,
      "content": "[EXT_150]",
      "single_word": false,
      "lstrip": false,
      "rstrip": false,
      "normalized": false,
      "special": true
    },
    {
      "id": 155,
      "content": "[EXT_151]",
      "single_word": false,
      "lstrip": false,
      "rstrip": false,
      "normalized": false,
      "special": true
    },
    {
      "id": 156,
      "content": "[EXT_152]",
      "single_word": false,
      "lstrip": false,
      "rstrip": false,
      "normalized": false,
      "special": true
    },
    {
      "id": 157,
      "content": "[EXT_153]",
      "single_word": false,
      "lstrip": false,
      "rstrip": false,
      "normalized": false,
      "special": true
    },
    {
      "id": 158,
      "content": "[EXT_154]",
      "single_word": false,
      "lstrip": false,
      "rstrip": false,
      "normalized": false,
      "special": true
    },
    {
      "id": 159,
      "content": "[EXT_155]",
      "single_word": false,
      "lstrip": false,
      "rstrip": false,
      "normalized": false,
      "special": true
    },
    {
      "id": 160,
      "content": "[EXT_156]",
      "single_word": false,
      "lstrip": false,
      "rstrip": false,
      "normalized": false,
      "special": true
    },
    {
      "id": 161,
      "content": "[EXT_157]",
      "single_word": false,
      "lstrip": false,
      "rstrip": false,
      "normalized": false,
      "special": true
    },
    {
      "id": 162,
      "content": "[EXT_158]",
      "single_word": false,
      "lstrip": false,
      "rstrip": false,
      "normalized": false,
      "special": true
    },
    {
      "id": 163,
      "content": "[EXT_159]",
      "single_word": false,
      "lstrip": false,
      "rstrip": false,
      "normalized": false,
      "special": true
    },
    {
      "id": 164,
      "content": "[EXT_160]",
      "single_word": false,
      "lstrip": false,
      "rstrip": false,
      "normalized": false,
      "special": true
    },
    {
      "id": 165,
      "content": "[EXT_161]",
      "single_word": false,
      "lstrip": false,
      "rstrip": false,
      "normalized": false,
      "special": true
    },
    {
      "id": 166,
      "content": "[EXT_162]",
      "single_word": false,
      "lstrip": false,
      "rstrip": false,
      "normalized": false,
      "special": true
    },
    {
      "id": 167,
      "content": "[EXT_163]",
      "single_word": false,
      "lstrip": false,
      "rstrip": false,
      "normalized": false,
      "special": true
    },
    {
      "id": 168,
      "content": "[EXT_164]",
      "single_word": false,
      "lstrip": false,
      "rstrip": false,
      "normalized": false,
      "special": true
    },
    {
      "id": 169,
      "content": "[EXT_165]",
      "single_word": false,
      "lstrip": false,
      "rstrip": false,
      "normalized": false,
      "special": true
    },
    {
      "id": 170,
      "content": "[EXT_166]",
      "single_word": false,
      "lstrip": false,
      "rstrip": false,
      "normalized": false,
      "special": true
    },
    {
      "id": 171,
      "content": "[EXT_167]",
      "single_word": false,
      "lstrip": false,
      "rstrip": false,
      "normalized": false,
      "special": true
    },
    {
      "id": 172,
      "content": "[EXT_168]",
      "single_word": false,
      "lstrip": false,
      "rstrip": false,
      "normalized": false,
      "special": true
    },
    {
      "id": 173,
      "content": "[EXT_169]",
      "single_word": false,
      "lstrip": false,
      "rstrip": false,
      "normalized": false,
      "special": true
    },
    {
      "id": 174,
      "content": "[EXT_170]",
      "single_word": false,
      "lstrip": false,
      "rstrip": false,
      "normalized": false,
      "special": true
    },
    {
      "id": 175,
      "content": "[EXT_171]",
      "single_word": false,
      "lstrip": false,
      "rstrip": false,
      "normalized": false,
      "special": true
    },
    {
      "id": 176,
      "content": "[EXT_172]",
      "single_word": false,
      "lstrip": false,
      "rstrip": false,
      "normalized": false,
      "special": true
    },
    {
      "id": 177,
      "content": "[EXT_173]",
      "single_word": false,
      "lstrip": false,
      "rstrip": false,
      "normalized": false,
      "special": true
    },
    {
      "id": 178,
      "content": "[EXT_174]",
      "single_word": false,
      "lstrip": false,
      "rstrip": false,
      "normalized": false,
      "special": true
    },
    {
      "id": 179,
      "content": "[EXT_175]",
      "single_word": false,
      "lstrip": false,
      "rstrip": false,
      "normalized": false,
      "special": true
    },
    {
      "id": 180,
      "content": "[EXT_176]",
      "single_word": false,
      "lstrip": false,
      "rstrip": false,
      "normalized": false,
      "special": true
    },
    {
      "id": 181,
      "content": "[EXT_177]",
      "single_word": false,
      "lstrip": false,
      "rstrip": false,
      "normalized": false,
      "special": true
    },
    {
      "id": 182,
      "content": "[EXT_178]",
      "single_word": false,
      "lstrip": false,
      "rstrip": false,
      "normalized": false,
      "special": true
    },
    {
      "id": 183,
      "content": "[EXT_179]",
      "single_word": false,
      "lstrip": false,
      "rstrip": false,
      "normalized": false,
      "special": true
    },
    {
      "id": 184,
      "content": "[EXT_180]",
      "single_word": false,
      "lstrip": false,
      "rstrip": false,
      "normalized": false,
      "special": true
    },
    {
      "id": 185,
      "content": "[EXT_181]",
      "single_word": false,
      "lstrip": false,
      "rstrip": false,
      "normalized": false,
      "special": true
    },
    {
      "id": 186,
      "content": "[EXT_182]",
      "single_word": false,
      "lstrip": false,
      "rstrip": false,
      "normalized": false,
      "special": true
    },
    {
      "id": 187,
      "content": "[EXT_183]",
      "single_word": false,
      "lstrip": false,
      "rstrip": false,
      "normalized": false,
      "special": true
    },
    {
      "id": 188,
      "content": "[EXT_184]",
      "single_word": false,
      "lstrip": false,
      "rstrip": false,
      "normalized": false,
      "special": true
    },
    {
      "id": 189,
      "content": "[EXT_185]",
      "single_word": false,
      "lstrip": false,
      "rstrip": false,
      "normalized": false,
      "special": true
    },
    {
      "id": 190,
      "content": "[EXT_186]",
      "single_word": false,
      "lstrip": false,
      "rstrip": false,
      "normalized": false,
      "special": true
    },
    {
      "id": 191,
      "content": "[EXT_187]",
      "single_word": false,
      "lstrip": false,
      "rstrip": false,
      "normalized": false,
      "special": true
    },
    {
      "id": 192,
      "content": "[EXT_188]",
      "single_word": false,
      "lstrip": false,
      "rstrip": false,
      "normalized": false,
      "special": true
    },
    {
      "id": 193,
      "content": "[EXT_189]",
      "single_word": false,
      "lstrip": false,
      "rstrip": false,
      "normalized": false,
      "special": true
    },
    {
      "id": 194,
      "content": "[EXT_190]",
      "single_word": false,
      "lstrip": false,
      "rstrip": false,
      "normalized": false,
      "special": true
    },
    {
      "id": 195,
      "content": "[EXT_191]",
      "single_word": false,
      "lstrip": false,
      "rstrip": false,
      "normalized": false,
      "special": true
    },
    {
      "id": 196,
      "content": "[EXT_192]",
      "single_word": false,
      "lstrip": false,
      "rstrip": false,
      "normalized": false,
      "special": true
    },
    {
      "id": 197,
      "content": "[EXT_193]",
      "single_word": false,
      "lstrip": false,
      "rstrip": false,
      "normalized": false,
      "special": true
    },
    {
      "id": 198,
      "content": "[EXT_194]",
      "single_word": false,
      "lstrip": false,
      "rstrip": false,
      "normalized": false,
      "special": true
    },
    {
      "id": 199,
      "content": "[EXT_195]",
      "single_word": false,
      "lstrip": false,
      "rstrip": false,
      "normalized": false,
      "special": true
    },
    {
      "id": 200,
      "content": "[EXT_196]",
      "single_word": false,
      "lstrip": false,
      "rstrip": false,
      "normalized": false,
      "special": true
    },
    {
      "id": 201,
      "content": "[EXT_197]",
      "single_word": false,
      "lstrip": false,
      "rstrip": false,
      "normalized": false,
      "special": true
    },
    {
      "id": 202,
      "content": "[EXT_198]",
      "single_word": false,
      "lstrip": false,
      "rstrip": false,
      "normalized": false,
      "special": true
    },
    {
      "id": 203,
      "content": "[EXT_199]",
      "single_word": false,
      "lstrip": false,
      "rstrip": false,
      "normalized": false,
      "special": true
    },
    {
      "id": 204,
      "content": "[EXT_200]",
      "single_word": false,
      "lstrip": false,
      "rstrip": false,
      "normalized": false,
      "special": true
    },
    {
      "id": 205,
      "content": "[EXT_201]",
      "single_word": false,
      "lstrip": false,
      "rstrip": false,
      "normalized": false,
      "special": true
    },
    {
      "id": 206,
      "content": "[EXT_202]",
      "single_word": false,
      "lstrip": false,
      "rstrip": false,
      "normalized": false,
      "special": true
    },
    {
      "id": 207,
      "content": "[EXT_203]",
      "single_word": false,
      "lstrip": false,
      "rstrip": false,
      "normalized": false,
      "special": true
    },
    {
      "id": 208,
      "content": "[EXT_204]",
      "single_word": false,
      "lstrip": false,
      "rstrip": false,
      "normalized": false,
      "special": true
    },
    {
      "id": 209,
      "content": "[EXT_205]",
      "single_word": false,
      "lstrip": false,
      "rstrip": false,
      "normalized": false,
      "special": true
    },
    {
      "id": 210,
      "content": "[EXT_206]",
      "single_word": false,
      "lstrip": false,
      "rstrip": false,
      "normalized": false,
      "special": true
    },
    {
      "id": 211,
      "content": "[EXT_207]",
      "single_word": false,
      "lstrip": false,
      "rstrip": false,
      "normalized": false,
      "special": true
    },
    {
      "id": 212,
      "content": "[EXT_208]",
      "single_word": false,
      "lstrip": false,
      "rstrip": false,
      "normalized": false,
      "special": true
    },
    {
      "id": 213,
      "content": "[EXT_209]",
      "single_word": false,
      "lstrip": false,
      "rstrip": false,
      "normalized": false,
      "special": true
    },
    {
      "id": 214,
      "content": "[EXT_210]",
      "single_word": false,
      "lstrip": false,
      "rstrip": false,
      "normalized": false,
      "special": true
    },
    {
      "id": 215,
      "content": "[EXT_211]",
      "single_word": false,
      "lstrip": false,
      "rstrip": false,
      "normalized": false,
      "special": true
    },
    {
      "id": 216,
      "content": "[EXT_212]",
      "single_word": false,
      "lstrip": false,
      "rstrip": false,
      "normalized": false,
      "special": true
    },
    {
      "id": 217,
      "content": "[EXT_213]",
      "single_word": false,
      "lstrip": false,
      "rstrip": false,
      "normalized": false,
      "special": true
    },
    {
      "id": 218,
      "content": "[EXT_214]",
      "single_word": false,
      "lstrip": false,
      "rstrip": false,
      "normalized": false,
      "special": true
    },
    {
      "id": 219,
      "content": "[EXT_215]",
      "single_word": false,
      "lstrip": false,
      "rstrip": false,
      "normalized": false,
      "special": true
    },
    {
      "id": 220,
      "content": "[EXT_216]",
      "single_word": false,
      "lstrip": false,
      "rstrip": false,
      "normalized": false,
      "special": true
    },
    {
      "id": 221,
      "content": "[EXT_217]",
      "single_word": false,
      "lstrip": false,
      "rstrip": false,
      "normalized": false,
      "special": true
    },
    {
      "id": 222,
      "content": "[EXT_218]",
      "single_word": false,
      "lstrip": false,
      "rstrip": false,
      "normalized": false,
      "special": true
    },
    {
      "id": 223,
      "content": "[EXT_219]",
      "single_word": false,
      "lstrip": false,
      "rstrip": false,
      "normalized": false,
      "special": true
    },
    {
      "id": 224,
      "content": "[EXT_220]",
      "single_word": false,
      "lstrip": false,
      "rstrip": false,
      "normalized": false,
      "special": true
    },
    {
      "id": 225,
      "content": "[EXT_221]",
      "single_word": false,
      "lstrip": false,
      "rstrip": false,
      "normalized": false,
      "special": true
    },
    {
      "id": 226,
      "content": "[EXT_222]",
      "single_word": false,
      "lstrip": false,
      "rstrip": false,
      "normalized": false,
      "special": true
    },
    {
      "id": 227,
      "content": "[EXT_223]",
      "single_word": false,
      "lstrip": false,
      "rstrip": false,
      "normalized": false,
      "special": true
    },
    {
      "id": 228,
      "content": "[EXT_224]",
      "single_word": false,
      "lstrip": false,
      "rstrip": false,
      "normalized": false,
      "special": true
    },
    {
      "id": 229,
      "content": "[EXT_225]",
      "single_word": false,
      "lstrip": false,
      "rstrip": false,
      "normalized": false,
      "special": true
    },
    {
      "id": 230,
      "content": "[EXT_226]",
      "single_word": false,
      "lstrip": false,
      "rstrip": false,
      "normalized": false,
      "special": true
    },
    {
      "id": 231,
      "content": "[EXT_227]",
      "single_word": false,
      "lstrip": false,
      "rstrip": false,
      "normalized": false,
      "special": true
    },
    {
      "id": 232,
      "content": "[EXT_228]",
      "single_word": false,
      "lstrip": false,
      "rstrip": false,
      "normalized": false,
      "special": true
    },
    {
      "id": 233,
      "content": "[EXT_229]",
      "single_word": false,
      "lstrip": false,
      "rstrip": false,
      "normalized": false,
      "special": true
    },
    {
      "id": 234,
      "content": "[EXT_230]",
      "single_word": false,
      "lstrip": false,
      "rstrip": false,
      "normalized": false,
      "special": true
    },
    {
      "id": 235,
      "content": "[EXT_231]",
      "single_word": false,
      "lstrip": false,
      "rstrip": false,
      "normalized": false,
      "special": true
    },
    {
      "id": 236,
      "content": "[EXT_232]",
      "single_word": false,
      "lstrip": false,
      "rstrip": false,
      "normalized": false,
      "special": true
    },
    {
      "id": 237,
      "content": "[EXT_233]",
      "single_word": false,
      "lstrip": false,
      "rstrip": false,
      "normalized": false,
      "special": true
    },
    {
      "id": 238,
      "content": "[EXT_234]",
      "single_word": false,
      "lstrip": false,
      "rstrip": false,
      "normalized": false,
      "special": true
    },
    {
      "id": 239,
      "content": "[EXT_235]",
      "single_word": false,
      "lstrip": false,
      "rstrip": false,
      "normalized": false,
      "special": true
    },
    {
      "id": 240,
      "content": "[EXT_236]",
      "single_word": false,
      "lstrip": false,
      "rstrip": false,
      "normalized": false,
      "special": true
    },
    {
      "id": 241,
      "content": "[EXT_237]",
      "single_word": false,
      "lstrip": false,
      "rstrip": false,
      "normalized": false,
      "special": true
    },
    {
      "id": 242,
      "content": "[EXT_238]",
      "single_word": false,
      "lstrip": false,
      "rstrip": false,
      "normalized": false,
      "special": true
    },
    {
      "id": 243,
      "content": "[EXT_239]",
      "single_word": false,
      "lstrip": false,
      "rstrip": false,
      "normalized": false,
      "special": true
    },
    {
      "id": 244,
      "content": "[EXT_240]",
      "single_word": false,
      "lstrip": false,
      "rstrip": false,
      "normalized": false,
      "special": true
    },
    {
      "id": 245,
      "content": "[EXT_241]",
      "single_word": false,
      "lstrip": false,
      "rstrip": false,
      "normalized": false,
      "special": true
    },
    {
      "id": 246,
      "content": "[EXT_242]",
      "single_word": false,
      "lstrip": false,
      "rstrip": false,
      "normalized": false,
      "special": true
    },
    {
      "id": 247,
      "content": "[EXT_243]",
      "single_word": false,
      "lstrip": false,
      "rstrip": false,
      "normalized": false,
      "special": true
    },
    {
      "id": 248,
      "content": "[EXT_244]",
      "single_word": false,
      "lstrip": false,
      "rstrip": false,
      "normalized": false,
      "special": true
    },
    {
      "id": 249,
      "content": "[EXT_245]",
      "single_word": false,
      "lstrip": false,
      "rstrip": false,
      "normalized": false,
      "special": true
    },
    {
      "id": 250,
      "content": "[EXT_246]",
      "single_word": false,
      "lstrip": false,
      "rstrip": false,
      "normalized": false,
      "special": true
    },
    {
      "id": 251,
      "content": "[EXT_247]",
      "single_word": false,
      "lstrip": false,
      "rstrip": false,
      "normalized": false,
      "special": true
    },
    {
      "id": 252,
      "content": "[EXT_248]",
      "single_word": false,
      "lstrip": false,
      "rstrip": false,
      "normalized": false,
      "special": true
    },
    {
      "id": 253,
      "content": "[EXT_249]",
      "single_word": false,
      "lstrip": false,
      "rstrip": false,
      "normalized": false,
      "special": true
    },
    {
      "id": 254,
      "content": "[EXT_250]",
      "single_word": false,
      "lstrip": false,
      "rstrip": false,
      "normalized": false,
      "special": true
    },
    {
      "id": 255,
      "content": "[EXT_251]",
      "single_word": false,
      "lstrip": false,
      "rstrip": false,
      "normalized": false,
      "special": true
    },
    {
      "id": 256,
      "content": "[EXT_252]",
      "single_word": false,
      "lstrip": false,
      "rstrip": false,
      "normalized": false,
      "special": true
    },
    {
      "id": 257,
      "content": "[EXT_253]",
      "single_word": false,
      "lstrip": false,
      "rstrip": false,
      "normalized": false,
      "special": true
    },
    {
      "id": 258,
      "content": "[EXT_254]",
      "single_word": false,
      "lstrip": false,
      "rstrip": false,
      "normalized": false,
      "special": true
    },
    {
      "id": 259,
      "content": "[EXT_255]",
      "single_word": false,
      "lstrip": false,
      "rstrip": false,
      "normalized": false,
      "special": true
    },
    {
      "id": 260,
      "content": "[EXT_256]",
      "single_word": false,
      "lstrip": false,
      "rstrip": false,
      "normalized": false,
      "special": true
    },
    {
      "id": 261,
      "content": "[EXT_257]",
      "single_word": false,
      "lstrip": false,
      "rstrip": false,
      "normalized": false,
      "special": true
    },
    {
      "id": 262,
      "content": "[EXT_258]",
      "single_word": false,
      "lstrip": false,
      "rstrip": false,
      "normalized": false,
      "special": true
    },
    {
      "id": 263,
      "content": "[EXT_259]",
      "single_word": false,
      "lstrip": false,
      "rstrip": false,
      "normalized": false,
      "special": true
    },
    {
      "id": 264,
      "content": "[EXT_260]",
      "single_word": false,
      "lstrip": false,
      "rstrip": false,
      "normalized": false,
      "special": true
    },
    {
      "id": 265,
      "content": "[EXT_261]",
      "single_word": false,
      "lstrip": false,
      "rstrip": false,
      "normalized": false,
      "special": true
    },
    {
      "id": 266,
      "content": "[EXT_262]",
      "single_word": false,
      "lstrip": false,
      "rstrip": false,
      "normalized": false,
      "special": true
    },
    {
      "id": 267,
      "content": "[EXT_263]",
      "single_word": false,
      "lstrip": false,
      "rstrip": false,
      "normalized": false,
      "special": true
    },
    {
      "id": 268,
      "content": "[EXT_264]",
      "single_word": false,
      "lstrip": false,
      "rstrip": false,
      "normalized": false,
      "special": true
    },
    {
      "id": 269,
      "content": "[EXT_265]",
      "single_word": false,
      "lstrip": false,
      "rstrip": false,
      "normalized": false,
      "special": true
    },
    {
      "id": 270,
      "content": "[EXT_266]",
      "single_word": false,
      "lstrip": false,
      "rstrip": false,
      "normalized": false,
      "special": true
    },
    {
      "id": 271,
      "content": "[EXT_267]",
      "single_word": false,
      "lstrip": false,
      "rstrip": false,
      "normalized": false,
      "special": true
    },
    {
      "id": 272,
      "content": "[EXT_268]",
      "single_word": false,
      "lstrip": false,
      "rstrip": false,
      "normalized": false,
      "special": true
    },
    {
      "id": 273,
      "content": "[EXT_269]",
      "single_word": false,
      "lstrip": false,
      "rstrip": false,
      "normalized": false,
      "special": true
    },
    {
      "id": 274,
      "content": "[EXT_270]",
      "single_word": false,
      "lstrip": false,
      "rstrip": false,
      "normalized": false,
      "special": true
    },
    {
      "id": 275,
      "content": "[EXT_271]",
      "single_word": false,
      "lstrip": false,
      "rstrip": false,
      "normalized": false,
      "special": true
    },
    {
      "id": 276,
      "content": "[EXT_272]",
      "single_word": false,
      "lstrip": false,
      "rstrip": false,
      "normalized": false,
      "special": true
    },
    {
      "id": 277,
      "content": "[EXT_273]",
      "single_word": false,
      "lstrip": false,
      "rstrip": false,
      "normalized": false,
      "special": true
    },
    {
      "id": 278,
      "content": "[EXT_274]",
      "single_word": false,
      "lstrip": false,
      "rstrip": false,
      "normalized": false,
      "special": true
    },
    {
      "id": 279,
      "content": "[EXT_275]",
      "single_word": false,
      "lstrip": false,
      "rstrip": false,
      "normalized": false,
      "special": true
    },
    {
      "id": 280,
      "content": "[EXT_276]",
      "single_word": false,
      "lstrip": false,
      "rstrip": false,
      "normalized": false,
      "special": true
    },
    {
      "id": 281,
      "content": "[EXT_277]",
      "single_word": false,
      "lstrip": false,
      "rstrip": false,
      "normalized": false,
      "special": true
    },
    {
      "id": 282,
      "content": "[EXT_278]",
      "single_word": false,
      "lstrip": false,
      "rstrip": false,
      "normalized": false,
      "special": true
    },
    {
      "id": 283,
      "content": "[EXT_279]",
      "single_word": false,
      "lstrip": false,
      "rstrip": false,
      "normalized": false,
      "special": true
    },
    {
      "id": 284,
      "content": "[EXT_280]",
      "single_word": false,
      "lstrip": false,
      "rstrip": false,
      "normalized": false,
      "special": true
    },
    {
      "id": 285,
      "content": "[EXT_281]",
      "single_word": false,
      "lstrip": false,
      "rstrip": false,
      "normalized": false,
      "special": true
    },
    {
      "id": 286,
      "content": "[EXT_282]",
      "single_word": false,
      "lstrip": false,
      "rstrip": false,
      "normalized": false,
      "special": true
    },
    {
      "id": 287,
      "content": "[EXT_283]",
      "single_word": false,
      "lstrip": false,
      "rstrip": false,
      "normalized": false,
      "special": true
    },
    {
      "id": 288,
      "content": "[EXT_284]",
      "single_word": false,
      "lstrip": false,
      "rstrip": false,
      "normalized": false,
      "special": true
    },
    {
      "id": 289,
      "content": "[EXT_285]",
      "single_word": false,
      "lstrip": false,
      "rstrip": false,
      "normalized": false,
      "special": true
    },
    {
      "id": 290,
      "content": "[EXT_286]",
      "single_word": false,
      "lstrip": false,
      "rstrip": false,
      "normalized": false,
      "special": true
    },
    {
      "id": 291,
      "content": "[EXT_287]",
      "single_word": false,
      "lstrip": false,
      "rstrip": false,
      "normalized": false,
      "special": true
    },
    {
      "id": 292,
      "content": "[EXT_288]",
      "single_word": false,
      "lstrip": false,
      "rstrip": false,
      "normalized": false,
      "special": true
    },
    {
      "id": 293,
      "content": "[EXT_289]",
      "single_word": false,
      "lstrip": false,
      "rstrip": false,
      "normalized": false,
      "special": true
    },
    {
      "id": 294,
      "content": "[EXT_290]",
      "single_word": false,
      "lstrip": false,
      "rstrip": false,
      "normalized": false,
      "special": true
    },
    {
      "id": 295,
      "content": "[EXT_291]",
      "single_word": false,
      "lstrip": false,
      "rstrip": false,
      "normalized": false,
      "special": true
    },
    {
      "id": 296,
      "content": "[EXT_292]",
      "single_word": false,
      "lstrip": false,
      "rstrip": false,
      "normalized": false,
      "special": true
    },
    {
      "id": 297,
      "content": "[EXT_293]",
      "single_word": false,
      "lstrip": false,
      "rstrip": false,
      "normalized": false,
      "special": true
    },
    {
      "id": 298,
      "content": "[EXT_294]",
      "single_word": false,
      "lstrip": false,
      "rstrip": false,
      "normalized": false,
      "special": true
    },
    {
      "id": 299,
      "content": "[EXT_295]",
      "single_word": false,
      "lstrip": false,
      "rstrip": false,
      "normalized": false,
      "special": true
    },
    {
      "id": 300,
      "content": "[EXT_296]",
      "single_word": false,
      "lstrip": false,
      "rstrip": false,
      "normalized": false,
      "special": true
    },
    {
      "id": 301,
      "content": "[EXT_297]",
      "single_word": false,
      "lstrip": false,
      "rstrip": false,
      "normalized": false,
      "special": true
    },
    {
      "id": 302,
      "content": "[EXT_298]",
      "single_word": false,
      "lstrip": false,
      "rstrip": false,
      "normalized": false,
      "special": true
    },
    {
      "id": 303,
      "content": "[EXT_299]",
      "single_word": false,
      "lstrip": false,
      "rstrip": false,
      "normalized": false,
      "special": true
    },
    {
      "id": 304,
      "content": "[EXT_300]",
      "single_word": false,
      "lstrip": false,
      "rstrip": false,
      "normalized": false,
      "special": true
    },
    {
      "id": 305,
      "content": "[EXT_301]",
      "single_word": false,
      "lstrip": false,
      "rstrip": false,
      "normalized": false,
      "special": true
    },
    {
      "id": 306,
      "content": "[EXT_302]",
      "single_word": false,
      "lstrip": false,
      "rstrip": false,
      "normalized": false,
      "special": true
    },
    {
      "id": 307,
      "content": "[EXT_303]",
      "single_word": false,
      "lstrip": false,
      "rstrip": false,
      "normalized": false,
      "special": true
    },
    {
      "id": 308,
      "content": "[EXT_304]",
      "single_word": false,
      "lstrip": false,
      "rstrip": false,
      "normalized": false,
      "special": true
    },
    {
      "id": 309,
      "content": "[EXT_305]",
      "single_word": false,
      "lstrip": false,
      "rstrip": false,
      "normalized": false,
      "special": true
    },
    {
      "id": 310,
      "content": "[EXT_306]",
      "single_word": false,
      "lstrip": false,
      "rstrip": false,
      "normalized": false,
      "special": true
    },
    {
      "id": 311,
      "content": "[EXT_307]",
      "single_word": false,
      "lstrip": false,
      "rstrip": false,
      "normalized": false,
      "special": true
    },
    {
      "id": 312,
      "content": "[EXT_308]",
      "single_word": false,
      "lstrip": false,
      "rstrip": false,
      "normalized": false,
      "special": true
    },
    {
      "id": 313,
      "content": "[EXT_309]",
      "single_word": false,
      "lstrip": false,
      "rstrip": false,
      "normalized": false,
      "special": true
    },
    {
      "id": 314,
      "content": "[EXT_310]",
      "single_word": false,
      "lstrip": false,
      "rstrip": false,
      "normalized": false,
      "special": true
    },
    {
      "id": 315,
      "content": "[EXT_311]",
      "single_word": false,
      "lstrip": false,
      "rstrip": false,
      "normalized": false,
      "special": true
    },
    {
      "id": 316,
      "content": "[EXT_312]",
      "single_word": false,
      "lstrip": false,
      "rstrip": false,
      "normalized": false,
      "special": true
    },
    {
      "id": 317,
      "content": "[EXT_313]",
      "single_word": false,
      "lstrip": false,
      "rstrip": false,
      "normalized": false,
      "special": true
    },
    {
      "id": 318,
      "content": "[EXT_314]",
      "single_word": false,
      "lstrip": false,
      "rstrip": false,
      "normalized": false,
      "special": true
    },
    {
      "id": 319,
      "content": "[EXT_315]",
      "single_word": false,
      "lstrip": false,
      "rstrip": false,
      "normalized": false,
      "special": true
    },
    {
      "id": 320,
      "content": "[EXT_316]",
      "single_word": false,
      "lstrip": false,
      "rstrip": false,
      "normalized": false,
      "special": true
    },
    {
      "id": 321,
      "content": "[EXT_317]",
      "single_word": false,
      "lstrip": false,
      "rstrip": false,
      "normalized": false,
      "special": true
    },
    {
      "id": 322,
      "content": "[EXT_318]",
      "single_word": false,
      "lstrip": false,
      "rstrip": false,
      "normalized": false,
      "special": true
    },
    {
      "id": 323,
      "content": "[EXT_319]",
      "single_word": false,
      "lstrip": false,
      "rstrip": false,
      "normalized": false,
      "special": true
    },
    {
      "id": 324,
      "content": "[EXT_320]",
      "single_word": false,
      "lstrip": false,
      "rstrip": false,
      "normalized": false,
      "special": true
    },
    {
      "id": 325,
      "content": "[EXT_321]",
      "single_word": false,
      "lstrip": false,
      "rstrip": false,
      "normalized": false,
      "special": true
    },
    {
      "id": 326,
      "content": "[EXT_322]",
      "single_word": false,
      "lstrip": false,
      "rstrip": false,
      "normalized": false,
      "special": true
    },
    {
      "id": 327,
      "content": "[EXT_323]",
      "single_word": false,
      "lstrip": false,
      "rstrip": false,
      "normalized": false,
      "special": true
    },
    {
      "id": 328,
      "content": "[EXT_324]",
      "single_word": false,
      "lstrip": false,
      "rstrip": false,
      "normalized": false,
      "special": true
    },
    {
      "id": 329,
      "content": "[EXT_325]",
      "single_word": false,
      "lstrip": false,
      "rstrip": false,
      "normalized": false,
      "special": true
    },
    {
      "id": 330,
      "content": "[EXT_326]",
      "single_word": false,
      "lstrip": false,
      "rstrip": false,
      "normalized": false,
      "special": true
    },
    {
      "id": 331,
      "content": "[EXT_327]",
      "single_word": false,
      "lstrip": false,
      "rstrip": false,
      "normalized": false,
      "special": true
    },
    {
      "id": 332,
      "content": "[EXT_328]",
      "single_word": false,
      "lstrip": false,
      "rstrip": false,
      "normalized": false,
      "special": true
    },
    {
      "id": 333,
      "content": "[EXT_329]",
      "single_word": false,
      "lstrip": false,
      "rstrip": false,
      "normalized": false,
      "special": true
    },
    {
      "id": 334,
      "content": "[EXT_330]",
      "single_word": false,
      "lstrip": false,
      "rstrip": false,
      "normalized": false,
      "special": true
    },
    {
      "id": 335,
      "content": "[EXT_331]",
      "single_word": false,
      "lstrip": false,
      "rstrip": false,
      "normalized": false,
      "special": true
    },
    {
      "id": 336,
      "content": "[EXT_332]",
      "single_word": false,
      "lstrip": false,
      "rstrip": false,
      "normalized": false,
      "special": true
    },
    {
      "id": 337,
      "content": "[EXT_333]",
      "single_word": false,
      "lstrip": false,
      "rstrip": false,
      "normalized": false,
      "special": true
    },
    {
      "id": 338,
      "content": "[EXT_334]",
      "single_word": false,
      "lstrip": false,
      "rstrip": false,
      "normalized": false,
      "special": true
    },
    {
      "id": 339,
      "content": "[EXT_335]",
      "single_word": false,
      "lstrip": false,
      "rstrip": false,
      "normalized": false,
      "special": true
    },
    {
      "id": 340,
      "content": "[EXT_336]",
      "single_word": false,
      "lstrip": false,
      "rstrip": false,
      "normalized": false,
      "special": true
    },
    {
      "id": 341,
      "content": "[EXT_337]",
      "single_word": false,
      "lstrip": false,
      "rstrip": false,
      "normalized": false,
      "special": true
    },
    {
      "id": 342,
      "content": "[EXT_338]",
      "single_word": false,
      "lstrip": false,
      "rstrip": false,
      "normalized": false,
      "special": true
    },
    {
      "id": 343,
      "content": "[EXT_339]",
      "single_word": false,
      "lstrip": false,
      "rstrip": false,
      "normalized": false,
      "special": true
    },
    {
      "id": 344,
      "content": "[EXT_340]",
      "single_word": false,
      "lstrip": false,
      "rstrip": false,
      "normalized": false,
      "special": true
    },
    {
      "id": 345,
      "content": "[EXT_341]",
      "single_word": false,
      "lstrip": false,
      "rstrip": false,
      "normalized": false,
      "special": true
    },
    {
      "id": 346,
      "content": "[EXT_342]",
      "single_word": false,
      "lstrip": false,
      "rstrip": false,
      "normalized": false,
      "special": true
    },
    {
      "id": 347,
      "content": "[EXT_343]",
      "single_word": false,
      "lstrip": false,
      "rstrip": false,
      "normalized": false,
      "special": true
    },
    {
      "id": 348,
      "content": "[EXT_344]",
      "single_word": false,
      "lstrip": false,
      "rstrip": false,
      "normalized": false,
      "special": true
    },
    {
      "id": 349,
      "content": "[EXT_345]",
      "single_word": false,
      "lstrip": false,
      "rstrip": false,
      "normalized": false,
      "special": true
    },
    {
      "id": 350,
      "content": "[EXT_346]",
      "single_word": false,
      "lstrip": false,
      "rstrip": false,
      "normalized": false,
      "special": true
    },
    {
      "id": 351,
      "content": "[EXT_347]",
      "single_word": false,
      "lstrip": false,
      "rstrip": false,
      "normalized": false,
      "special": true
    },
    {
      "id": 352,
      "content": "[EXT_348]",
      "single_word": false,
      "lstrip": false,
      "rstrip": false,
      "normalized": false,
      "special": true
    },
    {
      "id": 353,
      "content": "[EXT_349]",
      "single_word": false,
      "lstrip": false,
      "rstrip": false,
      "normalized": false,
      "special": true
    },
    {
      "id": 354,
      "content": "[EXT_350]",
      "single_word": false,
      "lstrip": false,
      "rstrip": false,
      "normalized": false,
      "special": true
    },
    {
      "id": 355,
      "content": "[EXT_351]",
      "single_word": false,
      "lstrip": false,
      "rstrip": false,
      "normalized": false,
      "special": true
    },
    {
      "id": 356,
      "content": "[EXT_352]",
      "single_word": false,
      "lstrip": false,
      "rstrip": false,
      "normalized": false,
      "special": true
    },
    {
      "id": 357,
      "content": "[EXT_353]",
      "single_word": false,
      "lstrip": false,
      "rstrip": false,
      "normalized": false,
      "special": true
    },
    {
      "id": 358,
      "content": "[EXT_354]",
      "single_word": false,
      "lstrip": false,
      "rstrip": false,
      "normalized": false,
      "special": true
    },
    {
      "id": 359,
      "content": "[EXT_355]",
      "single_word": false,
      "lstrip": false,
      "rstrip": false,
      "normalized": false,
      "special": true
    },
    {
      "id": 360,
      "content": "[EXT_356]",
      "single_word": false,
      "lstrip": false,
      "rstrip": false,
      "normalized": false,
      "special": true
    },
    {
      "id": 361,
      "content": "[EXT_357]",
      "single_word": false,
      "lstrip": false,
      "rstrip": false,
      "normalized": false,
      "special": true
    },
    {
      "id": 362,
      "content": "[EXT_358]",
      "single_word": false,
      "lstrip": false,
      "rstrip": false,
      "normalized": false,
      "special": true
    },
    {
      "id": 363,
      "content": "[EXT_359]",
      "single_word": false,
      "lstrip": false,
      "rstrip": false,
      "normalized": false,
      "special": true
    },
    {
      "id": 364,
      "content": "[EXT_360]",
      "single_word": false,
      "lstrip": false,
      "rstrip": false,
      "normalized": false,
      "special": true
    },
    {
      "id": 365,
      "content": "[EXT_361]",
      "single_word": false,
      "lstrip": false,
      "rstrip": false,
      "normalized": false,
      "special": true
    },
    {
      "id": 366,
      "content": "[EXT_362]",
      "single_word": false,
      "lstrip": false,
      "rstrip": false,
      "normalized": false,
      "special": true
    },
    {
      "id": 367,
      "content": "[EXT_363]",
      "single_word": false,
      "lstrip": false,
      "rstrip": false,
      "normalized": false,
      "special": true
    },
    {
      "id": 368,
      "content": "[EXT_364]",
      "single_word": false,
      "lstrip": false,
      "rstrip": false,
      "normalized": false,
      "special": true
    },
    {
      "id": 369,
      "content": "[EXT_365]",
      "single_word": false,
      "lstrip": false,
      "rstrip": false,
      "normalized": false,
      "special": true
    },
    {
      "id": 370,
      "content": "[EXT_366]",
      "single_word": false,
      "lstrip": false,
      "rstrip": false,
      "normalized": false,
      "special": true
    },
    {
      "id": 371,
      "content": "[EXT_367]",
      "single_word": false,
      "lstrip": false,
      "rstrip": false,
      "normalized": false,
      "special": true
    },
    {
      "id": 372,
      "content": "[EXT_368]",
      "single_word": false,
      "lstrip": false,
      "rstrip": false,
      "normalized": false,
      "special": true
    },
    {
      "id": 373,
      "content": "[EXT_369]",
      "single_word": false,
      "lstrip": false,
      "rstrip": false,
      "normalized": false,
      "special": true
    },
    {
      "id": 374,
      "content": "[EXT_370]",
      "single_word": false,
      "lstrip": false,
      "rstrip": false,
      "normalized": false,
      "special": true
    },
    {
      "id": 375,
      "content": "[EXT_371]",
      "single_word": false,
      "lstrip": false,
      "rstrip": false,
      "normalized": false,
      "special": true
    },
    {
      "id": 376,
      "content": "[EXT_372]",
      "single_word": false,
      "lstrip": false,
      "rstrip": false,
      "normalized": false,
      "special": true
    },
    {
      "id": 377,
      "content": "[EXT_373]",
      "single_word": false,
      "lstrip": false,
      "rstrip": false,
      "normalized": false,
      "special": true
    },
    {
      "id": 378,
      "content": "[EXT_374]",
      "single_word": false,
      "lstrip": false,
      "rstrip": false,
      "normalized": false,
      "special": true
    },
    {
      "id": 379,
      "content": "[EXT_375]",
      "single_word": false,
      "lstrip": false,
      "rstrip": false,
      "normalized": false,
      "special": true
    },
    {
      "id": 380,
      "content": "[EXT_376]",
      "single_word": false,
      "lstrip": false,
      "rstrip": false,
      "normalized": false,
      "special": true
    },
    {
      "id": 381,
      "content": "[EXT_377]",
      "single_word": false,
      "lstrip": false,
      "rstrip": false,
      "normalized": false,
      "special": true
    },
    {
      "id": 382,
      "content": "[EXT_378]",
      "single_word": false,
      "lstrip": false,
      "rstrip": false,
      "normalized": false,
      "special": true
    },
    {
      "id": 383,
      "content": "[EXT_379]",
      "single_word": false,
      "lstrip": false,
      "rstrip": false,
      "normalized": false,
      "special": true
    },
    {
      "id": 384,
      "content": "[EXT_380]",
      "single_word": false,
      "lstrip": false,
      "rstrip": false,
      "normalized": false,
      "special": true
    },
    {
      "id": 385,
      "content": "[EXT_381]",
      "single_word": false,
      "lstrip": false,
      "rstrip": false,
      "normalized": false,
      "special": true
    },
    {
      "id": 386,
      "content": "[EXT_382]",
      "single_word": false,
      "lstrip": false,
      "rstrip": false,
      "normalized": false,
      "special": true
    },
    {
      "id": 387,
      "content": "[EXT_383]",
      "single_word": false,
      "lstrip": false,
      "rstrip": false,
      "normalized": false,
      "special": true
    },
    {
      "id": 388,
      "content": "[EXT_384]",
      "single_word": false,
      "lstrip": false,
      "rstrip": false,
      "normalized": false,
      "special": true
    },
    {
      "id": 389,
      "content": "[EXT_385]",
      "single_word": false,
      "lstrip": false,
      "rstrip": false,
      "normalized": false,
      "special": true
    },
    {
      "id": 390,
      "content": "[EXT_386]",
      "single_word": false,
      "lstrip": false,
      "rstrip": false,
      "normalized": false,
      "special": true
    },
    {
      "id": 391,
      "content": "[EXT_387]",
      "single_word": false,
      "lstrip": false,
      "rstrip": false,
      "normalized": false,
      "special": true
    },
    {
      "id": 392,
      "content": "[EXT_388]",
      "single_word": false,
      "lstrip": false,
      "rstrip": false,
      "normalized": false,
      "special": true
    },
    {
      "id": 393,
      "content": "[EXT_389]",
      "single_word": false,
      "lstrip": false,
      "rstrip": false,
      "normalized": false,
      "special": true
    },
    {
      "id": 394,
      "content": "[EXT_390]",
      "single_word": false,
      "lstrip": false,
      "rstrip": false,
      "normalized": false,
      "special": true
    },
    {
      "id": 395,
      "content": "[EXT_391]",
      "single_word": false,
      "lstrip": false,
      "rstrip": false,
      "normalized": false,
      "special": true
    },
    {
      "id": 396,
      "content": "[EXT_392]",
      "single_word": false,
      "lstrip": false,
      "rstrip": false,
      "normalized": false,
      "special": true
    },
    {
      "id": 397,
      "content": "[EXT_393]",
      "single_word": false,
      "lstrip": false,
      "rstrip": false,
      "normalized": false,
      "special": true
    },
    {
      "id": 398,
      "content": "[EXT_394]",
      "single_word": false,
      "lstrip": false,
      "rstrip": false,
      "normalized": false,
      "special": true
    },
    {
      "id": 399,
      "content": "[EXT_395]",
      "single_word": false,
      "lstrip": false,
      "rstrip": false,
      "normalized": false,
      "special": true
    },
    {
      "id": 400,
      "content": "[EXT_396]",
      "single_word": false,
      "lstrip": false,
      "rstrip": false,
      "normalized": false,
      "special": true
    },
    {
      "id": 401,
      "content": "[EXT_397]",
      "single_word": false,
      "lstrip": false,
      "rstrip": false,
      "normalized": false,
      "special": true
    },
    {
      "id": 402,
      "content": "[EXT_398]",
      "single_word": false,
      "lstrip": false,
      "rstrip": false,
      "normalized": false,
      "special": true
    },
    {
      "id": 403,
      "content": "[EXT_399]",
      "single_word": false,
      "lstrip": false,
      "rstrip": false,
      "normalized": false,
      "special": true
    },
    {
      "id": 404,
      "content": "[EXT_400]",
      "single_word": false,
      "lstrip": false,
      "rstrip": false,
      "normalized": false,
      "special": true
    },
    {
      "id": 405,
      "content": "[EXT_401]",
      "single_word": false,
      "lstrip": false,
      "rstrip": false,
      "normalized": false,
      "special": true
    },
    {
      "id": 406,
      "content": "[EXT_402]",
      "single_word": false,
      "lstrip": false,
      "rstrip": false,
      "normalized": false,
      "special": true
    },
    {
      "id": 407,
      "content": "[EXT_403]",
      "single_word": false,
      "lstrip": false,
      "rstrip": false,
      "normalized": false,
      "special": true
    },
    {
      "id": 408,
      "content": "[EXT_404]",
      "single_word": false,
      "lstrip": false,
      "rstrip": false,
      "normalized": false,
      "special": true
    },
    {
      "id": 409,
      "content": "[EXT_405]",
      "single_word": false,
      "lstrip": false,
      "rstrip": false,
      "normalized": false,
      "special": true
    },
    {
      "id": 410,
      "content": "[EXT_406]",
      "single_word": false,
      "lstrip": false,
      "rstrip": false,
      "normalized": false,
      "special": true
    },
    {
      "id": 411,
      "content": "[EXT_407]",
      "single_word": false,
      "lstrip": false,
      "rstrip": false,
      "normalized": false,
      "special": true
    },
    {
      "id": 412,
      "content": "[EXT_408]",
      "single_word": false,
      "lstrip": false,
      "rstrip": false,
      "normalized": false,
      "special": true
    },
    {
      "id": 413,
      "content": "[EXT_409]",
      "single_word": false,
      "lstrip": false,
      "rstrip": false,
      "normalized": false,
      "special": true
    },
    {
      "id": 414,
      "content": "[EXT_410]",
      "single_word": false,
      "lstrip": false,
      "rstrip": false,
      "normalized": false,
      "special": true
    },
    {
      "id": 415,
      "content": "[EXT_411]",
      "single_word": false,
      "lstrip": false,
      "rstrip": false,
      "normalized": false,
      "special": true
    },
    {
      "id": 416,
      "content": "[EXT_412]",
      "single_word": false,
      "lstrip": false,
      "rstrip": false,
      "normalized": false,
      "special": true
    },
    {
      "id": 417,
      "content": "[EXT_413]",
      "single_word": false,
      "lstrip": false,
      "rstrip": false,
      "normalized": false,
      "special": true
    },
    {
      "id": 418,
      "content": "[EXT_414]",
      "single_word": false,
      "lstrip": false,
      "rstrip": false,
      "normalized": false,
      "special": true
    },
    {
      "id": 419,
      "content": "[EXT_415]",
      "single_word": false,
      "lstrip": false,
      "rstrip": false,
      "normalized": false,
      "special": true
    },
    {
      "id": 420,
      "content": "[EXT_416]",
      "single_word": false,
      "lstrip": false,
      "rstrip": false,
      "normalized": false,
      "special": true
    },
    {
      "id": 421,
      "content": "[EXT_417]",
      "single_word": false,
      "lstrip": false,
      "rstrip": false,
      "normalized": false,
      "special": true
    },
    {
      "id": 422,
      "content": "[EXT_418]",
      "single_word": false,
      "lstrip": false,
      "rstrip": false,
      "normalized": false,
      "special": true
    },
    {
      "id": 423,
      "content": "[EXT_419]",
      "single_word": false,
      "lstrip": false,
      "rstrip": false,
      "normalized": false,
      "special": true
    },
    {
      "id": 424,
      "content": "[EXT_420]",
      "single_word": false,
      "lstrip": false,
      "rstrip": false,
      "normalized": false,
      "special": true
    },
    {
      "id": 425,
      "content": "[EXT_421]",
      "single_word": false,
      "lstrip": false,
      "rstrip": false,
      "normalized": false,
      "special": true
    },
    {
      "id": 426,
      "content": "[EXT_422]",
      "single_word": false,
      "lstrip": false,
      "rstrip": false,
      "normalized": false,
      "special": true
    },
    {
      "id": 427,
      "content": "[EXT_423]",
      "single_word": false,
      "lstrip": false,
      "rstrip": false,
      "normalized": false,
      "special": true
    },
    {
      "id": 428,
      "content": "[EXT_424]",
      "single_word": false,
      "lstrip": false,
      "rstrip": false,
      "normalized": false,
      "special": true
    },
    {
      "id": 429,
      "content": "[EXT_425]",
      "single_word": false,
      "lstrip": false,
      "rstrip": false,
      "normalized": false,
      "special": true
    },
    {
      "id": 430,
      "content": "[EXT_426]",
      "single_word": false,
      "lstrip": false,
      "rstrip": false,
      "normalized": false,
      "special": true
    },
    {
      "id": 431,
      "content": "[EXT_427]",
      "single_word": false,
      "lstrip": false,
      "rstrip": false,
      "normalized": false,
      "special": true
    },
    {
      "id": 432,
      "content": "[EXT_428]",
      "single_word": false,
      "lstrip": false,
      "rstrip": false,
      "normalized": false,
      "special": true
    },
    {
      "id": 433,
      "content": "[EXT_429]",
      "single_word": false,
      "lstrip": false,
      "rstrip": false,
      "normalized": false,
      "special": true
    },
    {
      "id": 434,
      "content": "[EXT_430]",
      "single_word": false,
      "lstrip": false,
      "rstrip": false,
      "normalized": false,
      "special": true
    },
    {
      "id": 435,
      "content": "[EXT_431]",
      "single_word": false,
      "lstrip": false,
      "rstrip": false,
      "normalized": false,
      "special": true
    },
    {
      "id": 436,
      "content": "[EXT_432]",
      "single_word": false,
      "lstrip": false,
      "rstrip": false,
      "normalized": false,
      "special": true
    },
    {
      "id": 437,
      "content": "[EXT_433]",
      "single_word": false,
      "lstrip": false,
      "rstrip": false,
      "normalized": false,
      "special": true
    },
    {
      "id": 438,
      "content": "[EXT_434]",
      "single_word": false,
      "lstrip": false,
      "rstrip": false,
      "normalized": false,
      "special": true
    },
    {
      "id": 439,
      "content": "[EXT_435]",
      "single_word": false,
      "lstrip": false,
      "rstrip": false,
      "normalized": false,
      "special": true
    },
    {
      "id": 440,
      "content": "[EXT_436]",
      "single_word": false,
      "lstrip": false,
      "rstrip": false,
      "normalized": false,
      "special": true
    },
    {
      "id": 441,
      "content": "[EXT_437]",
      "single_word": false,
      "lstrip": false,
      "rstrip": false,
      "normalized": false,
      "special": true
    },
    {
      "id": 442,
      "content": "[EXT_438]",
      "single_word": false,
      "lstrip": false,
      "rstrip": false,
      "normalized": false,
      "special": true
    },
    {
      "id": 443,
      "content": "[EXT_439]",
      "single_word": false,
      "lstrip": false,
      "rstrip": false,
      "normalized": false,
      "special": true
    },
    {
      "id": 444,
      "content": "[EXT_440]",
      "single_word": false,
      "lstrip": false,
      "rstrip": false,
      "normalized": false,
      "special": true
    },
    {
      "id": 445,
      "content": "[EXT_441]",
      "single_word": false,
      "lstrip": false,
      "rstrip": false,
      "normalized": false,
      "special": true
    },
    {
      "id": 446,
      "content": "[EXT_442]",
      "single_word": false,
      "lstrip": false,
      "rstrip": false,
      "normalized": false,
      "special": true
    },
    {
      "id": 447,
      "content": "[EXT_443]",
      "single_word": false,
      "lstrip": false,
      "rstrip": false,
      "normalized": false,
      "special": true
    },
    {
      "id": 448,
      "content": "[EXT_444]",
      "single_word": false,
      "lstrip": false,
      "rstrip": false,
      "normalized": false,
      "special": true
    },
    {
      "id": 449,
      "content": "[EXT_445]",
      "single_word": false,
      "lstrip": false,
      "rstrip": false,
      "normalized": false,
      "special": true
    },
    {
      "id": 450,
      "content": "[EXT_446]",
      "single_word": false,
      "lstrip": false,
      "rstrip": false,
      "normalized": false,
      "special": true
    },
    {
      "id": 451,
      "content": "[EXT_447]",
      "single_word": false,
      "lstrip": false,
      "rstrip": false,
      "normalized": false,
      "special": true
    },
    {
      "id": 452,
      "content": "[EXT_448]",
      "single_word": false,
      "lstrip": false,
      "rstrip": false,
      "normalized": false,
      "special": true
    },
    {
      "id": 453,
      "content": "[EXT_449]",
      "single_word": false,
      "lstrip": false,
      "rstrip": false,
      "normalized": false,
      "special": true
    },
    {
      "id": 454,
      "content": "[EXT_450]",
      "single_word": false,
      "lstrip": false,
      "rstrip": false,
      "normalized": false,
      "special": true
    },
    {
      "id": 455,
      "content": "[EXT_451]",
      "single_word": false,
      "lstrip": false,
      "rstrip": false,
      "normalized": false,
      "special": true
    },
    {
      "id": 456,
      "content": "[EXT_452]",
      "single_word": false,
      "lstrip": false,
      "rstrip": false,
      "normalized": false,
      "special": true
    },
    {
      "id": 457,
      "content": "[EXT_453]",
      "single_word": false,
      "lstrip": false,
      "rstrip": false,
      "normalized": false,
      "special": true
    },
    {
      "id": 458,
      "content": "[EXT_454]",
      "single_word": false,
      "lstrip": false,
      "rstrip": false,
      "normalized": false,
      "special": true
    },
    {
      "id": 459,
      "content": "[EXT_455]",
      "single_word": false,
      "lstrip": false,
      "rstrip": false,
      "normalized": false,
      "special": true
    },
    {
      "id": 460,
      "content": "[EXT_456]",
      "single_word": false,
      "lstrip": false,
      "rstrip": false,
      "normalized": false,
      "special": true
    },
    {
      "id": 461,
      "content": "[EXT_457]",
      "single_word": false,
      "lstrip": false,
      "rstrip": false,
      "normalized": false,
      "special": true
    },
    {
      "id": 462,
      "content": "[EXT_458]",
      "single_word": false,
      "lstrip": false,
      "rstrip": false,
      "normalized": false,
      "special": true
    },
    {
      "id": 463,
      "content": "[EXT_459]",
      "single_word": false,
      "lstrip": false,
      "rstrip": false,
      "normalized": false,
      "special": true
    },
    {
      "id": 464,
      "content": "[EXT_460]",
      "single_word": false,
      "lstrip": false,
      "rstrip": false,
      "normalized": false,
      "special": true
    },
    {
      "id": 465,
      "content": "[EXT_461]",
      "single_word": false,
      "lstrip": false,
      "rstrip": false,
      "normalized": false,
      "special": true
    },
    {
      "id": 466,
      "content": "[EXT_462]",
      "single_word": false,
      "lstrip": false,
      "rstrip": false,
      "normalized": false,
      "special": true
    },
    {
      "id": 467,
      "content": "[EXT_463]",
      "single_word": false,
      "lstrip": false,
      "rstrip": false,
      "normalized": false,
      "special": true
    },
    {
      "id": 468,
      "content": "[EXT_464]",
      "single_word": false,
      "lstrip": false,
      "rstrip": false,
      "normalized": false,
      "special": true
    },
    {
      "id": 469,
      "content": "[EXT_465]",
      "single_word": false,
      "lstrip": false,
      "rstrip": false,
      "normalized": false,
      "special": true
    },
    {
      "id": 470,
      "content": "[EXT_466]",
      "single_word": false,
      "lstrip": false,
      "rstrip": false,
      "normalized": false,
      "special": true
    },
    {
      "id": 471,
      "content": "[EXT_467]",
      "single_word": false,
      "lstrip": false,
      "rstrip": false,
      "normalized": false,
      "special": true
    },
    {
      "id": 472,
      "content": "[EXT_468]",
      "single_word": false,
      "lstrip": false,
      "rstrip": false,
      "normalized": false,
      "special": true
    },
    {
      "id": 473,
      "content": "[EXT_469]",
      "single_word": false,
      "lstrip": false,
      "rstrip": false,
      "normalized": false,
      "special": true
    },
    {
      "id": 474,
      "content": "[EXT_470]",
      "single_word": false,
      "lstrip": false,
      "rstrip": false,
      "normalized": false,
      "special": true
    },
    {
      "id": 475,
      "content": "[EXT_471]",
      "single_word": false,
      "lstrip": false,
      "rstrip": false,
      "normalized": false,
      "special": true
    },
    {
      "id": 476,
      "content": "[EXT_472]",
      "single_word": false,
      "lstrip": false,
      "rstrip": false,
      "normalized": false,
      "special": true
    },
    {
      "id": 477,
      "content": "[EXT_473]",
      "single_word": false,
      "lstrip": false,
      "rstrip": false,
      "normalized": false,
      "special": true
    },
    {
      "id": 478,
      "content": "[EXT_474]",
      "single_word": false,
      "lstrip": false,
      "rstrip": false,
      "normalized": false,
      "special": true
    },
    {
      "id": 479,
      "content": "[EXT_475]",
      "single_word": false,
      "lstrip": false,
      "rstrip": false,
      "normalized": false,
      "special": true
    }
  ],
  "normalizer": {
    "type": "Sequence",
    "normalizers": [
      {
        "type": "NFC"
      }
    ]
  },
  "pre_tokenizer": {
    "type": "Sequence",
    "pretokenizers": [
      {
        "type": "Split",
        "pattern": {
          "String": "(?i:'s|'t|'re|'ve|'m|'ll|'d)|[^\\r\\n\\p{L}\\p{N}]?\\p{L}+|\\p{N}| ?[^\\s\\p{L}\\p{N}]+[\\r\\n]*|\\s*[\\r\\n]+|\\s+(?!\\S)|\\s+"
        },
        "behavior": "Isolated",
        "invert": false
      },
      {
        "type": "Digits",
        "individual_digits": true
      },
      {
        "type": "Split",
        "pattern": {
          "String": " "
        },
        "behavior": "Isolated",
        "invert": false
      },
      {
        "type": "ByteLevel",
        "add_prefix_space": false,
        "trim_offsets": true,
        "use_regex": false
      }
    ]
  },
  "post_processor": {
    "type": "ByteLevel",
    "add_prefix_space": true,
    "trim_offsets": false,
    "use_regex": true
  },
  "decoder": null,
  "model": {
    "type": "BPE",
    "dropout": null,
    "unk_token": null,
    "continuing_subword_prefix": null,
    "end_of_word_suffix": null,
    "fuse_unk": false,
    "byte_fallback": true,
    "ignore_merges": false,
    "vocab": {
      "[PAD]": 0,
      "[CLS]": 1,
      "[SEP]": 2,
      "[MASK]": 3,
      "[EXT_0]": 4,
      "[EXT_1]": 5,
      "[EXT_2]": 6,
      "[EXT_3]": 7,
      "[EXT_4]": 8,
      "[EXT_5]": 9,
      "[EXT_6]": 10,
      "[EXT_7]": 11,
      "[EXT_8]": 12,
      "[EXT_9]": 13,
      "[EXT_10]": 14,
      "[EXT_11]": 15,
      "[EXT_12]": 16,
      "[EXT_13]": 17,
      "[EXT_14]": 18,
      "[EXT_15]": 19,
      "[EXT_16]": 20,
      "[EXT_17]": 21,
      "[EXT_18]": 22,
      "[EXT_19]": 23,
      "[EXT_20]": 24,
      "[EXT_21]": 25,
      "[EXT_22]": 26,
      "[EXT_23]": 27,
      "[EXT_24]": 28,
      "[EXT_25]": 29,
      "[EXT_26]": 30,
      "[EXT_27]": 31,
      "[EXT_28]": 32,
      "[EXT_29]": 33,
      "[EXT_30]": 34,
      "[EXT_31]": 35,
      "[EXT_32]": 36,
      "[EXT_33]": 37,
      "[EXT_34]": 38,
      "[EXT_35]": 39,
      "[EXT_36]": 40,
      "[EXT_37]": 41,
      "[EXT_38]": 42,
      "[EXT_39]": 43,
      "[EXT_40]": 44,
      "[EXT_41]": 45,
      "[EXT_42]": 46,
      "[EXT_43]": 47,
      "[EXT_44]": 48,
      "[EXT_45]": 49,
      "[EXT_46]": 50,
      "[EXT_47]": 51,
      "[EXT_48]": 52,
      "[EXT_49]": 53,
      "[EXT_50]": 54,
      "[EXT_51]": 55,
      "[EXT_52]": 56,
      "[EXT_53]": 57,
      "[EXT_54]": 58,
      "[EXT_55]": 59,
      "[EXT_56]": 60,
      "[EXT_57]": 61,
      "[EXT_58]": 62,
      "[EXT_59]": 63,
      "[EXT_60]": 64,
      "[EXT_61]": 65,
      "[EXT_62]": 66,
      "[EXT_63]": 67,
      "[EXT_64]": 68,
      "[EXT_65]": 69,
      "[EXT_66]": 70,
      "[EXT_67]": 71,
      "[EXT_68]": 72,
      "[EXT_69]": 73,
      "[EXT_70]": 74,
      "[EXT_71]": 75,
      "[EXT_72]": 76,
      "[EXT_73]": 77,
      "[EXT_74]": 78,
      "[EXT_75]": 79,
      "[EXT_76]": 80,
      "[EXT_77]": 81,
      "[EXT_78]": 82,
      "[EXT_79]": 83,
      "[EXT_80]": 84,
      "[EXT_81]": 85,
      "[EXT_82]": 86,
      "[EXT_83]": 87,
      "[EXT_84]": 88,
      "[EXT_85]": 89,
      "[EXT_86]": 90,
      "[EXT_87]": 91,
      "[EXT_88]": 92,
      "[EXT_89]": 93,
      "[EXT_90]": 94,
      "[EXT_91]": 95,
      "[EXT_92]": 96,
      "[EXT_93]": 97,
      "[EXT_94]": 98,
      "[EXT_95]": 99,
      "[EXT_96]": 100,
      "[EXT_97]": 101,
      "[EXT_98]": 102,
      "[EXT_99]": 103,
      "[EXT_100]": 104,
      "[EXT_101]": 105,
      "[EXT_102]": 106,
      "[EXT_103]": 107,
      "[EXT_104]": 108,
      "[EXT_105]": 109,
      "[EXT_106]": 110,
      "[EXT_107]": 111,
      "[EXT_108]": 112,
      "[EXT_109]": 113,
      "[EXT_110]": 114,
      "[EXT_111]": 115,
      "[EXT_112]": 116,
      "[EXT_113]": 117,
      "[EXT_114]": 118,
      "[EXT_115]": 119,
      "[EXT_116]": 120,
      "[EXT_117]": 121,
      "[EXT_118]": 122,
      "[EXT_119]": 123,
      "[EXT_120]": 124,
      "[EXT_121]": 125,
      "[EXT_122]": 126,
      "[EXT_123]": 127,
      "[EXT_124]": 128,
      "[EXT_125]": 129,
      "[EXT_126]": 130,
      "[EXT_127]": 131,
      "[EXT_128]": 132,
      "[EXT_129]": 133,
      "[EXT_130]": 134,
      "[EXT_131]": 135,
      "[EXT_132]": 136,
      "[EXT_133]": 137,
      "[EXT_134]": 138,
      "[EXT_135]": 139,
      "[EXT_136]": 140,
      "[EXT_137]": 141,
      "[EXT_138]": 142,
      "[EXT_139]": 143,
      "[EXT_140]": 144,
      "[EXT_141]": 145,
      "[EXT_142]": 146,
      "[EXT_143]": 147,
      "[EXT_144]": 148,
      "[EXT_145]": 149,
      "[EXT_146]": 150,
      "[EXT_147]": 151,
      "[EXT_148]": 152,
      "[EXT_149]": 153,
      "[EXT_150]": 154,
      "[EXT_151]": 155,
      "[EXT_152]": 156,
      "[EXT_153]": 157,
      "[EXT_154]": 158,
      "[EXT_155]": 159,
      "[EXT_156]": 160,
      "[EXT_157]": 161,
      "[EXT_158]": 162,
      "[EXT_159]": 163,
      "[EXT_160]": 164,
      "[EXT_161]": 165,
      "[EXT_162]": 166,
      "[EXT_163]": 167,
      "[EXT_164]": 168,
      "[EXT_165]": 169,
      "[EXT_166]": 170,
      "[EXT_167]": 171,
      "[EXT_168]": 172,
      "[EXT_169]": 173,
      "[EXT_170]": 174,
      "[EXT_171]": 175,
      "[EXT_172]": 176,
      "[EXT_173]": 177,
      "[EXT_174]": 178,
      "[EXT_175]": 179,
      "[EXT_176]": 180,
      "[EXT_177]": 181,
      "[EXT_178]": 182,
      "[EXT_179]": 183,
      "[EXT_180]": 184,
      "[EXT_181]": 185,
      "[EXT_182]": 186,
      "[EXT_183]": 187,
      "[EXT_184]": 188,
      "[EXT_185]": 189,
      "[EXT_186]": 190,
      "[EXT_187]": 191,
      "[EXT_188]": 192,
      "[EXT_189]": 193,
      "[EXT_190]": 194,
      "[EXT_191]": 195,
      "[EXT_192]": 196,
      "[EXT_193]": 197,
      "[EXT_194]": 198,
      "[EXT_195]": 199,
      "[EXT_196]": 200,
      "[EXT_197]": 201,
      "[EXT_198]": 202,
      "[EXT_199]": 203,
      "[EXT_200]": 204,
      "[EXT_201]": 205,
      "[EXT_202]": 206,
      "[EXT_203]": 207,
      "[EXT_204]": 208,
      "[EXT_205]": 209,
      "[EXT_206]": 210,
      "[EXT_207]": 211,
      "[EXT_208]": 212,
      "[EXT_209]": 213,
      "[EXT_210]": 214,
      "[EXT_211]": 215,
      "[EXT_212]": 216,
      "[EXT_213]": 217,
      "[EXT_214]": 218,
      "[EXT_215]": 219,
      "[EXT_216]": 220,
      "[EXT_217]": 221,
      "[EXT_218]": 222,
      "[EXT_219]": 223,
      "[EXT_220]": 224,
      "[EXT_221]": 225,
      "[EXT_222]": 226,
      "[EXT_223]": 227,
      "[EXT_224]": 228,
      "[EXT_225]": 229,
      "[EXT_226]": 230,
      "[EXT_227]": 231,
      "[EXT_228]": 232,
      "[EXT_229]": 233,
      "[EXT_230]": 234,
      "[EXT_231]": 235,
      "[EXT_232]": 236,
      "[EXT_233]": 237,
      "[EXT_234]": 238,
      "[EXT_235]": 239,
      "[EXT_236]": 240,
      "[EXT_237]": 241,
      "[EXT_238]": 242,
      "[EXT_239]": 243,
      "[EXT_240]": 244,
      "[EXT_241]": 245,
      "[EXT_242]": 246,
      "[EXT_243]": 247,
      "[EXT_244]": 248,
      "[EXT_245]": 249,
      "[EXT_246]": 250,
      "[EXT_247]": 251,
      "[EXT_248]": 252,
      "[EXT_249]": 253,
      "[EXT_250]": 254,
      "[EXT_251]": 255,
      "[EXT_252]": 256,
      "[EXT_253]": 257,
      "[EXT_254]": 258,
      "[EXT_255]": 259,
      "[EXT_256]": 260,
      "[EXT_257]": 261,
      "[EXT_258]": 262,
      "[EXT_259]": 263,
      "[EXT_260]": 264,
      "[EXT_261]": 265,
      "[EXT_262]": 266,
      "[EXT_263]": 267,
      "[EXT_264]": 268,
      "[EXT_265]": 269,
      "[EXT_266]": 270,
      "[EXT_267]": 271,
      "[EXT_268]": 272,
      "[EXT_269]": 273,
      "[EXT_270]": 274,
      "[EXT_271]": 275,
      "[EXT_272]": 276,
      "[EXT_273]": 277,
      "[EXT_274]": 278,
      "[EXT_275]": 279,
      "[EXT_276]": 280,
      "[EXT_277]": 281,
      "[EXT_278]": 282,
      "[EXT_279]": 283,
      "[EXT_280]": 284,
      "[EXT_281]": 285,
      "[EXT_282]": 286,
      "[EXT_283]": 287,
      "[EXT_284]": 288,
      "[EXT_285]": 289,
      "[EXT_286]": 290,
      "[EXT_287]": 291,
      "[EXT_288]": 292,
      "[EXT_289]": 293,
      "[EXT_290]": 294,
      "[EXT_291]": 295,
      "[EXT_292]": 296,
      "[EXT_293]": 297,
      "[EXT_294]": 298,
      "[EXT_295]": 299,
      "[EXT_296]": 300,
      "[EXT_297]": 301,
      "[EXT_298]": 302,
      "[EXT_299]": 303,
      "[EXT_300]": 304,
      "[EXT_301]": 305,
      "[EXT_302]": 306,
      "[EXT_303]": 307,
      "[EXT_304]": 308,
      "[EXT_305]": 309,
      "[EXT_306]": 310,
      "[EXT_307]": 311,
      "[EXT_308]": 312,
      "[EXT_309]": 313,
      "[EXT_310]": 314,
      "[EXT_311]": 315,
      "[EXT_312]": 316,
      "[EXT_313]": 317,
      "[EXT_314]": 318,
      "[EXT_315]": 319,
      "[EXT_316]": 320,
      "[EXT_317]": 321,
      "[EXT_318]": 322,
      "[EXT_319]": 323,
      "[EXT_320]": 324,
      "[EXT_321]": 325,
      "[EXT_322]": 326,
      "[EXT_323]": 327,
      "[EXT_324]": 328,
      "[EXT_325]": 329,
      "[EXT_326]": 330,
      "[EXT_327]": 331,
      "[EXT_328]": 332,
      "[EXT_329]": 333,
      "[EXT_330]": 334,
      "[EXT_331]": 335,
      "[EXT_332]": 336,
      "[EXT_333]": 337,
      "[EXT_334]": 338,
      "[EXT_335]": 339,
      "[EXT_336]": 340,
      "[EXT_337]": 341,
      "[EXT_338]": 342,
      "[EXT_339]": 343,
      "[EXT_340]": 344,
      "[EXT_341]": 345,
      "[EXT_342]": 346,
      "[EXT_343]": 347,
      "[EXT_344]": 348,
      "[EXT_345]": 349,
      "[EXT_346]": 350,
      "[EXT_347]": 351,
      "[EXT_348]": 352,
      "[EXT_349]": 353,
      "[EXT_350]": 354,
      "[EXT_351]": 355,
      "[EXT_352]": 356,
      "[EXT_353]": 357,
      "[EXT_354]": 358,
      "[EXT_355]": 359,
      "[EXT_356]": 360,
      "[EXT_357]": 361,
      "[EXT_358]": 362,
      "[EXT_359]": 363,
      "[EXT_360]": 364,
      "[EXT_361]": 365,
      "[EXT_362]": 366,
      "[EXT_363]": 367,
      "[EXT_364]": 368,
      "[EXT_365]": 369,
      "[EXT_366]": 370,
      "[EXT_367]": 371,
      "[EXT_368]": 372,
      "[EXT_369]": 373,
      "[EXT_370]": 374,
      "[EXT_371]": 375,
      "[EXT_372]": 376,
      "[EXT_373]": 377,
      "[EXT_374]": 378,
      "[EXT_375]": 379,
      "[EXT_376]": 380,
      "[EXT_377]": 381,
      "[EXT_378]": 382,
      "[EXT_379]": 383,
      "[EXT_380]": 384,
      "[EXT_381]": 385,
      "[EXT_382]": 386,
      "[EXT_383]": 387,
      "[EXT_384]": 388,
      "[EXT_385]": 389,
      "[EXT_386]": 390,
      "[EXT_387]": 391,
      "[EXT_388]": 392,
      "[EXT_389]": 393,
      "[EXT_390]": 394,
      "[EXT_391]": 395,
      "[EXT_392]": 396,
      "[EXT_393]": 397,
      "[EXT_394]": 398,
      "[EXT_395]": 399,
      "[EXT_396]": 400,
      "[EXT_397]": 401,
      "[EXT_398]": 402,
      "[EXT_399]": 403,
      "[EXT_400]": 404,
      "[EXT_401]": 405,
      "[EXT_402]": 406,
      "[EXT_403]": 407,
      "[EXT_404]": 408,
      "[EXT_405]": 409,
      "[EXT_406]": 410,
      "[EXT_407]": 411,
      "[EXT_408]": 412,
      "[EXT_409]": 413,
      "[EXT_410]": 414,
      "[EXT_411]": 415,
      "[EXT_412]": 416,
      "[EXT_413]": 417,
      "[EXT_414]": 418,
      "[EXT_415]": 419,
      "[EXT_416]": 420,
      "[EXT_417]": 421,
      "[EXT_418]": 422,
      "[EXT_419]": 423,
      "[EXT_420]": 424,
      "[EXT_421]": 425,
      "[EXT_422]": 426,
      "[EXT_423]": 427,
      "[EXT_424]": 428,
      "[EXT_425]": 429,
      "[EXT_426]": 430,
      "[EXT_427]": 431,
      "[EXT_428]": 432,
      "[EXT_429]": 433,
      "[EXT_430]": 434,
      "[EXT_431]": 435,
      "[EXT_432]": 436,
      "[EXT_433]": 437,
      "[EXT_434]": 438,
      "[EXT_435]": 439,
      "[EXT_436]": 440,
      "[EXT_437]": 441,
      "[EXT_438]": 442,
      "[EXT_439]": 443,
      "[EXT_440]": 444,
      "[EXT_441]": 445,
      "[EXT_442]": 446,
      "[EXT_443]": 447,
      "[EXT_444]": 448,
      "[EXT_445]": 449,
      "[EXT_446]": 450,
      "[EXT_447]": 451,
      "[EXT_448]": 452,
      "[EXT_449]": 453,
      "[EXT_450]": 454,
      "[EXT_451]": 455,
      "[EXT_452]": 456,
      "[EXT_453]": 457,
      "[EXT_454]": 458,
      "[EXT_455]": 459,
      "[EXT_456]": 460,
      "[EXT_457]": 461,
      "[EXT_458]": 462,
      "[EXT_459]": 463,
      "[EXT_460]": 464,
      "[EXT_461]": 465,
      "[EXT_462]": 466,
      "[EXT_463]": 467,
      "[EXT_464]": 468,
      "[EXT_465]": 469,
      "[EXT_466]": 470,
      "[EXT_467]": 471,
      "[EXT_468]": 472,
      "[EXT_469]": 473,
      "[EXT_470]": 474,
      "[EXT_471]": 475,
      "[EXT_472]": 476,
      "[EXT_473]": 477,
      "[EXT_474]": 478,
      "[EXT_475]": 479,
      "!": 480,
      "\"": 481,
      "#": 482,
      "$": 483,
      "%": 484,
      "&": 485,
      "'": 486,
      "(": 487,
      ")": 488,
      "*": 489,
      "+": 490,
      ",": 491,
      "-": 492,
      ".": 493,
      "/": 494,
      "0": 495,
      "1": 496,
      "2": 497,
      "3": 498,
      "4": 499,
      "5": 500,
      "6": 501,
      "7": 502,
      "8": 503,
      "9": 504,
      ":": 505,
      ";": 506,
      "<": 507,
      "=": 508,
      ">": 509,
      "?": 510,
      "@": 511,
      "A": 512,
      "B": 513,
      "C": 514,
      "D": 515,
      "E": 516,
      "F": 517,
      "G": 518,
      "H": 519,
      "I": 520,
      "J": 521,
      "K": 522,
      "L": 523,
      "M": 524,
      "N": 525,
      "O": 526,
      "P": 527,
      "Q": 528,
      "R": 529,
      "S": 530,
      "T": 531,
      "U": 532,
      "V": 533,
      "W": 534,
      "X": 535,
      "Y": 536,
      "Z": 537,
      "[": 538,
      "\\": 539,
      "]": 540,
      "^": 541,
      "_": 542,
      "`": 543,
      "a": 544,
      "b": 545,
      "c": 546,
      "d": 547,
      "e": 548,
      "f": 549,
      "g": 550,
      "h": 551,
      "i": 552,
      "j": 553,
      "k": 554,
      "l": 555,
      "m": 556,
      "n": 557,
      "o": 558,
      "p": 559,
      "q": 560,
      "r": 561,
      "s": 562,
      "t": 563,
      "u": 564,
      "v": 565,
      "w": 566,
      "x": 567,
      "y": 568,
      "z": 569,
      "{": 570,
      "|": 571,
      "}": 572,
      "~": 573,
      "¡": 574,
      "¢": 575,
      "£": 576,
      "¤": 577,
      "¥": 578,
      "¦": 579,
      "§": 580,
      "¨": 581,
      "©": 582,
      "ª": 583,
      "«": 584,
      "¬": 585,
      "®": 586,
      "¯": 587,
      "°": 588,
      "±": 589,
      "²": 590,
      "³": 591,
      "´": 592,
      "µ": 593,
      "¶": 594,
      "·": 595,
      "¸": 596,
      "¹": 597,
      "º": 598,
      "»": 599,
      "¼": 600,
      "½": 601,
      "¾": 602,
      "¿": 603,
      "Â": 604,
      "Ã": 605,
      "Ä": 606,
      "Å": 607,
      "Æ": 608,
      "Ç": 609,
      "È": 610,
      "É": 611,
      "Ê": 612,
      "Ë": 613,
      "Ì": 614,
      "Í": 615,
      "Î": 616,
      "Ï": 617,
      "Ð": 618,
      "Ñ": 619,
      "Ò": 620,
      "Ó": 621,
      "Ô": 622,
      "Õ": 623,
      "Ö": 624,
      "×": 625,
      "Ø": 626,
      "Ù": 627,
      "Ú": 628,
      "Û": 629,
      "Ü": 630,
      "Þ": 631,
      "ß": 632,
      "à": 633,
      "á": 634,
      "â": 635,
      "ã": 636,
      "ä": 637,
      "å": 638,
      "æ": 639,
      "ç": 640,
      "è": 641,
      "é": 642,
      "ê": 643,
      "ë": 644,
      "ì": 645,
      "í": 646,
      "î": 647,
      "ï": 648,
      "ð": 649,
      "ó": 650,
      "ô": 651,
      "Ā": 652,
      "ā": 653,
      "Ă": 654,
      "ă": 655,
      "Ą": 656,
      "ą": 657,
      "Ć": 658,
      "ć": 659,
      "Ĉ": 660,
      "ĉ": 661,
      "Ċ": 662,
      "ċ": 663,
      "Č": 664,
      "č": 665,
      "Ď": 666,
      "ď": 667,
      "Đ": 668,
      "đ": 669,
      "Ē": 670,
      "ē": 671,
      "Ĕ": 672,
      "ĕ": 673,
      "Ė": 674,
      "ė": 675,
      "Ę": 676,
      "ę": 677,
      "Ě": 678,
      "ě": 679,
      "Ĝ": 680,
      "ĝ": 681,
      "Ğ": 682,
      "ğ": 683,
      "Ġ": 684,
      "ġ": 685,
      "Ģ": 686,
      "ģ": 687,
      "Ĥ": 688,
      "ĥ": 689,
      "Ħ": 690,
      "ħ": 691,
      "Ĩ": 692,
      "ĩ": 693,
      "Ī": 694,
      "ī": 695,
      "Ĭ": 696,
      "ĭ": 697,
      "Į": 698,
      "į": 699,
      "İ": 700,
      "ı": 701,
      "Ĳ": 702,
      "ĳ": 703,
      "Ĵ": 704,
      "ĵ": 705,
      "Ķ": 706,
      "ķ": 707,
      "ĸ": 708,
      "Ĺ": 709,
      "ĺ": 710,
      "Ļ": 711,
      "ļ": 712,
      "Ľ": 713,
      "ľ": 714,
      "Ŀ": 715,
      "ŀ": 716,
      "Ł": 717,
      "ł": 718,
      "Ń": 719,
      "ï¼": 720,
      "ä¸": 721,
      "th": 722,
      "ï¼Į": 723,
      "ãĢ": 724,
      "in": 725,
      "çļ": 726,
      "çļĦ": 727,
      "er": 728,
      "an": 729,
      "on": 730,
      "äº": 731,
      "the": 732,
      "re": 733,
      "at": 734,
      "ãĢĤ": 735,
      "åı": 736,
      "en": 737,
      "or": 738,
      "æľ": 739,
      "ä»": 740,
      "st": 741,
      "åħ": 742,
      "ou": 743,
      "al": 744,
      "âĢ": 745,
      "ed": 746,
      "ing": 747,
      "å¤": 748,
      "åĪ": 749,
      "to": 750,
      "å®": 751,
      "is": 752,
      "ar": 753,
      "and": 754,
      "es": 755,
      "çĶ": 756,
      "ãĢģ": 757,
      "ä½": 758,
      "åĲ": 759,
      "è¿": 760,
      "it": 761,
      "of": 762,
      "æĺ": 763,
      "ä¹": 764,
      "åľ": 765,
      "åŃ": 766,
      "as": 767,
      "è¯": 768,
      "ç»": 769,
      "ic": 770,
      "æĪ": 771,
      "åĬ": 772,
      "le": 773,
      "ä¸Ģ": 774,
      "ion": 775,
      "æĸ": 776,
      "æĺ¯": 777,
      "åĽ": 778,
      "om": 779,
      "å°": 780,
      "æĹ": 781,
      "è®": 782,
      "he": 783,
      "ent": 784,
      "å¹": 785,
      "il": 786,
      "æľī": 787,
      "åį": 788,
      "se": 789,
      ".Ċ": 790,
      "ac": 791,
      "ä¼": 792,
      "äºº": 793,
      "åľ¨": 794,
      "æķ": 795,
      "ä¸į": 796,
      "ve": 797,
      "æĿ": 798,
      "èĢ": 799,
      "be": 800,
      "ro": 801,
      "åº": 802,
      "åĨ": 803,
      "éĩ": 804,
      "for": 805,
      "æī": 806,
      "è¡": 807,
      "åŃ¦": 808,
      "å¼": 809,
      "å·": 810,
      "åĴ": 811,
      "å¯": 812,
      "ly": 813,
      "ä¸Ń": 814,
      "å¾": 815,
      "ad": 816,
      "å¸": 817,
      "ä¸º": 818,
      "æĢ": 819,
      "åĩ": 820,
      "åĴĮ": 821,
      "id": 822,
      "ch": 823,
      "è§": 824,
      "éĢ": 825,
      "ç§": 826,
      "ãĢĤĊ": 827,
      "çĶŁ": 828,
      "am": 829,
      "ĥ½": 830,
      "lo": 831,
      "äºĨ": 832,
      "ay": 833,
      "æł": 834,
      "ä»¥": 835,
      "çĽ": 836,
      "åĮ": 837,
      "âĢľ": 838,
      "âĢĿ": 839,
      "æ³": 840,
      "æ°": 841,
      "¦ģ": 842,
      "im": 843,
      "çİ": 844,
      "è¦ģ": 845,
      "ig": 846,
      "et": 847,
      "å½": 848,
      "è´": 849,
      "çī": 850,
      "ol": 851,
      "wh": 852,
      "å¤§": 853,
      "çĶ¨": 854,
      "æĬ": 855,
      "ver": 856,
      "æŃ": 857,
      "that": 858,
      "no": 859,
      "æĹ¶": 860,
      "èĩ": 861,
      "ï¼ļ": 862,
      "å±": 863,
      "å¿": 864,
      "ct": 865,
      "ation": 866,
      "ut": 867,
      "ä¸ª": 868,
      "ith": 869,
      "èµ": 870,
      "un": 871,
      "æĶ": 872,
      "el": 873,
      "åĽ½": 874,
      "éĹ": 875,
      "åİ": 876,
      "ur": 877,
      "you": 878,
      "are": 879,
      "çº": 880,
      "ä¸Ĭ": 881,
      "çĲ": 882,
      "æŀ": 883,
      "éĿ": 884,
      "ä½ľ": 885,
      "ir": 886,
      "èĥ½": 887,
      "éĻ": 888,
      "ab": 889,
      "å¥": 890,
      "åı¯": 891,
      "è¿Ļ": 892,
      "with": 893,
      "ce": 894,
      "ag": 895,
      "çŃ": 896,
      "æĪĳ": 897,
      "ter": 898,
      "å¯¹": 899,
      "åıĳ": 900,
      "æ¯": 901,
      "us": 902,
      "æĪĲ": 903,
      "å¹´": 904,
      "åĳ": 905,
      "ä¼ļ": 906,
      "æµ": 907,
      "ä¿": 908,
      "æİ": 909,
      "con": 910,
      "The": 911,
      "äºİ": 912,
      "é¢": 913,
      "com": 914,
      "è¡Į": 915,
      "æ²": 916,
      "åĪĨ": 917,
      "è¾": 918,
      "æĸ¹": 919,
      "æ³ķ": 920,
      "æĥ": 921,
      "çĲĨ": 922,
      "ul": 923,
      "åľ°": 924,
      "åĬ¨": 925,
      "de": 926,
      "mo": 927,
      "âĢĻ": 928,
      "åĪ°": 929,
      "ãĢĢ": 930,
      "æĦ": 931,
      "ill": 932,
      "ers": 933,
      "å¦": 934,
      "åĩº": 935,
      "ap": 936,
      "pro": 937,
      "ow": 938,
      "æĮ": 939,
      "ere": 940,
      "ï¼ī": 941,
      "ne": 942,
      "èĤ": 943,
      "li": 944,
      "res": 945,
      "ï¼Ī": 946,
      "èĩª": 947,
      "æĿ¥": 948,
      "ri": 949,
      "åĲİ": 950,
      "åŁ": 951,
      "op": 952,
      "em": 953,
      "ä»¬": 954,
      "æ´": 955,
      "su": 956,
      "å·¥": 957,
      "ke": 958,
      "out": 959,
      "è¿ĩ": 960,
      "all": 961,
      "éĺ": 962,
      "ä¹ĭ": 963,
      "çľ": 964,
      "ä½ĵ": 965,
      "å¤ļ": 966,
      "å®ļ": 967,
      "ha": 968,
      "s,": 969,
      "åŃĲ": 970,
      "æĢ§": 971,
      "ate": 972,
      "ä¸ĭ": 973,
      "we": 974,
      "æ±": 975,
      "æĸĩ": 976,
      "was": 977,
      "ex": 978,
      "åĲĮ": 979,
      "ä¹Ł": 980,
      "å°±": 981,
      "æĭ": 982,
      "æķĻ": 983,
      "èĢĮ": 984,
      "ç«": 985,
      "pe": 986,
      "ä¾": 987,
      "çİ°": 988,
      "ç®": 989,
      "pl": 990,
      "ä¸İ": 991,
      "fr": 992,
      "è½": 993,
      "åī": 994,
      "ç¨": 995,
      "igh": 996,
      "ä¸ļ": 997,
      "ld": 998,
      "è¿Ľ": 999,
      "sh": 1000,
      "çŃī": 1001,
      "åĵ": 1002,
      "å¦Ĥ": 1003,
      "é«": 1004,
      "å®¶": 1005,
      "ä¸»": 1006,
      "åģ": 1007,
      "if": 1008,
      "éģ": 1009,
      "åħ¶": 1010,
      "our": 1011,
      "å®ŀ": 1012,
      "é«ĺ": 1013,
      "ain": 1014,
      "oun": 1015,
      "tr": 1016,
      "te": 1017,
      "one": 1018,
      "æľ¬": 1019,
      "ess": 1020,
      "ç»ı": 1021,
      "ç¬": 1022,
      "ment": 1023,
      "so": 1024,
      "æı": 1025,
      "éĥ": 1026,
      "åĬĽ": 1027,
      "po": 1028,
      "çŁ": 1029,
      "ä»ĸ": 1030,
      "çĤ": 1031,
      "åĮĸ": 1032,
      "æ¸": 1033,
      "çī©": 1034,
      "åºĶ": 1035,
      "æīĢ": 1036,
      "art": 1037,
      "by": 1038,
      "æ¬": 1039,
      "éĿ¢": 1040,
      "éķ": 1041,
      "ç§į": 1042,
      "oo": 1043,
      "åĲĪ": 1044,
      "ant": 1045,
      "èĢħ": 1046,
      "æĽ": 1047,
      "ç½": 1048,
      "ther": 1049,
      "ity": 1050,
      "qu": 1051,
      "éĩį": 1052,
      "'s": 1053,
      "è°": 1054,
      "å°ı": 1055,
      "have": 1056,
      "æį": 1057,
      "ï¼Ľ": 1058,
      "åħ³": 1059,
      "this": 1060,
      "from": 1061,
      "ist": 1062,
      "his": 1063,
      "æĪĸ": 1064,
      "çĹ": 1065,
      "ç¤": 1066,
      "not": 1067,
      "åħ¨": 1068,
      "éĥ¨": 1069,
      "åº¦": 1070,
      "per": 1071,
      "èĬ": 1072,
      "äºĭ": 1073,
      "æķ°": 1074,
      "é¡": 1075,
      "ive": 1076,
      "é£": 1077,
      "å¿ĥ": 1078,
      "å¾Ĺ": 1079,
      "åĽł": 1080,
      "åĨħ": 1081,
      "ust": 1082,
      "åĢ": 1083,
      "fe": 1084,
      "åĪ¶": 1085,
      "å¥½": 1086,
      "äº§": 1087,
      "ç³": 1088,
      "um": 1089,
      "act": 1090,
      "ast": 1091,
      "ight": 1092,
      "éĢļ": 1093,
      "s.": 1094,
      "èī": 1095,
      "éķ¿": 1096,
      "æ°´": 1097,
      "éĹ´": 1098,
      "end": 1099,
      "å¼Ģ": 1100,
      "å»": 1101,
      "ould": 1102,
      "In": 1103,
      "ge": 1104,
      "ãĢĭ": 1105,
      "ãĢĬ": 1106,
      "è·": 1107,
      "wor": 1108,
      "do": 1109,
      "up": 1110,
      "éļ": 1111,
      "ard": 1112,
      "ä½¿": 1113,
      "åıĬ": 1114,
      "æľº": 1115,
      "è¯´": 1116,
      "éĩı": 1117,
      "ort": 1118,
      "çĽ¸": 1119,
      "å½ĵ": 1120,
      "ies": 1121,
      "ä¸ī": 1122,
      "æŁ": 1123,
      "ç±": 1124,
      "âĢĻs": 1125,
      "æ´»": 1126,
      "me": 1127,
      "åħ¬": 1128,
      "åĬł": 1129,
      "éĥ½": 1130,
      "çĿ": 1131,
      "ç¨ĭ": 1132,
      "è¶": 1133,
      "æĦı": 1134,
      "ome": 1135,
      "å¢": 1136,
      "éĽ": 1137,
      "ç©": 1138,
      "ç¡": 1139,
      "çĦ": 1140,
      "æĺİ": 1141,
      "åĿ": 1142,
      "èĥ": 1143,
      "but": 1144,
      "åīį": 1145,
      "æľŁ": 1146,
      "å¤©": 1147,
      "æĥħ": 1148,
      "gh": 1149,
      "ä¸Ģä¸ª": 1150,
      "çĤ¹": 1151,
      "æıĲ": 1152,
      "æľĢ": 1153,
      "co": 1154,
      "åı¯ä»¥": 1155,
      "can": 1156,
      "æ°ĳ": 1157,
      "ç¬¬": 1158,
      "ear": 1159,
      "will": 1160,
      "è¡¨": 1161,
      "pr": 1162,
      "ç³»": 1163,
      "ãĢĢãĢĢ": 1164,
      "ally": 1165,
      "ä»£": 1166,
      "é¢ĺ": 1167,
      "æĻ": 1168,
      "ack": 1169,
      "ç¾": 1170,
      "ç´": 1171,
      "ä»İ": 1172,
      "cl": 1173,
      "gr": 1174,
      "çĻ": 1175,
      "any": 1176,
      "ind": 1177,
      "è§£": 1178,
      "æĸ°": 1179,
      "å¸¸": 1180,
      "çķ": 1181,
      "ä¹ł": 1182,
      "èµ·": 1183,
      "go": 1184,
      "çĸ": 1185,
      "ä½į": 1186,
      "has": 1187,
      "çł": 1188,
      "å¹¶": 1189,
      "æĹ¥": 1190,
      "âĢĶ": 1191,
      "æ¶": 1192,
      "èģ": 1193,
      "ç»ĵ": 1194,
      "å»º": 1195,
      "å±ķ": 1196,
      "ç¥": 1197,
      "èĭ": 1198,
      "äºĮ": 1199,
      "ä¿Ŀ": 1200,
      "ci": 1201,
      "æĹł": 1202,
      "ud": 1203,
      "åħ¥": 1204,
      "è®¾": 1205,
      "æĪĳä»¬": 1206,
      "ak": 1207,
      "çĦ¶": 1208,
      "æŀľ": 1209,
      "å¤ĸ": 1210,
      "åŁº": 1211,
      "éľ": 1212,
      "è®¡": 1213,
      "ç¼": 1214,
      "çĶ±": 1215,
      "çĶµ": 1216,
      "éħ": 1217,
      "å§": 1218,
      "ine": 1219,
      "å½¢": 1220,
      "ç®¡": 1221,
      "..": 1222,
      "å¸Ī": 1223,
      "äºĽ": 1224,
      "è¿ĺ": 1225,
      "ough": 1226,
      "sa": 1227,
      "iv": 1228,
      "æŃ£": 1229,
      "å¼ı": 1230,
      "ie": 1231,
      "æģ": 1232,
      "åŃ¦çĶŁ": 1233,
      "æŃ¤": 1234,
      "æľĪ": 1235,
      "ell": 1236,
      "å®ī": 1237,
      "ide": 1238,
      "Th": 1239,
      "__": 1240,
      "èĪ": 1241,
      "æ¡": 1242,
      "çģ": 1243,
      "ç²": 1244,
      "éģĵ": 1245,
      "çĪ": 1246,
      "æ¯Ķ": 1247,
      "ice": 1248,
      "your": 1249,
      "ä½Ĩ": 1250,
      "der": 1251,
      "å°Ĩ": 1252,
      "ure": 1253,
      "çŁ¥": 1254,
      "ich": 1255,
      "èĦ": 1256,
      "day": 1257,
      "çĥ": 1258,
      "åİŁ": 1259,
      "port": 1260,
      "èį": 1261,
      "çľĭ": 1262,
      "è§Ħ": 1263,
      "èµĦ": 1264,
      "age": 1265,
      "å¹³": 1266,
      "tim": 1267,
      "çī¹": 1268,
      "åĪ©": 1269,
      "çĽ®": 1270,
      "est": 1271,
      "è´¨": 1272,
      "è¢": 1273,
      "Ĥ£": 1274,
      "éĶ": 1275,
      "ä¹Ī": 1276,
      "çĿĢ": 1277,
      "my": 1278,
      "able": 1279,
      "bo": 1280,
      "now": 1281,
      "they": 1282,
      "åĲį": 1283,
      "ä»¶": 1284,
      "ç»Ł": 1285,
      "æį®": 1286,
      "åĬ¡": 1287,
      "æł·": 1288,
      "ame": 1289,
      "ck": 1290,
      "ound": 1291,
      "å£": 1292,
      "au": 1293,
      "æ¬¡": 1294,
      "æĦŁ": 1295,
      "åĵģ": 1296,
      "ated": 1297,
      "éĹ®": 1298,
      "ev": 1299,
      "low": 1300,
      "åıĺ": 1301,
      "åįģ": 1302,
      "ach": 1303,
      "å¾Ī": 1304,
      "æ·": 1305,
      "more": 1306,
      "æĽ´": 1307,
      "ire": 1308,
      "å·¥ä½ľ": 1309,
      "éª": 1310,
      "éĩĮ": 1311,
      "å¤Ħ": 1312,
      "$P": 1313,
      "form": 1314,
      "æĶ¿": 1315,
      "èĲ": 1316,
      "ç±»": 1317,
      "åģļ": 1318,
      "çĹħ": 1319,
      "åĲĦ": 1320,
      "èĤ²": 1321,
      "$P$": 1322,
      "ber": 1323,
      "çļĦï¼Į": 1324,
      "ä½ł": 1325,
      "av": 1326,
      "ong": 1327,
      "åĲĳ": 1328,
      "å·±": 1329,
      "comp": 1330,
      "æĮĩ": 1331,
      "ans": 1332,
      "æİ¥": 1333,
      "éĴ": 1334,
      "their": 1335,
      "ç«ĭ": 1336,
      "æĥ³": 1337,
      "ä¿¡": 1338,
      "ä¹ī": 1339,
      "af": 1340,
      "æ®": 1341,
      "ction": 1342,
      "ä¹¦": 1343,
      "who": 1344,
      "æłĩ": 1345,
      "è¯Ĩ": 1346,
      "some": 1347,
      "ake": 1348,
      "èĢĥ": 1349,
      "ore": 1350,
      "èº": 1351,
      "ip": 1352,
      "her": 1353,
      "å¯¼": 1354,
      "è¯Ń": 1355,
      "ç§ĳ": 1356,
      "æº": 1357,
      "ç»Ħ": 1358,
      "å¼º": 1359,
      "å®ĥ": 1360,
      "ä¸¤": 1361,
      "åįķ": 1362,
      "åĮº": 1363,
      "åħ·": 1364,
      "about": 1365,
      "èĩªå·±": 1366,
      "ts": 1367,
      "very": 1368,
      "way": 1369,
      "åĸ": 1370,
      "æľ¯": 1371,
      "ous": 1372,
      "æµģ": 1373,
      "ç¤¾": 1374,
      "æ±Ĥ": 1375,
      "åĳĺ": 1376,
      "è¢«": 1377,
      "è¿Ľè¡Į": 1378,
      "cre": 1379,
      "æ°Ķ": 1380,
      "get": 1381,
      "iz": 1382,
      "work": 1383,
      "åĦ": 1384,
      "ass": 1385,
      "du": 1386,
      "äº¤": 1387,
      "ep": 1388,
      "åŀ": 1389,
      "æ²»": 1390,
      "--": 1391,
      "which": 1392,
      "æĢĿ": 1393,
      "ary": 1394,
      "è®¤": 1395,
      "off": 1396,
      "åİ»": 1397,
      "year": 1398,
      "åŃĹ": 1399,
      "ä¼ł": 1400,
      "éĩĳ": 1401,
      "ail": 1402,
      "ite": 1403,
      "ll": 1404,
      "An": 1405,
      "éľĢ": 1406,
      "own": 1407,
      "It": 1408,
      "other": 1409,
      "bl": 1410,
      "çĬ": 1411,
      "ä»»": 1412,
      "è¯¾": 1413,
      "ï¼Ł": 1414,
      "èº«": 1415,
      "æ²¡": 1416,
      "es,": 1417,
      "è¥": 1418,
      "åıª": 1419,
      "ence": 1420,
      "St": 1421,
      "é©": 1422,
      "ç¾İ": 1423,
      "æ¯ı": 1424,
      "thing": 1425,
      "æīĭ": 1426,
      "ish": 1427,
      "è±": 1428,
      "pre": 1429,
      "åĦ¿": 1430,
      "ç¦": 1431,
      "ood": 1432,
      "åıĳå±ķ": 1433,
      "è®º": 1434,
      "æĿ¡": 1435,
      "åıĹ": 1436,
      "åĽĽ": 1437,
      "åıĪ": 1438,
      "ä¸ĸ": 1439,
      "è¥¿": 1440,
      "èĬĤ": 1441,
      "cont": 1442,
      "ia": 1443,
      "å°ĳ": 1444,
      "éŁ": 1445,
      "é¦": 1446,
      "man": 1447,
      "èī²": 1448,
      "èĻ": 1449,
      "åŃ¦ä¹ł": 1450,
      "ä¸ŃåĽ½": 1451,
      "ace": 1452,
      "str": 1453,
      "br": 1454,
      "Ch": 1455,
      "its": 1456,
      "å®¹": 1457,
      "ser": 1458,
      "ot": 1459,
      "had": 1460,
      "å¸Ĥ": 1461,
      "ï¼Įåľ¨": 1462,
      "è¿Ĳ": 1463,
      "ç¡®": 1464,
      "ance": 1465,
      "||": 1466,
      "åĪĻ": 1467,
      "ï¼Įä¸į": 1468,
      "time": 1469,
      "åĻ": 1470,
      "ick": 1471,
      "like": 1472,
      "ï¼Įè¿Ļ": 1473,
      "èĮ": 1474,
      "over": 1475,
      "åĪ«": 1476,
      "ition": 1477,
      "new": 1478,
      "æķĪ": 1479,
      "æĬĬ": 1480,
      "ase": 1481,
      "éĤ£": 1482,
      "æ»": 1483,
      "sp": 1484,
      "ical": 1485,
      "è¯ģ": 1486,
      "ign": 1487,
      "were": 1488,
      "é»": 1489,
      "part": 1490,
      "ty": 1491,
      "åħĥ": 1492,
      "æĿĥ": 1493,
      "Wh": 1494,
      "èĢģ": 1495,
      "åıĸ": 1496,
      "è¾ĥ": 1497,
      "said": 1498,
      "int": 1499,
      "æĬĢ": 1500,
      "è°ĥ": 1501,
      "dis": 1502,
      "ç¤¾ä¼ļ": 1503,
      "çłĶ": 1504,
      "éĢł": 1505,
      "çº§": 1506,
      "åħ»": 1507,
      "éĵ": 1508,
      "åħĪ": 1509,
      "è£": 1510,
      "é£İ": 1511,
      "ç´ł": 1512,
      "åı£": 1513,
      "ile": 1514,
      "would": 1515,
      "æĶ¶": 1516,
      "been": 1517,
      "pres": 1518,
      "åĻ¨": 1519,
      "æĹ¶ï¼Į": 1520,
      "åıį": 1521,
      "ok": 1522,
      "è§Ĥ": 1523,
      "ree": 1524,
      "å±±": 1525,
      "fer": 1526,
      "åľº": 1527,
      "åħ±": 1528,
      "è®°": 1529,
      "æ£": 1530,
      "We": 1531,
      "there": 1532,
      "è¯»": 1533,
      "éĹ®é¢ĺ": 1534,
      "çº¿": 1535,
      "æĶ¾": 1536,
      "æł¡": 1537,
      "èĩ³": 1538,
      "åĨĻ": 1539,
      "åķ": 1540,
      "æ³¨": 1541,
      "ble": 1542,
      "æł¼": 1543,
      "åŃĺ": 1544,
      "åĩĨ": 1545,
      "è®©": 1546,
      "ark": 1547,
      "æ¸ħ": 1548,
      "å²": 1549,
      "æĮģ": 1550,
      "æ²¡æľī": 1551,
      "æŀĦ": 1552,
      "pos": 1553,
      "å·²": 1554,
      "ï¼Įä½Ĩ": 1555,
      "ef": 1556,
      "ä¸ľ": 1557,
      "åŀĭ": 1558,
      "ple": 1559,
      "aw": 1560,
      "ç¥ŀ": 1561,
      "æķĻèĤ²": 1562,
      "éĹ¨": 1563,
      "ç»Ļ": 1564,
      "just": 1565,
      "èħ": 1566,
      "ph": 1567,
      "æĶ¹": 1568,
      "He": 1569,
      "æĢ»": 1570,
      "è·¯": 1571,
      "åįĹ": 1572,
      "åĽ¾": 1573,
      "than": 1574,
      "tw": 1575,
      "ç§°": 1576,
      "ink": 1577,
      "é£Ł": 1578,
      "also": 1579,
      "when": 1580,
      "od": 1581,
      "ï¼ĮèĢĮ": 1582,
      "fir": 1583,
      "å¢ŀ": 1584,
      "æ´»åĬ¨": 1585,
      "ial": 1586,
      "ren": 1587,
      "å®Į": 1588,
      "å°±æĺ¯": 1589,
      "è¾¾": 1590,
      "cor": 1591,
      "çĽ´": 1592,
      "inter": 1593,
      "å¤į": 1594,
      "cr": 1595,
      "them": 1596,
      "s.Ċ": 1597,
      "ue": 1598,
      "æł¹": 1599,
      "'t": 1600,
      "what": 1601,
      "ç½ĳ": 1602,
      "ä¸ĵ": 1603,
      "éĢī": 1604,
      "y,": 1605,
      "æºĲ": 1606,
      "pt": 1607,
      "äºĶ": 1608,
      "ç©¶": 1609,
      "åĨĽ": 1610,
      "ä¸Ńï¼Į": 1611,
      "çİ¯": 1612,
      "è±¡": 1613,
      "å¿ħ": 1614,
      "ç®¡çĲĨ": 1615,
      "çĻ½": 1616,
      "ç¤º": 1617,
      "è§ģ": 1618,
      "å¤ĩ": 1619,
      "cent": 1620,
      "å¼ķ": 1621,
      "old": 1622,
      "ç²¾": 1623,
      "æĪĺ": 1624,
      "æīį": 1625,
      "çı": 1626,
      "éŁ³": 1627,
      "æµ·": 1628,
      "ens": 1629,
      "é¡¹": 1630,
      "åħī": 1631,
      "æľį": 1632,
      "è¨": 1633,
      "ang": 1634,
      "ï¼Įå¹¶": 1635,
      "éĿŀ": 1636,
      "çľŁ": 1637,
      "çħ": 1638,
      "comm": 1639,
      "å¤´": 1640,
      "æĸĻ": 1641,
      "åĬŁ": 1642,
      "æŃ¥": 1643,
      "çķĮ": 1644,
      "cess": 1645,
      "èĬ±": 1646,
      "åį³": 1647,
      "This": 1648,
      "æ¨": 1649,
      "éĢļè¿ĩ": 1650,
      "åĮħ": 1651,
      "æĬ¥": 1652,
      "æķ´": 1653,
      "å¾ĭ": 1654,
      "ä»Ģ": 1655,
      "å¸¦": 1656,
      "ult": 1657,
      "ä¸»è¦ģ": 1658,
      "å¦Ĥæŀľ": 1659,
      "åĮĹ": 1660,
      "ions": 1661,
      "ç»Ĩ": 1662,
      "ç®Ĺ": 1663,
      "å½±": 1664,
      "è¡Ģ": 1665,
      "éĻ¢": 1666,
      "è½¦": 1667,
      "åĶ": 1668,
      "ful": 1669,
      "know": 1670,
      "into": 1671,
      "è¯¥": 1672,
      "çĬ¶": 1673,
      "æĹ¶éĹ´": 1674,
      "ä½¿çĶ¨": 1675,
      "éľĢè¦ģ": 1676,
      "ä»Ģä¹Ī": 1677,
      "åĲİï¼Į": 1678,
      "è¯ķ": 1679,
      "ater": 1680,
      "æ¡Ī": 1681,
      "åĨµ": 1682,
      "æŁ¥": 1683,
      "å¢ĥ": 1684,
      "åı¸": 1685,
      "she": 1686,
      "åĨ³": 1687,
      "çĭ": 1688,
      "åĽŀ": 1689,
      "åŃ©": 1690,
      "ob": 1691,
      "ä»·": 1692,
      "spe": 1693,
      "éĺ²": 1694,
      "log": 1695,
      "æĸ¹æ³ķ": 1696,
      "åİĨ": 1697,
      "è¨Ģ": 1698,
      "åĪĩ": 1699,
      "ä½ķ": 1700,
      "play": 1701,
      "è½¬": 1702,
      "ï¼Įä»¥": 1703,
      "åĪĽ": 1704,
      "ning": 1705,
      "how": 1706,
      "åı²": 1707,
      "åĳ½": 1708,
      "ï¼Įæĺ¯": 1709,
      "back": 1710,
      "âĢ¦": 1711,
      "æķħ": 1712,
      "éĽĨ": 1713,
      "é¥": 1714,
      "çĶŁæ´»": 1715,
      "ç©º": 1716,
      "ild": 1717,
      "æĺĵ": 1718,
      "Re": 1719,
      "æĬ¤": 1720,
      "sy": 1721,
      "æĸ½": 1722,
      "min": 1723,
      "ting": 1724,
      "æģ¯": 1725,
      "mer": 1726,
      "æµİ": 1727,
      "ry": 1728,
      "ade": 1729,
      "ç§¯": 1730,
      "first": 1731,
      "åĨį": 1732,
      "åıĤ": 1733,
      "çİĩ": 1734,
      "éªĮ": 1735,
      "çłĶç©¶": 1736,
      "es.": 1737,
      "æķĻåŃ¦": 1738,
      "ä¸ŃçļĦ": 1739,
      "ople": 1740,
      "ory": 1741,
      "app": 1742,
      "åı¤": 1743,
      "æ¢": 1744,
      "æĮī": 1745,
      "åĽ½å®¶": 1746,
      "att": 1747,
      "most": 1748,
      "å§ĭ": 1749,
      "æŀģ": 1750,
      "ç¦»": 1751,
      "éĻ¤": 1752,
      "æĸŃ": 1753,
      "æĢģ": 1754,
      "æ·±": 1755,
      "æĤ": 1756,
      "ents": 1757,
      "ook": 1758,
      "ãĢĤè¿Ļ": 1759,
      "åĢ¼": 1760,
      "des": 1761,
      "ç½®": 1762,
      "å¥³": 1763,
      "ian": 1764,
      "prov": 1765,
      "æ®µ": 1766,
      "mon": 1767,
      "ä¼ģ": 1768,
      "èİ": 1769,
      "ä¸ĩ": 1770,
      "row": 1771,
      "ï¼Įä¹Ł": 1772,
      "çİĭ": 1773,
      "ations": 1774,
      "åŃ©åŃĲ": 1775,
      "å®īåħ¨": 1776,
      "ä¾ĭ": 1777,
      "fore": 1778,
      "é¢Ĩ": 1779,
      "enc": 1780,
      "vers": 1781,
      "èĩ´": 1782,
      "reat": 1783,
      "çĲĥ": 1784,
      "ç³»ç»Ł": 1785,
      "ä½İ": 1786,
      "èģĶ": 1787,
      "éļ¾": 1788,
      "use": 1789,
      "åķĨ": 1790,
      "read": 1791,
      "åĵį": 1792,
      "è´¹": 1793,
      "æ¶Ī": 1794,
      "only": 1795,
      "âĢĻt": 1796,
      "æ¼": 1797,
      "ä¸Ģç§į": 1798,
      "è§Ĩ": 1799,
      "ç»ıæµİ": 1800,
      "éĻħ": 1801,
      "cau": 1802,
      "æĶ¯": 1803,
      "å¾·": 1804,
      "åĩł": 1805,
      "è´£": 1806,
      "cur": 1807,
      "two": 1808,
      "çĪ±": 1809,
      "add": 1810,
      "åĳ¨": 1811,
      "è®®": 1812,
      "çĥŃ": 1813,
      "çª": 1814,
      "ä¸Ķ": 1815,
      "people": 1816,
      "may": 1817,
      "è¯į": 1818,
      "bet": 1819,
      "coun": 1820,
      "ç»´": 1821,
      "ä»ĸä»¬": 1822,
      "éĢĤ": 1823,
      "å¤±": 1824,
      "å¤ª": 1825,
      "col": 1826,
      "cho": 1827,
      "____": 1828,
      "fin": 1829,
      "Ne": 1830,
      "çº¦": 1831,
      "èĥ½åĬĽ": 1832,
      ")Ċ": 1833,
      "ä¹Ĳ": 1834,
      "ï¼Įæľī": 1835,
      "ä¼ģä¸ļ": 1836,
      "æĬĢæľ¯": 1837,
      "åŁİ": 1838,
      "èı": 1839,
      "èģĮ": 1840,
      "âĢĵ": 1841,
      "Un": 1842,
      "ï¼ļĊ": 1843,
      "ï¼İ": 1844,
      "ors": 1845,
      "è¯Ŀ": 1846,
      "sel": 1847,
      "æĥħåĨµ": 1848,
      "ãĢĤåľ¨": 1849,
      "see": 1850,
      "rough": 1851,
      "è¦ģæ±Ĥ": 1852,
      "è¯·": 1853,
      "cause": 1854,
      "ed,": 1855,
      "éĩįè¦ģ": 1856,
      "æ¨¡": 1857,
      "ä¸įåĲĮ": 1858,
      "åĮ»": 1859,
      "å±ŀ": 1860,
      "ing,": 1861,
      "æľª": 1862,
      "say": 1863,
      "ä¾Ľ": 1864,
      "èĳ": 1865,
      "åı¯èĥ½": 1866,
      "need": 1867,
      "å¹¼": 1868,
      "gu": 1869,
      "),": 1870,
      "him": 1871,
      "iew": 1872,
      "æīĵ": 1873,
      "åı·": 1874,
      "look": 1875,
      "çļĦäºº": 1876,
      "ual": 1877,
      "hel": 1878,
      "çħ§": 1879,
      "èĮĥ": 1880,
      "incl": 1881,
      "ä»Ĭ": 1882,
      "é©¬": 1883,
      "æ£Ģ": 1884,
      "çŁ¥è¯Ĩ": 1885,
      "åĥ": 1886,
      "åĪĹ": 1887,
      "è¯Ĺ": 1888,
      "éĢŁ": 1889,
      "after": 1890,
      "èĪ¬": 1891,
      "ï¼Įä¸Ģ": 1892,
      "oc": 1893,
      "æµĭ": 1894,
      "bu": 1895,
      "éĩĩ": 1896,
      "é¦ĸ": 1897,
      "çıŃ": 1898,
      "je": 1899,
      "itt": 1900,
      "åħĭ": 1901,
      "ra": 1902,
      "ict": 1903,
      "ç¢": 1904,
      "æĺ¾": 1905,
      "reg": 1906,
      "where": 1907,
      "äººçļĦ": 1908,
      "å¹¿": 1909,
      "èį¯": 1910,
      "And": 1911,
      "èĲ¥": 1912,
      "well": 1913,
      "don": 1914,
      "As": 1915,
      "çĸĹ": 1916,
      "åĬ©": 1917,
      "ating": 1918,
      "å¿«": 1919,
      "æĸ¹éĿ¢": 1920,
      "âĢĿï¼Į": 1921,
      "è¿ĳ": 1922,
      "under": 1923,
      "å¹²": 1924,
      "io": 1925,
      "ä¾¿": 1926,
      "åİĭ": 1927,
      "ubl": 1928,
      "æĹı": 1929,
      "urn": 1930,
      "æİĴ": 1931,
      "ose": 1932,
      "serv": 1933,
      "è¿ĩç¨ĭ": 1934,
      "å¸ĥ": 1935,
      "åŁ¹": 1936,
      "å½±åĵį": 1937,
      "could": 1938,
      "åĬ³": 1939,
      "äººæ°ĳ": 1940,
      "ates": 1941,
      "æħ": 1942,
      "æŀĲ": 1943,
      "åĽłä¸º": 1944,
      "âĳ": 1945,
      "å¡": 1946,
      "med": 1947,
      "fl": 1948,
      "ï¼ĮæĪĳ": 1949,
      "çĮ": 1950,
      "right": 1951,
      "è¶³": 1952,
      "cial": 1953,
      "through": 1954,
      "er,": 1955,
      "æĳ": 1956,
      "è¶Ĭ": 1957,
      "åľŁ": 1958,
      "ious": 1959,
      "å¾Ģ": 1960,
      "âĢĶâĢĶ": 1961,
      "éĥ¨åĪĨ": 1962,
      "æİ¨": 1963,
      "?Ċ": 1964,
      "ï¼ļâĢľ": 1965,
      "æīĢä»¥": 1966,
      "å±Ĥ": 1967,
      "then": 1968,
      "æĪ¿": 1969,
      "lect": 1970,
      "sc": 1971,
      "ç»ĩ": 1972,
      "make": 1973,
      "air": 1974,
      "tt": 1975,
      "ä¾Ŀ": 1976,
      "ä¼ĺ": 1977,
      "åĬŀ": 1978,
      "ek": 1979,
      "åħ¬åı¸": 1980,
      "ä½ľçĶ¨": 1981,
      "come": 1982,
      "want": 1983,
      "åºı": 1984,
      "åĭ": 1985,
      "did": 1986,
      "ener": 1987,
      "åĪĴ": 1988,
      "æĪĸèĢħ": 1989,
      "èĭ±": 1990,
      "éħį": 1991,
      "è£ħ": 1992,
      "åĨľ": 1993,
      "ï¼ģ": 1994,
      "éĻ©": 1995,
      "æĿĲ": 1996,
      "si": 1997,
      "red": 1998,
      "ç±³": 1999,
      "æĸ¯": 2000,
      "down": 2001,
      "çģ«": 2002,
      "åĨħå®¹": 2003,
      "cer": 2004,
      "Com": 2005,
      "dif": 2006,
      "éļı": 2007,
      "è®¸": 2008,
      "dr": 2009,
      "æļ": 2010,
      "æĵ": 2011,
      "every": 2012,
      "äºī": 2013,
      "iss": 2014,
      "åł": 2015,
      "é¾": 2016,
      "ä¸¥": 2017,
      "åıĳçĶŁ": 2018,
      "arch": 2019,
      "æİ§": 2020,
      "æł¹æį®": 2021,
      "æıĲé«ĺ": 2022,
      "Con": 2023,
      "ving": 2024,
      "æķĻå¸Ī": 2025,
      "çļĦãĢĤ": 2026,
      "ise": 2027,
      "these": 2028,
      "é¡»": 2029,
      "For": 2030,
      "å¹¼åĦ¿": 2031,
      "ä¸ĸçķĮ": 2032,
      "å£°": 2033,
      "æĪ·": 2034,
      "è§Ħå®ļ": 2035,
      "ath": 2036,
      "åĪĿ": 2037,
      "ï¼Įåħ¶": 2038,
      "even": 2039,
      "ank": 2040,
      "çīĩ": 2041,
      "å¼ł": 2042,
      "ug": 2043,
      "ason": 2044,
      "If": 2045,
      "rel": 2046,
      "èĩªå·±çļĦ": 2047,
      "ä¸ĢäºĽ": 2048,
      "æ¹": 2049,
      "good": 2050,
      "åĢĻ": 2051,
      "fun": 2052,
      "çİ¯å¢ĥ": 2053,
      "ins": 2054,
      "åĥı": 2055,
      "åĩºçİ°": 2056,
      "âĢĿĊ": 2057,
      "produ": 2058,
      "You": 2059,
      "éĺ³": 2060,
      "åı¥": 2061,
      "æ»¡": 2062,
      "No": 2063,
      "ational": 2064,
      "ject": 2065,
      "Al": 2066,
      "åĲ«": 2067,
      "But": 2068,
      "æ¸¸": 2069,
      "ç»Ń": 2070,
      "uch": 2071,
      "çŁ³": 2072,
      "åĳĬ": 2073,
      "stem": 2074,
      "åįİ": 2075,
      "éĻĲ": 2076,
      "tain": 2077,
      "çĻ¾": 2078,
      "ç¯": 2079,
      "åħħ": 2080,
      "æī¿": 2081,
      "ed.": 2082,
      "çº¢": 2083,
      "let": 2084,
      "å©": 2085,
      "many": 2086,
      "é»Ħ": 2087,
      "æĴ": 2088,
      "a,": 2089,
      "fect": 2090,
      "high": 2091,
      "è¾¹": 2092,
      "æ¯į": 2093,
      "think": 2094,
      "though": 2095,
      "ever": 2096,
      "pers": 2097,
      "ç«ł": 2098,
      "ç¬¬ä¸Ģ": 2099,
      "å®³": 2100,
      "ç»Ħç»ĩ": 2101,
      "ident": 2102,
      "æł¸": 2103,
      "stud": 2104,
      "æ¿": 2105,
      "åĽŃ": 2106,
      "æ¸©": 2107,
      "should": 2108,
      "ities": 2109,
      "æĸĩåĮĸ": 2110,
      "cond": 2111,
      "sup": 2112,
      "æ²³": 2113,
      "land": 2114,
      "åħŃ": 2115,
      "De": 2116,
      "ative": 2117,
      "çĶ»": 2118,
      "because": 2119,
      "vis": 2120,
      "çĽĬ": 2121,
      "che": 2122,
      "ave": 2123,
      "ï¼Įå¯¹": 2124,
      "é¢Ħ": 2125,
      "åĩı": 2126,
      "åħ·æľī": 2127,
      "ä¸įèĥ½": 2128,
      "âĢĿçļĦ": 2129,
      "Â·": 2130,
      "é¸": 2131,
      "è¿ŀ": 2132,
      "|Ċ": 2133,
      "used": 2134,
      "view": 2135,
      "ä¿®": 2136,
      "New": 2137,
      "åħ³ç³»": 2138,
      ":Ċ": 2139,
      "help": 2140,
      "è¯Ħ": 2141,
      "å¿µ": 2142,
      "æĭ¬": 2143,
      "last": 2144,
      "ost": 2145,
      "æĬķ": 2146,
      "again": 2147,
      "ä»ħ": 2148,
      "ific": 2149,
      "!Ċ": 2150,
      "åħ¶ä»ĸ": 2151,
      "è®²": 2152,
      "è§ī": 2153,
      "åģ¥": 2154,
      "å£«": 2155,
      "pol": 2156,
      "åŁºæľ¬": 2157,
      "åĽ´": 2158,
      "line": 2159,
      "call": 2160,
      "mem": 2161,
      "åįı": 2162,
      "æĸ¹å¼ı": 2163,
      "æ±Ł": 2164,
      "åı°": 2165,
      "ress": 2166,
      "è¿Ļä¸ª": 2167,
      "long": 2168,
      "anc": 2169,
      "æĺ¥": 2170,
      "set": 2171,
      "ann": 2172,
      "wr": 2173,
      "sub": 2174,
      "ys": 2175,
      "car": 2176,
      "å°Ķ": 2177,
      "æŃ»": 2178,
      "\"Ċ": 2179,
      "cord": 2180,
      "ss": 2181,
      "å¾ģ": 2182,
      "å¤Ł": 2183,
      "ç¡Ģ": 2184,
      "ç®Ģ": 2185,
      "æ¯Ĵ": 2186,
      "è¿ľ": 2187,
      "åĪĨæŀĲ": 2188,
      "ç§ĳåŃ¦": 2189,
      "æľĿ": 2190,
      ").": 2191,
      "åŁºç¡Ģ": 2192,
      "US": 2193,
      "ä¸»ä¹ī": 2194,
      "ven": 2195,
      "åĽłæŃ¤": 2196,
      "ä¿¡æģ¯": 2197,
      "åħļ": 2198,
      "éĺŁ": 2199,
      "æ¥": 2200,
      "çļĦæĺ¯": 2201,
      "amp": 2202,
      "åŁŁ": 2203,
      "ased": 2204,
      "pect": 2205,
      "åħ´": 2206,
      "ä¼¤": 2207,
      "ç¼ĸ": 2208,
      "åº·": 2209,
      "show": 2210,
      "cle": 2211,
      "ash": 2212,
      "æŃ¢": 2213,
      "åĿĩ": 2214,
      "such": 2215,
      "here": 2216,
      "ä½ľä¸º": 2217,
      "æ¿Ģ": 2218,
      "stand": 2219,
      "sur": 2220,
      "start": 2221,
      "çĹĩ": 2222,
      "èī¯": 2223,
      "çĶŁäº§": 2224,
      "much": 2225,
      "åĲ¬": 2226,
      "æĻ¯": 2227,
      "æķ°æį®": 2228,
      "ret": 2229,
      "less": 2230,
      "ä¸ĢèĪ¬": 2231,
      "ily": 2232,
      "atch": 2233,
      "ä¸ĬçļĦ": 2234,
      "è®¾è®¡": 2235,
      "Se": 2236,
      "ular": 2237,
      "æ±ī": 2238,
      "put": 2239,
      "ä¸Ģå®ļ": 2240,
      "æŁĵ": 2241,
      "è´Ł": 2242,
      "self": 2243,
      "cons": 2244,
      "è§Ĵ": 2245,
      "aking": 2246,
      "éĿĴ": 2247,
      "äº²": 2248,
      "Ar": 2249,
      "çŃĶ": 2250,
      "ton": 2251,
      "alk": 2252,
      "æĹ©": 2253,
      "èĲ½": 2254,
      "å¤§çļĦ": 2255,
      "éĻį": 2256,
      "åŃ¦æł¡": 2257,
      "week": 2258,
      "ility": 2259,
      "ä¸įæĺ¯": 2260,
      "åıĮ": 2261,
      "èµ°": 2262,
      "çĶ±äºİ": 2263,
      "è¶ħ": 2264,
      "uring": 2265,
      "ited": 2266,
      "è¿°": 2267,
      "**": 2268,
      "æľĽ": 2269,
      "å¼Ģå§ĭ": 2270,
      "æ¬¾": 2271,
      "So": 2272,
      "æ¤": 2273,
      "try": 2274,
      "çĨ": 2275,
      "Fr": 2276,
      "å¨": 2277,
      "ange": 2278,
      "ç»ĥ": 2279,
      "ext": 2280,
      "ä½ı": 2281,
      "å·ŀ": 2282,
      "les": 2283,
      "n't": 2284,
      "å¿Ĺ": 2285,
      "è´¢": 2286,
      "includ": 2287,
      "made": 2288,
      "åĲ¦": 2289,
      "æĤ£": 2290,
      "å¿ħé¡»": 2291,
      "åĬ¿": 2292,
      "é¼": 2293,
      "ask": 2294,
      "åįĩ": 2295,
      "åĸĦ": 2296,
      "åĬ³åĬ¨": 2297,
      "ub": 2298,
      "åįķä½į": 2299,
      "sm": 2300,
      "åĲ¸": 2301,
      "ments": 2302,
      "éĤ": 2303,
      "loc": 2304,
      "å¥½çļĦ": 2305,
      "å±ħ": 2306,
      "being": 2307,
      "å±Ģ": 2308,
      "å¸Ŀ": 2309,
      "è¡Įä¸º": 2310,
      "book": 2311,
      "formation": 2312,
      "éħ¸": 2313,
      "En": 2314,
      "ï¼Įä»İ": 2315,
      "ublic": 2316,
      "çľ¼": 2317,
      "requ": 2318,
      "çľģ": 2319,
      "...": 2320,
      "åºľ": 2321,
      "èĢģå¸Ī": 2322,
      "åıĳçİ°": 2323,
      "åĲĥ": 2324,
      "ç»Ī": 2325,
      "I'": 2326,
      "those": 2327,
      "æŀĹ": 2328,
      "mark": 2329,
      "åİĨåı²": 2330,
      "before": 2331,
      "ward": 2332,
      "âĢĿãĢĤ": 2333,
      "æĪĲä¸º": 2334,
      "å¯Ĩ": 2335,
      "åĮħæĭ¬": 2336,
      "å·®": 2337,
      "ï¼Įä½¿": 2338,
      "ax": 2339,
      "Pro": 2340,
      "fol": 2341,
      "æľįåĬ¡": 2342,
      "å½ķ": 2343,
      "pon": 2344,
      "ä¸Ĭï¼Į": 2345,
      "éĿ©": 2346,
      "è®¡ç®Ĺ": 2347,
      "å½¢æĪĲ": 2348,
      "gan": 2349,
      "åħį": 2350,
      "è¡¥": 2351,
      "clo": 2352,
      "system": 2353,
      "è®Ń": 2354,
      "çŃĸ": 2355,
      "å¤ĦçĲĨ": 2356,
      "èīº": 2357,
      "does": 2358,
      "çĭ¬": 2359,
      "æłĳ": 2360,
      "å°½": 2361,
      "äºĨï¼Į": 2362,
      "fi": 2363,
      "led": 2364,
      "åįĥ": 2365,
      "eng": 2366,
      "èĨ": 2367,
      "æĭ©": 2368,
      "ãĢĤâĢĿ": 2369,
      "åħ«": 2370,
      "ved": 2371,
      "æ³¨æĦı": 2372,
      "peri": 2373,
      "chool": 2374,
      "ures": 2375,
      "çºª": 2376,
      "é²": 2377,
      "å®ĺ": 2378,
      "å¯Į": 2379,
      "sure": 2380,
      "velo": 2381,
      "äº§çĶŁ": 2382,
      "èİ·": 2383,
      "ç¨İ": 2384,
      "ff": 2385,
      "èĽ": 2386,
      "ç¯ĩ": 2387,
      "ç¿": 2388,
      "each": 2389,
      "æĢĿæĥ³": 2390,
      "going": 2391,
      "del": 2392,
      "æĢİ": 2393,
      "å¼Ĥ": 2394,
      "gram": 2395,
      "val": 2396,
      "fact": 2397,
      "tri": 2398,
      "å»ºè®¾": 2399,
      "å®¢": 2400,
      "lar": 2401,
      "Jo": 2402,
      "trans": 2403,
      "main": 2404,
      "take": 2405,
      "cour": 2406,
      "æĵį": 2407,
      "while": 2408,
      "æĹ¶åĢĻ": 2409,
      "æ³ķå¾ĭ": 2410,
      "äºĴ": 2411,
      "son": 2412,
      "char": 2413,
      "èĩªçĦ¶": 2414,
      "æłĩåĩĨ": 2415,
      "bus": 2416,
      "æ¦": 2417,
      "hand": 2418,
      "è½»": 2419,
      "ement": 2420,
      "ï¼Įå¦Ĥ": 2421,
      "æįŁ": 2422,
      "åĽ¢": 2423,
      "å®Ŀ": 2424,
      "differ": 2425,
      "ä»¤": 2426,
      "find": 2427,
      "æĭī": 2428,
      "çĽ¸åħ³": 2429,
      "äººåĳĺ": 2430,
      "å®¤": 2431,
      "åı¦": 2432,
      "ï¼Įå°±": 2433,
      "net": 2434,
      "y.": 2435,
      "ç»ľ": 2436,
      "ä¸ĵä¸ļ": 2437,
      "e,": 2438,
      "æ¶²": 2439,
      "run": 2440,
      "ince": 2441,
      "èŀ": 2442,
      "éĢīæĭ©": 2443,
      "è®¤ä¸º": 2444,
      "ãĢĤ$P$": 2445,
      "vent": 2446,
      "éĺ¶": 2447,
      "There": 2448,
      "fam": 2449,
      "az": 2450,
      "Ro": 2451,
      "ç¾¤": 2452,
      "å¾®": 2453,
      "ced": 2454,
      "sign": 2455,
      "åŃĺåľ¨": 2456,
      "ner": 2457,
      "head": 2458,
      "top": 2459,
      "èĦĳ": 2460,
      "ï¼Įä¸º": 2461,
      "person": 2462,
      "ä¹ĭéĹ´": 2463,
      "æıĲä¾Ľ": 2464,
      "num": 2465,
      "æĲ": 2466,
      "alth": 2467,
      "è¯ī": 2468,
      "åĲĮæĹ¶": 2469,
      "äºļ": 2470,
      "ç»ĵæŀĦ": 2471,
      "emp": 2472,
      "çļĦä¸Ģ": 2473,
      "å¸Ĥåľº": 2474,
      "To": 2475,
      "stru": 2476,
      "çļ®": 2477,
      "Amer": 2478,
      "di": 2479,
      "æ¯Ķè¾ĥ": 2480,
      "ï¼ĮæĪĳä»¬": 2481,
      "éĥ½æĺ¯": 2482,
      "ings": 2483,
      "years": 2484,
      "è½½": 2485,
      "ly,": 2486,
      "æĬĹ": 2487,
      "point": 2488,
      "ä¸ĥ": 2489,
      "Americ": 2490,
      "æĻ®": 2491,
      "æĺŁ": 2492,
      "oup": 2493,
      "jo": 2494,
      "Le": 2495,
      "leg": 2496,
      "åį´": 2497,
      "å·²ç»ı": 2498,
      "vel": 2499,
      "Cl": 2500,
      "çĪ¶": 2501,
      "åįĬ": 2502,
      "ween": 2503,
      "ï¼Įè¿ĺ": 2504,
      "è¾ĵ": 2505,
      "ç¬¬äºĮ": 2506,
      "ices": 2507,
      "det": 2508,
      "å·¥ç¨ĭ": 2509,
      "They": 2510,
      "great": 2511,
      "life": 2512,
      "ually": 2513,
      "On": 2514,
      "ç»§": 2515,
      "world": 2516,
      "æī§": 2517,
      "å¯Ł": 2518,
      "å¤§åŃ¦": 2519,
      "çķĻ": 2520,
      "æ²»çĸĹ": 2521,
      "lead": 2522,
      "really": 2523,
      "åĪ°äºĨ": 2524,
      "æŁĲ": 2525,
      "sim": 2526,
      "èĥŀ": 2527,
      "åĿļ": 2528,
      "åĩ»": 2529,
      "ship": 2530,
      "vol": 2531,
      "ä¸¾": 2532,
      "ç²¾ç¥ŀ": 2533,
      "åĬŁèĥ½": 2534,
      "å©ļ": 2535,
      "çĽĳ": 2536,
      "a.": 2537,
      "velop": 2538,
      "iness": 2539,
      "ä¼Ĺ": 2540,
      "å¹´ï¼Į": 2541,
      "ing.": 2542,
      "å¾Īå¤ļ": 2543,
      "çªģ": 2544,
      "æĿ¥ï¼Į": 2545,
      "ä»¥åıĬ": 2546,
      "still": 2547,
      "three": 2548,
      "éĶĻ": 2549,
      "æĿ¿": 2550,
      "ç¼º": 2551,
      "è¡¨çİ°": 2552,
      "arm": 2553,
      "æİ§åĪ¶": 2554,
      "åıĭ": 2555,
      "æį¢": 2556,
      "als": 2557,
      "ï¼īĊ": 2558,
      "team": 2559,
      "care": 2560,
      "çĹĽ": 2561,
      "å®ŀéĻħ": 2562,
      "çł´": 2563,
      "æľ¨": 2564,
      "ä¸ªäºº": 2565,
      "cut": 2566,
      "èĴ": 2567,
      "home": 2568,
      "åºĶçĶ¨": 2569,
      "åĽº": 2570,
      "nâĢĻt": 2571,
      "Br": 2572,
      "ç½ĳç»ľ": 2573,
      "information": 2574,
      "ers,": 2575,
      "ä¸ĭï¼Į": 2576,
      "ics": 2577,
      "åĤ": 2578,
      "test": 2579,
      "xt": 2580,
      "side": 2581,
      "æ²¹": 2582,
      "S.": 2583,
      "pri": 2584,
      "çķ¥": 2585,
      "çļĦâĢľ": 2586,
      "è¿ĲåĬ¨": 2587,
      "çº³": 2588,
      "æĿ¡ä»¶": 2589,
      "çĶ²": 2590,
      "ves": 2591,
      "sing": 2592,
      "fil": 2593,
      ",\"": 2594,
      "èįī": 2595,
      "Be": 2596,
      "åį«": 2597,
      "å®¡": 2598,
      "è´£ä»»": 2599,
      "ä¿ĿæĬ¤": 2600,
      "real": 2601,
      "ah": 2602,
      "same": 2603,
      "light": 2604,
      "between": 2605,
      "è¿ĻäºĽ": 2606,
      "ouse": 2607,
      "æĪĳåĽ½": 2608,
      "place": 2609,
      "ç«¯": 2610,
      "best": 2611,
      "dec": 2612,
      "list": 2613,
      "çĽ®æłĩ": 2614,
      "åĪ¶åº¦": 2615,
      "å¯¹äºİ": 2616,
      "too": 2617,
      "åİ¿": 2618,
      "äººä»¬": 2619,
      "åĲĪåĲĮ": 2620,
      "present": 2621,
      "par": 2622,
      "irect": 2623,
      "child": 2624,
      "æŃĮ": 2625,
      "around": 2626,
      "å°Ħ": 2627,
      "äºĨè§£": 2628,
      "å¤«": 2629,
      "ä»½": 2630,
      "æĽ²": 2631,
      "inst": 2632,
      "gl": 2633,
      "æī¾": 2634,
      "Ad": 2635,
      "é¢Ŀ": 2636,
      "åĪ¤": 2637,
      "ç»Ĩèĥŀ": 2638,
      "åŁ¹åħ»": 2639,
      "åį°": 2640,
      "åºĶè¯¥": 2641,
      "follow": 2642,
      "Tr": 2643,
      "ï¼ŁĊ": 2644,
      "æ¼Ķ": 2645,
      "Sh": 2646,
      "æĿĳ": 2647,
      "post": 2648,
      "sk": 2649,
      "çİ°åľ¨": 2650,
      "åı¶": 2651,
      "How": 2652,
      "èĹ": 2653,
      "cept": 2654,
      "miss": 2655,
      "æīĢæľī": 2656,
      "dy": 2657,
      "both": 2658,
      "åĲĦç§į": 2659,
      "ãĢĳ": 2660,
      "Ph": 2661,
      "æŃ¦": 2662,
      "å§Ķ": 2663,
      "å¸®": 2664,
      "ittle": 2665,
      "ivers": 2666,
      "åģ¥åº·": 2667,
      "She": 2668,
      "å²ģ": 2669,
      "ww": 2670,
      "ãĢĲ": 2671,
      "å·¦": 2672,
      "èĥ½å¤Ł": 2673,
      "ower": 2674,
      "found": 2675,
      "æĭħ": 2676,
      "åĸľ": 2677,
      "åĪ©çĶ¨": 2678,
      "lot": 2679,
      "ï¼Įå®ĥ": 2680,
      "ç£": 2681,
      "æ½": 2682,
      "bre": 2683,
      "åºķ": 2684,
      "æľīåħ³": 2685,
      "ä¸´": 2686,
      "åłĤ": 2687,
      "çŁŃ": 2688,
      "game": 2689,
      "çĲĨè®º": 2690,
      "ways": 2691,
      "èĤ¡": 2692,
      "åĪ»": 2693,
      "å®ŀçİ°": 2694,
      "äººï¼Į": 2695,
      "åįł": 2696,
      "æĶ¿åºľ": 2697,
      "ç¬Ķ": 2698,
      "åı³": 2699,
      "atter": 2700,
      "e.": 2701,
      "åĳ³": 2702,
      "ç§»": 2703,
      "åĵª": 2704,
      "æĿİ": 2705,
      "cap": 2706,
      "åĳ¢": 2707,
      "éĨ": 2708,
      "èĳĹ": 2709,
      "äº¬": 2710,
      "program": 2711,
      "sol": 2712,
      "äºĨãĢĤ": 2713,
      "ten": 2714,
      "è¿Ļæł·": 2715,
      "var": 2716,
      "ms": 2717,
      "----": 2718,
      "report": 2719,
      "æı¡": 2720,
      "eld": 2721,
      "gener": 2722,
      "åľ°åĮº": 2723,
      "çĤİ": 2724,
      "ä¹Ŀ": 2725,
      "å¤§å®¶": 2726,
      "ation,": 2727,
      "åį±": 2728,
      "çĵ": 2729,
      "ä»ĺ": 2730,
      "éĶĢ": 2731,
      "çĩ": 2732,
      "ature": 2733,
      "ï¼īï¼Į": 2734,
      "éĢłæĪĲ": 2735,
      "ional": 2736,
      "åºŃ": 2737,
      "éĥ¨éĹ¨": 2738,
      "using": 2739,
      "åºĶå½ĵ": 2740,
      "ä»ĭ": 2741,
      "é£ŀ": 2742,
      "âĢĺ": 2743,
      "èĥĮ": 2744,
      "äº§åĵģ": 2745,
      "æ¤į": 2746,
      "search": 2747,
      "got": 2748,
      "riend": 2749,
      "second": 2750,
      "ft": 2751,
      "å»ºç«ĭ": 2752,
      "develop": 2753,
      "ider": 2754,
      "Ex": 2755,
      "ER": 2756,
      "exam": 2757,
      "éħĴ": 2758,
      "ç¬¦": 2759,
      "çĶ³": 2760,
      "èĭ¥": 2761,
      "commun": 2762,
      "åħ¸": 2763,
      "dat": 2764,
      "è´¨éĩı": 2765,
      "few": 2766,
      "åİŁåĽł": 2767,
      "ç»Ŀ": 2768,
      "èĻ½": 2769,
      "èŀį": 2770,
      "Co": 2771,
      "unt": 2772,
      "open": 2773,
      "ma": 2774,
      "ä¿ĥ": 2775,
      "rent": 2776,
      "åħµ": 2777,
      "support": 2778,
      "issu": 2779,
      "akes": 2780,
      "ion,": 2781,
      "çĸ¾": 2782,
      "site": 2783,
      "è·µ": 2784,
      "plic": 2785,
      "äºĳ": 2786,
      "éļľ": 2787,
      "ä¼¼": 2788,
      "ç½Ĺ": 2789,
      "è¿Ļç§į": 2790,
      "çĽ´æİ¥": 2791,
      "dist": 2792,
      "Mar": 2793,
      "happ": 2794,
      "IâĢĻ": 2795,
      "ese": 2796,
      "little": 2797,
      "æ¦Ĥ": 2798,
      "å¾ħ": 2799,
      "è§£åĨ³": 2800,
      "ord": 2801,
      "å¥¹": 2802,
      "éĤ£ä¹Ī": 2803,
      "opt": 2804,
      "IN": 2805,
      "é¾Ļ": 2806,
      "What": 2807,
      "å¦Ī": 2808,
      "æī¹": 2809,
      "æĻº": 2810,
      "giv": 2811,
      "èµĦæºĲ": 2812,
      "åħ·ä½ĵ": 2813,
      "sĊ": 2814,
      "çĽĺ": 2815,
      "éĺħ": 2816,
      "Pr": 2817,
      "æĿĲæĸĻ": 2818,
      "å¢ŀåĬł": 2819,
      "That": 2820,
      "ale": 2821,
      "month": 2822,
      "ied": 2823,
      "åıĺåĮĸ": 2824,
      "åĲĹ": 2825,
      "respon": 2826,
      "å½¢å¼ı": 2827,
      "different": 2828,
      "ä½Ļ": 2829,
      "state": 2830,
      "çŁ¥éģĵ": 2831,
      "ãĢĤä½Ĩ": 2832,
      "ense": 2833,
      "éĿŀå¸¸": 2834,
      "ired": 2835,
      "æİĮ": 2836,
      "æĢ¥": 2837,
      "åĶĲ": 2838,
      "éĩĬ": 2839,
      "Is": 2840,
      "å¿ĥçĲĨ": 2841,
      "é½": 2842,
      "Gr": 2843,
      "ç¾İåĽ½": 2844,
      "press": 2845,
      "es.Ċ": 2846,
      "free": 2847,
      "å¯¼èĩ´": 2848,
      "ï¼Įåı¯": 2849,
      "ç»ĵåĲĪ": 2850,
      "ness": 2851,
      "rest": 2852,
      "bit": 2853,
      "æıĲåĩº": 2854,
      "æĽ¾": 2855,
      "å¦Ĥä½ķ": 2856,
      "å®ĮæĪĲ": 2857,
      "çŃĳ": 2858,
      "ä¹ŁãĢĤ": 2859,
      "éĵ¶": 2860,
      "èĭı": 2861,
      "è¯Ńè¨Ģ": 2862,
      "school": 2863,
      "prof": 2864,
      "åıªæľī": 2865,
      "âĢ¦âĢ¦": 2866,
      "æ³¢": 2867,
      "å®Ĺ": 2868,
      "pass": 2869,
      "æ¬¢": 2870,
      "é»ĳ": 2871,
      "ä¸¤ä¸ª": 2872,
      "åı«": 2873,
      "group": 2874,
      "pur": 2875,
      "é¡¹çĽ®": 2876,
      "os": 2877,
      "è½¯": 2878,
      "ger": 2879,
      "room": 2880,
      "è¶£": 2881,
      "win": 2882,
      "during": 2883,
      "design": 2884,
      "ï¼Įåı¯ä»¥": 2885,
      "quest": 2886,
      "All": 2887,
      "friend": 2888,
      "éĢģ": 2889,
      "public": 2890,
      "éª¨": 2891,
      "æİ¢": 2892,
      "tech": 2893,
      "çīĪ": 2894,
      "å®Ī": 2895,
      "ize": 2896,
      "ital": 2897,
      "feel": 2898,
      "r.": 2899,
      "ç½ª": 2900,
      "è¯´ï¼Į": 2901,
      "ç§¯æŀģ": 2902,
      "å®ŀè·µ": 2903,
      "contin": 2904,
      "è¯¯": 2905,
      "ï¼ĮæīĢä»¥": 2906,
      "éģ¿": 2907,
      "cover": 2908,
      "ç´¢": 2909,
      "won": 2910,
      "ä»¥ä¸Ĭ": 2911,
      "ä¸ºäºĨ": 2912,
      "big": 2913,
      "éĴĪ": 2914,
      "another": 2915,
      "provid": 2916,
      "name": 2917,
      "çĶļ": 2918,
      "éĢĲ": 2919,
      "æ°´å¹³": 2920,
      "gest": 2921,
      "ä¹Łæĺ¯": 2922,
      "å½Ĵ": 2923,
      "ï¼Įè®©": 2924,
      "è®¡åĪĴ": 2925,
      "next": 2926,
      "æķ£": 2927,
      "When": 2928,
      "Inter": 2929,
      "æĸĩä»¶": 2930,
      "åģ¿": 2931,
      "order": 2932,
      "vi": 2933,
      "å¼ķèµ·": 2934,
      "ä»£è¡¨": 2935,
      "æ°ĳæĹı": 2936,
      "oper": 2937,
      "é¦Ļ": 2938,
      "ä»¥ä¸ĭ": 2939,
      "dri": 2940,
      "å°ģ": 2941,
      "æ£ĢæŁ¥": 2942,
      "incre": 2943,
      "åľ°æĸ¹": 2944,
      "ris": 2945,
      "fic": 2946,
      "partic": 2947,
      "ized": 2948,
      "ator": 2949,
      "vest": 2950,
      "law": 2951,
      ".\"Ċ": 2952,
      "enter": 2953,
      "èĤī": 2954,
      "rist": 2955,
      "plan": 2956,
      "çĲĨè§£": 2957,
      "éº": 2958,
      "ç»¿": 2959,
      "eas": 2960,
      "æĿĤ": 2961,
      "ä¸°": 2962,
      "ically": 2963,
      "è®¸å¤ļ": 2964,
      "æħ¢": 2965,
      "aph": 2966,
      "èıĮ": 2967,
      "Col": 2968,
      "æĶ¿æ²»": 2969,
      "åĲĮåŃ¦": 2970,
      "æŃ£ç¡®": 2971,
      "çŃīãĢĤ": 2972,
      "åģĩ": 2973,
      "å®«": 2974,
      "åīĤ": 2975,
      "day,": 2976,
      "é¥®": 2977,
      "åĬłå¼º": 2978,
      "æ¯Ľ": 2979,
      "èľ": 2980,
      "bers": 2981,
      "å¸Į": 2982,
      "çļĩ": 2983,
      "oto": 2984,
      "ç´§": 2985,
      "allow": 2986,
      "gre": 2987,
      "ude": 2988,
      "è¿Ļä¸Ģ": 2989,
      "loy": 2990,
      "äºĪ": 2991,
      "cri": 2992,
      "exp": 2993,
      "æĿ¥çļĦ": 2994,
      "éĩĩçĶ¨": 2995,
      "business": 2996,
      "bro": 2997,
      "ç«Ļ": 2998,
      "åį¡": 2999,
      "interest": 3000,
      "ric": 3001,
      "season": 3002,
      "soci": 3003,
      "against": 3004,
      "æľīæķĪ": 3005,
      "ä¹°": 3006,
      "came": 3007,
      "AN": 3008,
      "ç»ĵæŀľ": 3009,
      "ces": 3010,
      "product": 3011,
      "å®£": 3012,
      "AT": 3013,
      "national": 3014,
      "ï¼Įä»ĸ": 3015,
      "since": 3016,
      "éŃ": 3017,
      "something": 3018,
      "ä»·åĢ¼": 3019,
      "process": 3020,
      "ages": 3021,
      "ather": 3022,
      "ork": 3023,
      "night": 3024,
      "çģµ": 3025,
      "æīįèĥ½": 3026,
      "it.": 3027,
      "æĤ£èĢħ": 3028,
      "ont": 3029,
      "ared": 3030,
      "ï¼Įåį³": 3031,
      "ç¨ĭåºı": 3032,
      "contro": 3033,
      "Pl": 3034,
      "ross": 3035,
      "æĢ§çļĦ": 3036,
      "including": 3037,
      "water": 3038,
      "market": 3039,
      "Or": 3040,
      "äººç±»": 3041,
      "four": 3042,
      "éĶ®": 3043,
      "åŃ¦çĶŁçļĦ": 3044,
      "import": 3045,
      "è´§": 3046,
      "å·´": 3047,
      "é±": 3048,
      "word": 3049,
      ".com": 3050,
      "must": 3051,
      "ient": 3052,
      "better": 3053,
      "çļĦæĹ¶åĢĻ": 3054,
      "number": 3055,
      "æĺ¯åĲ¦": 3056,
      "sit": 3057,
      "çī¹åĪ«": 3058,
      "ished": 3059,
      "æĵįä½ľ": 3060,
      ",âĢĿ": 3061,
      "çĻ»": 3062,
      "ä¸Ģæ¬¡": 3063,
      "illion": 3064,
      "gy": 3065,
      "ped": 3066,
      "ç¦ı": 3067,
      "keep": 3068,
      "never": 3069,
      "ç¤¼": 3070,
      "çĨŁ": 3071,
      "uck": 3072,
      "appe": 3073,
      "met": 3074,
      "é¡º": 3075,
      "éģĹ": 3076,
      "é±¼": 3077,
      "vir": 3078,
      "experi": 3079,
      "love": 3080,
      "ush": 3081,
      "èĭ¦": 3082,
      "organ": 3083,
      "çī¹çĤ¹": 3084,
      "éĢĢ": 3085,
      "ä¹ĭä¸Ģ": 3086,
      "avail": 3087,
      "pay": 3088,
      "åħ°": 3089,
      "iting": 3090,
      "çİ°ä»£": 3091,
      "ç»¼": 3092,
      "proble": 3093,
      "å®¶éķ¿": 3094,
      "qual": 3095,
      "direct": 3096,
      "wom": 3097,
      "æĢİä¹Ī": 3098,
      "ç¬¬ä¸ī": 3099,
      "hard": 3100,
      "oth": 3101,
      "æ´²": 3102,
      "ï½": 3103,
      "My": 3104,
      "æĮīçħ§": 3105,
      "without": 3106,
      "atur": 3107,
      "sum": 3108,
      "ames": 3109,
      "por": 3110,
      "å¸®åĬ©": 3111,
      "ç§ĭ": 3112,
      "çĺ": 3113,
      "rece": 3114,
      ".,": 3115,
      "èīºæľ¯": 3116,
      "nor": 3117,
      "AR": 3118,
      "ï¼Įæ¯ı": 3119,
      "vo": 3120,
      "æĪı": 3121,
      "è®¤è¯Ĩ": 3122,
      "power": 3123,
      "åĢŁ": 3124,
      "uc": 3125,
      "è®¾å¤ĩ": 3126,
      "çłģ": 3127,
      "å®ĭ": 3128,
      "hn": 3129,
      "comple": 3130,
      "æĹ¶æľŁ": 3131,
      "æ°§": 3132,
      "æĥ¯": 3133,
      "ä¸Ģæł·": 3134,
      "äº¤éĢļ": 3135,
      "health": 3136,
      "pot": 3137,
      "possi": 3138,
      "small": 3139,
      "gover": 3140,
      "ä¸Ńå¿ĥ": 3141,
      "effect": 3142,
      "stat": 3143,
      "æĿ¾": 3144,
      "æĦ¿": 3145,
      "éĽ¨": 3146,
      "ä¸įæĸŃ": 3147,
      "èĽĭ": 3148,
      "ç¥ĸ": 3149,
      "Coun": 3150,
      "ä¹ħ": 3151,
      "åĿĹ": 3152,
      "lear": 3153,
      "åħ³äºİ": 3154,
      "ism": 3155,
      "er.": 3156,
      "æĹ¢": 3157,
      "it's": 3158,
      "ï¼ĽĊ": 3159,
      "è¿ĩĊ": 3160,
      "éĺħè¯»": 3161,
      "build": 3162,
      "class": 3163,
      "aren": 3164,
      "éĺ´": 3165,
      "________": 3166,
      "åģľ": 3167,
      "level": 3168,
      "beli": 3169,
      "perform": 3170,
      "ability": 3171,
      "ready": 3172,
      "pat": 3173,
      "seem": 3174,
      "éĿĻ": 3175,
      "ç¡¬": 3176,
      "ç³ĸ": 3177,
      "è¯¢": 3178,
      "è¿ĺæĺ¯": 3179,
      "é¢ĳ": 3180,
      "dep": 3181,
      "ball": 3182,
      "gin": 3183,
      "æĮ¥": 3184,
      "web": 3185,
      "å®¹æĺĵ": 3186,
      "mus": 3187,
      "ç«¥": 3188,
      "May": 3189,
      "åĽ½éĻħ": 3190,
      "ç¨³": 3191,
      "å»ºçŃĳ": 3192,
      "è¿½": 3193,
      "è¡¨ç¤º": 3194,
      "ib": 3195,
      "ï¼Įè¦ģ": 3196,
      "iversity": 3197,
      "çĦ¶åĲİ": 3198,
      "face": 3199,
      "åıĬæĹ¶": 3200,
      "ä¹¡": 3201,
      "çĬ¯": 3202,
      "çī©è´¨": 3203,
      "mar": 3204,
      "ON": 3205,
      "At": 3206,
      "might": 3207,
      "æ°ı": 3208,
      "è¿Ľåħ¥": 3209,
      "åĲ¯": 3210,
      "aim": 3211,
      "ution": 3212,
      "åĪĳ": 3213,
      "æĦıè¯Ĩ": 3214,
      "éĵģ": 3215,
      "Car": 3216,
      "ä»į": 3217,
      "spec": 3218,
      "don't": 3219,
      "æĸ°çļĦ": 3220,
      "ä¼łç»Ł": 3221,
      "cu": 3222,
      "äº«": 3223,
      "Ser": 3224,
      "change": 3225,
      "lin": 3226,
      "adv": 3227,
      "U.": 3228,
      "Bl": 3229,
      "åħ±åĲĮ": 3230,
      "åĺ": 3231,
      "è¿Ŀ": 3232,
      "æ¸Ĳ": 3233,
      "//": 3234,
      "æī§è¡Į": 3235,
      "case": 3236,
      "ird": 3237,
      "æıı": 3238,
      "lim": 3239,
      "nment": 3240,
      "èĢĥè¯ķ": 3241,
      "grow": 3242,
      "å½©": 3243,
      "åĨ²": 3244,
      "company": 3245,
      "åĪĺ": 3246,
      "çĶŁçī©": 3247,
      "å¾ĹåĪ°": 3248,
      "éģĩ": 3249,
      ".âĢĿĊ": 3250,
      "èº«ä½ĵ": 3251,
      "gen": 3252,
      "cell": 3253,
      "available": 3254,
      "éĺ¶æ®µ": 3255,
      "åľĨ": 3256,
      "ä¸ĢãĢģ": 3257,
      "based": 3258,
      "å¼Ģå±ķ": 3259,
      "rele": 3260,
      "èµĽ": 3261,
      "èĵ": 3262,
      "la": 3263,
      "....": 3264,
      "bal": 3265,
      "ä¸ĢæŃ¥": 3266,
      "åĳ¼": 3267,
      "turn": 3268,
      "åŃ£": 3269,
      "men": 3270,
      "èĹı": 3271,
      "ele": 3272,
      "fort": 3273,
      "çĶ¨äºİ": 3274,
      "John": 3275,
      "æľºæŀĦ": 3276,
      "çĽ®åīį": 3277,
      "ä¸¥éĩį": 3278,
      "oot": 3279,
      "æ´¾": 3280,
      "uss": 3281,
      "appro": 3282,
      "Fe": 3283,
      "ES": 3284,
      "è¾¾åĪ°": 3285,
      "A.": 3286,
      "p.": 3287,
      "èŃ": 3288,
      "on,": 3289,
      "çļĦå¤§": 3290,
      "æŃ£å¸¸": 3291,
      "position": 3292,
      "fac": 3293,
      "ues": 3294,
      "move": 3295,
      "äº¡": 3296,
      "'re": 3297,
      "ey": 3298,
      "ç¡®å®ļ": 3299,
      "æĦıä¹ī": 3300,
      ").Ċ": 3301,
      "I'm": 3302,
      "éĴ±": 3303,
      "å¤ľ": 3304,
      "æī©": 3305,
      "itch": 3306,
      "åĽ°": 3307,
      "æķ°åŃ¦": 3308,
      "åĨ·": 3309,
      "Res": 3310,
      "ï¼ĮæľĢ": 3311,
      "away": 3312,
      "å³": 3313,
      "things": 3314,
      "ç»¼åĲĪ": 3315,
      "IS": 3316,
      "bed": 3317,
      "è´Ń": 3318,
      "éĴŁ": 3319,
      "def": 3320,
      "ever,": 3321,
      "è¡ĮæĶ¿": 3322,
      "ï½ŀ": 3323,
      "always": 3324,
      "ä¸Ģèµ·": 3325,
      "ago": 3326,
      "èĻļ": 3327,
      "èıľ": 3328,
      "å¥ĩ": 3329,
      "ters": 3330,
      "ï¼Įå¦Ĥæŀľ": 3331,
      "ably": 3332,
      "åĽłç´ł": 3333,
      "æĸĹ": 3334,
      "ç»©": 3335,
      "AS": 3336,
      "current": 3337,
      "æĮĩå¯¼": 3338,
      "çĶ·": 3339,
      "it,": 3340,
      "éĺ¿": 3341,
      "action": 3342,
      "hist": 3343,
      "çĶŁåĳ½": 3344,
      "Man": 3345,
      "èĮ¶": 3346,
      "With": 3347,
      "manag": 3348,
      "åĿı": 3349,
      "æīĺ": 3350,
      "ix": 3351,
      "çĶļèĩ³": 3352,
      "æĬķèµĦ": 3353,
      "åŁİå¸Ĥ": 3354,
      "ä¹łæĥ¯": 3355,
      "çĶ³è¯·": 3356,
      "Ap": 3357,
      "ed.Ċ": 3358,
      "å¹´çļĦ": 3359,
      "ier": 3360,
      "èĨľ": 3361,
      "åŃĶ": 3362,
      "ï¼ĮåıĪ": 3363,
      "è°Ī": 3364,
      "pop": 3365,
      "bor": 3366,
      "thor": 3367,
      "ï¼Įä½Ĩæĺ¯": 3368,
      "å±ŀäºİ": 3369,
      "hold": 3370,
      "æ³ķéĻ¢": 3371,
      "å»¶": 3372,
      "ation.": 3373,
      "Âł": 3374,
      "æľĭ": 3375,
      "ars": 3376,
      "logy": 3377,
      "èĸ": 3378,
      "èĮĥåĽ´": 3379,
      "ç§°ä¸º": 3380,
      "è§¦": 3381,
      "æİª": 3382,
      "hum": 3383,
      "return": 3384,
      "count": 3385,
      "æĩ": 3386,
      "çĸ«": 3387,
      "ä»ĸçļĦ": 3388,
      "ety": 3389,
      "æľīçļĦ": 3390,
      "åĢº": 3391,
      "outh": 3392,
      "éĩįçĤ¹": 3393,
      "åİŁåĪĻ": 3394,
      "American": 3395,
      "ants": 3396,
      "å¼Ģåıĳ": 3397,
      "left": 3398,
      "ribut": 3399,
      "record": 3400,
      "Af": 3401,
      "æİĮæı¡": 3402,
      "ik": 3403,
      "ä¹İ": 3404,
      "graph": 3405,
      "Do": 3406,
      "prom": 3407,
      "èİ·å¾Ĺ": 3408,
      "data": 3409,
      "å§ĵ": 3410,
      "åĬª": 3411,
      "è´µ": 3412,
      "give": 3413,
      "inal": 3414,
      "åħ¨åĽ½": 3415,
      "åį·": 3416,
      "èĥľ": 3417,
      "å®ŀæĸ½": 3418,
      "è¯´æĺİ": 3419,
      "æĴŃ": 3420,
      "body": 3421,
      "ï¼Įå¤§": 3422,
      "family": 3423,
      "ä»»ä½ķ": 3424,
      "å®¶åºŃ": 3425,
      "itâĢĻs": 3426,
      "tom": 3427,
      "æ¹ĸ": 3428,
      "äºĮãĢģ": 3429,
      "åºĵ": 3430,
      "æĢĢ": 3431,
      "èĻ½çĦ¶": 3432,
      "offer": 3433,
      "é¢Ĩå¯¼": 3434,
      "çĸ¾çĹħ": 3435,
      "meet": 3436,
      "invest": 3437,
      "ä¸įä¼ļ": 3438,
      "hop": 3439,
      "sal": 3440,
      "æķĪæŀľ": 3441,
      "ç§¦": 3442,
      "until": 3443,
      "offic": 3444,
      "ï¼ĮèĢĮä¸Ķ": 3445,
      "éĻĦ": 3446,
      "chang": 3447,
      "ute": 3448,
      "full": 3449,
      "è®¨": 3450,
      "project": 3451,
      "ustom": 3452,
      "ä¹Ļ": 3453,
      "æĻļ": 3454,
      "Ac": 3455,
      "Nor": 3456,
      "ling": 3457,
      "åįļ": 3458,
      "è¯¸": 3459,
      "children": 3460,
      "åĨ³å®ļ": 3461,
      "çº¸": 3462,
      "example": 3463,
      "ä¿ĿéĻ©": 3464,
      "past": 3465,
      "åºĬ": 3466,
      "åĪĩï¼Į": 3467,
      "expect": 3468,
      "æ²Ļ": 3469,
      "tell": 3470,
      "èµĦæĸĻ": 3471,
      "hal": 3472,
      "æ¥¼": 3473,
      "cost": 3474,
      "c.": 3475,
      "talk": 3476,
      "äº®": 3477,
      "æĹ¶ä»£": 3478,
      "çĮ®": 3479,
      "ãĢģâĢľ": 3480,
      "åĬ¨çī©": 3481,
      "bin": 3482,
      "å®ľ": 3483,
      "AM": 3484,
      "è°ĵ": 3485,
      "blo": 3486,
      "ï¼Įä½ł": 3487,
      "å¤ı": 3488,
      "äºĨä¸Ģ": 3489,
      "clear": 3490,
      "consider": 3491,
      "ral": 3492,
      "ove": 3493,
      "ä¾§": 3494,
      "$P$$P$": 3495,
      "çīĽ": 3496,
      "que": 3497,
      "OR": 3498,
      "ä¿ĿæĮģ": 3499,
      "Can": 3500,
      "éĿł": 3501,
      "å¤ĸï¼Į": 3502,
      "ç¼©": 3503,
      "arr": 3504,
      "æĺ¯åľ¨": 3505,
      "ä¸ĸçºª": 3506,
      "key": 3507,
      "äºĭæķħ": 3508,
      "field": 3509,
      "und": 3510,
      "hour": 3511,
      "çĥŁ": 3512,
      "æĺ¯ä¸Ģä¸ª": 3513,
      "çŃ¾": 3514,
      "ç®Ģåįķ": 3515,
      "æĪĲåĬŁ": 3516,
      "sever": 3517,
      "çİ°è±¡": 3518,
      "é¦ĸåħĪ": 3519,
      "åĲİçļĦ": 3520,
      "æľĭåıĭ": 3521,
      "U.S.": 3522,
      "ï¼Įåıª": 3523,
      "åº§": 3524,
      "ç»į": 3525,
      "ists": 3526,
      "èĻĳ": 3527,
      "äººçľĭ": 3528,
      "suc": 3529,
      "æĶ¿çŃĸ": 3530,
      "å¾Ħ": 3531,
      "C.": 3532,
      "conom": 3533,
      "enn": 3534,
      "âĢĻre": 3535,
      "ä¹±": 3536,
      "æ´ĭ": 3537,
      "ãĢĤåħ¶": 3538,
      "important": 3539,
      "University": 3540,
      "ï¼Įå½ĵ": 3541,
      "ç»ıè¿ĩ": 3542,
      "éķĩ": 3543,
      "çĿ¡": 3544,
      "åĬªåĬĽ": 3545,
      "è·Ŀ": 3546,
      "ium": 3547,
      "event": 3548,
      "Me": 3549,
      "æĪĳçļĦ": 3550,
      "ately": 3551,
      "One": 3552,
      "ãĢĤå¦Ĥæŀľ": 3553,
      "plac": 3554,
      "åĩıå°ĳ": 3555,
      "nam": 3556,
      "æ¯ķ": 3557,
      "éĻĪ": 3558,
      "çĿ£": 3559,
      ";Ċ": 3560,
      "dev": 3561,
      "Christ": 3562,
      "åĩĨå¤ĩ": 3563,
      "indow": 3564,
      "reason": 3565,
      "è¿ĺæľī": 3566,
      "ended": 3567,
      "ä¾µ": 3568,
      "æİĪ": 3569,
      "house": 3570,
      "ä¸įåı¯": 3571,
      "istr": 3572,
      "æĺ¯ä¸Ģ": 3573,
      "æĽ°": 3574,
      "ron": 3575,
      "iver": 3576,
      "recent": 3577,
      "å®ŀéªĮ": 3578,
      "ï¼ĮçĶ¨": 3579,
      "Bo": 3580,
      "ä¿ĥè¿Ľ": 3581,
      "ision": 3582,
      "near": 3583,
      "èĦļ": 3584,
      "æ±¡": 3585,
      "ç¥¨": 3586,
      "tem": 3587,
      "ime": 3588,
      "åĪº": 3589,
      "åŃķ": 3590,
      "æķĳ": 3591,
      "cy": 3592,
      "ãĢĤèĢĮ": 3593,
      "sw": 3594,
      "prote": 3595,
      "å¼±": 3596,
      "çļĦåıĳå±ķ": 3597,
      "sof": 3598,
      "course": 3599,
      "ivid": 3600,
      "making": 3601,
      "ster": 3602,
      "coming": 3603,
      "AL": 3604,
      "plain": 3605,
      "nal": 3606,
      "åıĤåĬł": 3607,
      "è·Ł": 3608,
      "å®½": 3609,
      "t.": 3610,
      "éĩıçļĦ": 3611,
      "æĬĺ": 3612,
      "ley": 3613,
      "çİī": 3614,
      "ç»ĦæĪĲ": 3615,
      "è¯¾ç¨ĭ": 3616,
      "ending": 3617,
      "far": 3618,
      "æ¬§": 3619,
      "æĸ¹åĲĳ": 3620,
      "non": 3621,
      "æĿĢ": 3622,
      "ä¿Ĺ": 3623,
      "ä½Ľ": 3624,
      "é½Ĳ": 3625,
      "Mon": 3626,
      "å°ļ": 3627,
      "ç¹": 3628,
      "ä»ª": 3629,
      "èĤĮ": 3630,
      "called": 3631,
      "tract": 3632,
      "ä¸Ńåįİ": 3633,
      "æĶ»": 3634,
      "æĹłæ³ķ": 3635,
      "icle": 3636,
      "å®Įåħ¨": 3637,
      "åĲĽ": 3638,
      "function": 3639,
      "åħħåĪĨ": 3640,
      "ä¸°å¯Į": 3641,
      "é¹": 3642,
      "load": 3643,
      "mot": 3644,
      "æĶ¯æĮģ": 3645,
      "member": 3646,
      "aster": 3647,
      "late": 3648,
      "oney": 3649,
      "æ¥ļ": 3650,
      "åıĹåĪ°": 3651,
      "åī§": 3652,
      "hy": 3653,
      "ies,": 3654,
      "within": 3655,
      "ä½ľèĢħ": 3656,
      "éļıçĿĢ": 3657,
      "ency": 3658,
      "çĥĪ": 3659,
      "å°Ĭ": 3660,
      "æĿŁ": 3661,
      "ers.": 3662,
      "Sy": 3663,
      "ï¼īãĢĤ": 3664,
      "æĸĩç«ł": 3665,
      "m.": 3666,
      "Te": 3667,
      "job": 3668,
      "having": 3669,
      "service": 3670,
      "æİªæĸ½": 3671,
      "large": 3672,
      "jor": 3673,
      "æľ«": 3674,
      "äººçľĭè¿ĩĊ": 3675,
      "government": 3676,
      "ï¼Įå°Ĩ": 3677,
      "é²ľ": 3678,
      "ç¨ĭåº¦": 3679,
      "Sp": 3680,
      "çģŃ": 3681,
      "den": 3682,
      "employ": 3683,
      "ä¸įè¦ģ": 3684,
      "ps": 3685,
      "çĬ¶æĢģ": 3686,
      "kind": 3687,
      "whe": 3688,
      "æĤ¨": 3689,
      "cording": 3690,
      "ca": 3691,
      "èĦī": 3692,
      "ply": 3693,
      "è´Łè´£": 3694,
      "percent": 3695,
      "çļĦäºĭ": 3696,
      "ste": 3697,
      "ç¦ģ": 3698,
      "å°¿": 3699,
      "å´": 3700,
      "åħ¨éĿ¢": 3701,
      "åĬ±": 3702,
      "comes": 3703,
      "èģļ": 3704,
      "tow": 3705,
      "æ¯Ķå¦Ĥ": 3706,
      "bas": 3707,
      "ç»ıéªĮ": 3708,
      "åĪĨä¸º": 3709,
      "è¶ħè¿ĩ": 3710,
      "proper": 3711,
      "çĹĩçĬ¶": 3712,
      "èĦ±": 3713,
      "éĢı": 3714,
      "çĪ¶æ¯į": 3715,
      "æĽ´å¤ļ": 3716,
      "çļĦéĹ®é¢ĺ": 3717,
      "Med": 3718,
      "æĭĽ": 3719,
      "says": 3720,
      "ç«ŀ": 3721,
      "èµ·æĿ¥": 3722,
      "ï¼ĮâĢľ": 3723,
      "elect": 3724,
      "è´¥": 3725,
      "local": 3726,
      "research": 3727,
      "ben": 3728,
      "ç»ıèĲ¥": 3729,
      "ä¿Ŀè¯ģ": 3730,
      "èŃ¦": 3731,
      "æ´Ĺ": 3732,
      "åĪļ": 3733,
      "ï¼ĮåĽłæŃ¤": 3734,
      "å¤®": 3735,
      "photo": 3736,
      "ctor": 3737,
      "ä¹³": 3738,
      "æĬ¥åĳĬ": 3739,
      "ref": 3740,
      "cas": 3741,
      "å¯Ĵ": 3742,
      "ï¼ĮåĽłä¸º": 3743,
      "trad": 3744,
      "çģ¯": 3745,
      "Ste": 3746,
      "addition": 3747,
      "ãĢĤï¼Ī": 3748,
      "èĤł": 3749,
      "äº¦": 3750,
      "å·¥ä¸ļ": 3751,
      "ideo": 3752,
      "è¿Ľä¸ĢæŃ¥": 3753,
      "åį«çĶŁ": 3754,
      "AC": 3755,
      "Jan": 3756,
      "å¨ģ": 3757,
      "è°¢": 3758,
      "é¼ĵ": 3759,
      "æķħäºĭ": 3760,
      "ãĢĤå½ĵ": 3761,
      "åĿļæĮģ": 3762,
      "uro": 3763,
      "vious": 3764,
      "å°¼": 3765,
      "mind": 3766,
      "ond": 3767,
      "å°¤": 3768,
      "working": 3769,
      "åĴ¨": 3770,
      "mean": 3771,
      "bur": 3772,
      "went": 3773,
      "éĻĨ": 3774,
      "è¡£": 3775,
      "bar": 3776,
      "ible": 3777,
      "ä¸įåĲĮçļĦ": 3778,
      "èģĶç³»": 3779,
      "æ°¸": 3780,
      "æ±ĩ": 3781,
      "t,": 3782,
      "Mic": 3783,
      "ho": 3784,
      "çīĻ": 3785,
      "ng": 3786,
      "control": 3787,
      "èļ": 3788,
      "ãĢģãĢĬ": 3789,
      "augh": 3790,
      "mil": 3791,
      "ground": 3792,
      "custom": 3793,
      "activ": 3794,
      "é¡¾": 3795,
      "ä¸ľè¥¿": 3796,
      "train": 3797,
      "éĢĶ": 3798,
      "è§Ĥå¯Ł": 3799,
      "gether": 3800,
      "è¡¡": 3801,
      "åĪĽéĢł": 3802,
      "aid": 3803,
      "ping": 3804,
      "çİ©": 3805,
      "ç©ºéĹ´": 3806,
      "éĿ©åĳ½": 3807,
      "date": 3808,
      "çļĦéĩįè¦ģ": 3809,
      "donâĢĻt": 3810,
      "cal": 3811,
      "fund": 3812,
      "èĶ": 3813,
      "food": 3814,
      "åĤ¨": 3815,
      "After": 3816,
      "åŁ¹è®Ń": 3817,
      "åĿĲ": 3818,
      "i-": 3819,
      "looking": 3820,
      "æģ¶": 3821,
      "ï¼ĮåĪĻ": 3822,
      "enough": 3823,
      "æ··": 3824,
      "æĸĩæĺİ": 3825,
      "pract": 3826,
      "é£Łçī©": 3827,
      "æĶ¹éĿ©": 3828,
      "èĤĿ": 3829,
      "ç¼ĵ": 3830,
      "least": 3831,
      "board": 3832,
      "èµĶ": 3833,
      "ä¾ĭå¦Ĥ": 3834,
      "çĽĸ": 3835,
      "å¦ĩ": 3836,
      "IT": 3837,
      "è®¡ç®Ĺæľº": 3838,
      "million": 3839,
      "åĴ¨è¯¢": 3840,
      "å¸ĮæľĽ": 3841,
      "åıįåºĶ": 3842,
      "çĶ°": 3843,
      "æĺİç¡®": 3844,
      "ç©¿": 3845,
      "è®¾ç½®": 3846,
      "ike": 3847,
      "è§ĦèĮĥ": 3848,
      "æĹ¥æľ¬": 3849,
      "ç¹ģ": 3850,
      "ç§Ģ": 3851,
      "å±ĭ": 3852,
      "æĺİæĺ¾": 3853,
      "today": 3854,
      "åĶ®": 3855,
      "è¡¨è¾¾": 3856,
      "èģĮä¸ļ": 3857,
      "experience": 3858,
      "åıĸå¾Ĺ": 3859,
      "å»ºè®®": 3860,
      "ç»Łä¸Ģ": 3861,
      "æ¡¥": 3862,
      "äº¤æµģ": 3863,
      "éŁ³ä¹Ĳ": 3864,
      "Pres": 3865,
      "Jun": 3866,
      "ä¸½": 3867,
      "special": 3868,
      "çĶµåŃĲ": 3869,
      "ned": 3870,
      "possible": 3871,
      "mit": 3872,
      "æĦŁæŁĵ": 3873,
      "ä½ĵçļĦ": 3874,
      "æ¨¡å¼ı": 3875,
      "éĢŁåº¦": 3876,
      "åŃĻ": 3877,
      "unch": 3878,
      "æŀ¶": 3879,
      "RE": 3880,
      "sl": 3881,
      "II": 3882,
      "çĸĳ": 3883,
      "ä½ĵç³»": 3884,
      "ity,": 3885,
      "certain": 3886,
      "ç´¯": 3887,
      "éĵ¶è¡Į": 3888,
      "åģļå¥½": 3889,
      "æĺ¾ç¤º": 3890,
      "sug": 3891,
      "done": 3892,
      "åĪĽæĸ°": 3893,
      "éĺ»": 3894,
      "å¥¶": 3895,
      "æľºåħ³": 3896,
      "itor": 3897,
      "uary": 3898,
      "è®¤çľŁ": 3899,
      "èĢ³": 3900,
      "claim": 3901,
      "æĶ¹åıĺ": 3902,
      "why": 3903,
      "ï¼īãĢģ": 3904,
      "ç½ļ": 3905,
      "war": 3906,
      "ï¼Įä»İèĢĮ": 3907,
      "short": 3908,
      "éļĲ": 3909,
      "en,": 3910,
      "æĭ¿": 3911,
      "known": 3912,
      "access": 3913,
      "ization": 3914,
      "thod": 3915,
      "ä½ľåĵģ": 3916,
      "è¾ĳ": 3917,
      "æĪĳä»¬çļĦ": 3918,
      "w.": 3919,
      "èĤ¿": 3920,
      "æĢ»ç»ĵ": 3921,
      "éķ¿æľŁ": 3922,
      "together": 3923,
      "éĩİ": 3924,
      "OS": 3925,
      "éĢļå¸¸": 3926,
      "along": 3927,
      "conne": 3928,
      "æ±ł": 3929,
      "å¸ģ": 3930,
      "é¡µ": 3931,
      "èħ¹": 3932,
      "camp": 3933,
      "ä¸īãĢģ": 3934,
      "It's": 3935,
      "æ³Ľ": 3936,
      "htt": 3937,
      "ted": 3938,
      "è¿ĲçĶ¨": 3939,
      "ãĢĤåĽłæŃ¤": 3940,
      "took": 3941,
      "half": 3942,
      "told": 3943,
      "provide": 3944,
      "è¯¾åłĤ": 3945,
      "éĹ»": 3946,
      "ä»»åĬ¡": 3947,
      "è¸": 3948,
      "tal": 3949,
      "ä»ĭç»į": 3950,
      "çļĦæĸ¹æ³ķ": 3951,
      "ull": 3952,
      "check": 3953,
      "mber": 3954,
      "is,": 3955,
      "åıĤä¸İ": 3956,
      "åĨĮ": 3957,
      "æĢ§ï¼Į": 3958,
      "çĳ": 3959,
      "çĹħæ¯Ĵ": 3960,
      "mission": 3961,
      "éĿ¢ç§¯": 3962,
      "ets": 3963,
      "result": 3964,
      "Mc": 3965,
      "ä¼ĳ": 3966,
      "applic": 3967,
      "âĢĿãĢģâĢľ": 3968,
      "Ind": 3969,
      "çī¹å¾ģ": 3970,
      "ä¸Ńå¤®": 3971,
      "aff": 3972,
      "çĽĽ": 3973,
      "Aug": 3974,
      "days": 3975,
      "stor": 3976,
      "æ¢¦": 3977,
      "stop": 3978,
      "Mo": 3979,
      "review": 3980,
      "æĺ¯ä¸Ģç§į": 3981,
      "major": 3982,
      "band": 3983,
      "success": 3984,
      "å®ļçļĦ": 3985,
      "è®Ńç»ĥ": 3986,
      "èĻ«": 3987,
      "å·¨": 3988,
      "==": 3989,
      "five": 3990,
      "é¾Ħ": 3991,
      "ãģ": 3992,
      "åľŁåľ°": 3993,
      "ä½įç½®": 3994,
      "æĸ¹æ¡Ī": 3995,
      "åħ´è¶£": 3996,
      "ä¸ļåĬ¡": 3997,
      "èĥĥ": 3998,
      "nes": 3999,
      "iter": 4000,
      "çľĭåĪ°": 4001,
      "å·¦åı³": 4002,
      "D.": 4003,
      "ina": 4004,
      "åĳ¢ï¼Ł": 4005,
      "èĦĤ": 4006,
      "later": 4007,
      "èĭ±è¯Ń": 4008,
      "dro": 4009,
      "ä¼´": 4010,
      "ference": 4011,
      "ister": 4012,
      "...Ċ": 4013,
      "Cor": 4014,
      "åħ³éĶ®": 4015,
      "ï¼ĮæĬĬ": 4016,
      "éĥ½æľī": 4017,
      "æ®ĭ": 4018,
      "å°±ä¼ļ": 4019,
      "ock": 4020,
      "iday": 4021,
      "è½®": 4022,
      "lection": 4023,
      "://": 4024,
      "By": 4025,
      "å¼ķå¯¼": 4026,
      "include": 4027,
      "ï¼ĮæĽ´": 4028,
      "è®¢": 4029,
      "åįıè®®": 4030,
      "United": 4031,
      "ought": 4032,
      "å²Ľ": 4033,
      "gn": 4034,
      "several": 4035,
      "éģį": 4036,
      "TH": 4037,
      "struct": 4038,
      "live": 4039,
      "ney": 4040,
      "æ®Ĭ": 4041,
      "è¯´ï¼ļâĢľ": 4042,
      "ãĢĢåıĪ": 4043,
      "story": 4044,
      "é¢ĨåŁŁ": 4045,
      "ç»ıå¸¸": 4046,
      "aut": 4047,
      "åİļ": 4048,
      "ç»§ç»Ń": 4049,
      "æ±½": 4050,
      "æ²ī": 4051,
      "ãĢĤå¦Ĥ": 4052,
      "problem": 4053,
      "IC": 4054,
      "music": 4055,
      "step": 4056,
      "ï¼ģĊ": 4057,
      "charac": 4058,
      "ons": 4059,
      "åľ£": 4060,
      "è¯ĳ": 4061,
      "Ed": 4062,
      "åĸľæ¬¢": 4063,
      "already": 4064,
      "å¥Ĺ": 4065,
      "æ¸¸æĪı": 4066,
      "æ¹¿": 4067,
      "aterial": 4068,
      "ential": 4069,
      "Am": 4070,
      "æĸĩåŃ¦": 4071,
      "çĭ¬ç«ĭ": 4072,
      "ying": 4073,
      "æ¬²": 4074,
      "ä¸įä»ħ": 4075,
      "econom": 4076,
      "å¼¹": 4077,
      "è¯Ĭ": 4078,
      "disc": 4079,
      "polit": 4080,
      "aud": 4081,
      "often": 4082,
      "ç¥ŀç»ı": 4083,
      "å¤§ï¼Į": 4084,
      "complete": 4085,
      "éī": 4086,
      "aring": 4087,
      "pret": 4088,
      "åĦ¿ç«¥": 4089,
      "èĴĻ": 4090,
      "ior": 4091,
      "EN": 4092,
      "éģ¿åħį": 4093,
      "çŃĶæ¡Ī": 4094,
      "æľŁéĹ´": 4095,
      "State": 4096,
      "atic": 4097,
      "æĺł": 4098,
      "åī¯": 4099,
      "deal": 4100,
      "æĺ¯æĮĩ": 4101,
      "fig": 4102,
      "members": 4103,
      "èĩªæĪĳ": 4104,
      "anal": 4105,
      "åĮĹäº¬": 4106,
      "å®ĥä»¬": 4107,
      "question": 4108,
      "ç²ī": 4109,
      "åĮĸåŃ¦": 4110,
      "getting": 4111,
      "understand": 4112,
      "ç¤¾ä¼ļä¸»ä¹ī": 4113,
      "æĹ§": 4114,
      "æĹ¥ï¼Į": 4115,
      "mor": 4116,
      "ç¬¦åĲĪ": 4117,
      "remain": 4118,
      "è²": 4119,
      "IP": 4120,
      "çļĦæľĢ": 4121,
      "wa": 4122,
      "è£ģ": 4123,
      "çĽ¸å¯¹": 4124,
      "ither": 4125,
      "é£İéĻ©": 4126,
      "following": 4127,
      "æĶ¶åħ¥": 4128,
      "Sep": 4129,
      "treat": 4130,
      "æ¶ī": 4131,
      "www.": 4132,
      "God": 4133,
      "itive": 4134,
      "çģ¾": 4135,
      "éĴ¢": 4136,
      "çĥ§": 4137,
      "ream": 4138,
      "æ¤įçī©": 4139,
      "ï¼ĮçĦ¶åĲİ": 4140,
      "ä¸įå¾Ĺ": 4141,
      "mal": 4142,
      "York": 4143,
      "sty": 4144,
      "çĽ®çļĦ": 4145,
      "åĢį": 4146,
      "tra": 4147,
      "early": 4148,
      "è¯ģæĺİ": 4149,
      "èĪŀ": 4150,
      "ged": 4151,
      "imp": 4152,
      "These": 4153,
      "è½¯ä»¶": 4154,
      "equ": 4155,
      "educ": 4156,
      "close": 4157,
      "è°ģ": 4158,
      "front": 4159,
      "åģı": 4160,
      "ised": 4161,
      "é£Łåĵģ": 4162,
      "ç§Ł": 4163,
      "ç¦»å©ļ": 4164,
      "åĲ§": 4165,
      "èĽĭçĻ½": 4166,
      "äº¿": 4167,
      "ensive": 4168,
      "ItâĢĻs": 4169,
      "eral": 4170,
      "èĪª": 4171,
      "stit": 4172,
      "åĲĪä½ľ": 4173,
      "hip": 4174,
      "æĹ¶çļĦ": 4175,
      "éľĢæ±Ĥ": 4176,
      "èĪ¹": 4177,
      "èĢħï¼Į": 4178,
      "éī´": 4179,
      "become": 4180,
      "online": 4181,
      "ä½łçļĦ": 4182,
      "åĨ¬": 4183,
      "happen": 4184,
      "thought": 4185,
      "IâĢĻm": 4186,
      "descri": 4187,
      "ines": 4188,
      "irl": 4189,
      "çĻĮ": 4190,
      "éķľ": 4191,
      "cou": 4192,
      "åŃĲï¼Į": 4193,
      "å¥ĸ": 4194,
      "ified": 4195,
      "i,": 4196,
      "åĲĪçĲĨ": 4197,
      "åĩĢ": 4198,
      "èµı": 4199,
      "walk": 4200,
      "Sun": 4201,
      "åĪĨåĪ«": 4202,
      "éĽĦ": 4203,
      "eve": 4204,
      "Not": 4205,
      "ä¹ĭéĹ´çļĦ": 4206,
      "ç§ģ": 4207,
      "once": 4208,
      "çļĦæĥħåĨµ": 4209,
      "çļĦä½ľçĶ¨": 4210,
      "ï¼ĮæĪĸ": 4211,
      "è¡Įä¸ļ": 4212,
      "card": 4213,
      "watch": 4214,
      "åĳĪ": 4215,
      "ID": 4216,
      "æķ°åŃĹ": 4217,
      "å®ģ": 4218,
      "é¡¶": 4219,
      "avor": 4220,
      "ru": 4221,
      "æĪĺäºī": 4222,
      "éĩĮï¼Į": 4223,
      "orig": 4224,
      "å¾ª": 4225,
      "Gu": 4226,
      "èĩªèº«": 4227,
      "vil": 4228,
      "å·§": 4229,
      "type": 4230,
      "money": 4231,
      "mm": 4232,
      "éĽª": 4233,
      "ï¼ĮåĲĮæĹ¶": 4234,
      "town": 4235,
      "èĩªçĶ±": 4236,
      "mid": 4237,
      "Cal": 4238,
      "åįģåĪĨ": 4239,
      "road": 4240,
      "åİĤ": 4241,
      "é²ģ": 4242,
      "particular": 4243,
      "Wor": 4244,
      "æł·çļĦ": 4245,
      "author": 4246,
      "CO": 4247,
      "è§£éĩĬ": 4248,
      "èĲ¥åħ»": 4249,
      "ives": 4250,
      "è¯Ħä»·": 4251,
      "profess": 4252,
      "posed": 4253,
      "ãĢĤä»ĸ": 4254,
      "ä»Ĭå¤©": 4255,
      "åģļåĪ°": 4256,
      "teach": 4257,
      "æİ¥åıĹ": 4258,
      "mp": 4259,
      "pain": 4260,
      "åĢĴ": 4261,
      "èį¯çī©": 4262,
      "åĩºäºĨ": 4263,
      "ç¬ĳ": 4264,
      "yet": 4265,
      "area": 4266,
      "çĶ¨æĪ·": 4267,
      "ä½ľä¸ļ": 4268,
      "æĪĲç»©": 4269,
      "ç±»åŀĭ": 4270,
      "viron": 4271,
      "AP": 4272,
      "indust": 4273,
      "ç¿»": 4274,
      "å¥¥": 4275,
      "ä¸ºä¸»": 4276,
      "èĢĥèĻĳ": 4277,
      "¤Ĳ": 4278,
      "çľŁæŃ£": 4279,
      "og": 4280,
      "å¡ŀ": 4281,
      "æĬĵ": 4282,
      "ane": 4283,
      "èĦı": 4284,
      "ä¸ºâĢľ": 4285,
      "åĩºçļĦ": 4286,
      "æĦıæĢĿ": 4287,
      "uture": 4288,
      "éĻįä½İ": 4289,
      "ived": 4290,
      "link": 4291,
      "share": 4292,
      "åıĮæĸ¹": 4293,
      "çļĦä¸»è¦ģ": 4294,
      "è¿ģ": 4295,
      "xx": 4296,
      "ä¸įè¶³": 4297,
      "ences": 4298,
      "West": 4299,
      "doing": 4300,
      "makes": 4301,
      "æĭŁ": 4302,
      "æĭ¥": 4303,
      "foc": 4304,
      "gle": 4305,
      "æĹħ": 4306,
      "ource": 4307,
      "invol": 4308,
      "uly": 4309,
      "éľ²": 4310,
      "ï¼Įä¸İ": 4311,
      "æ¶Īè´¹": 4312,
      "é¢ľ": 4313,
      "ividual": 4314,
      "è´·": 4315,
      "given": 4316,
      "round": 4317,
      "prob": 4318,
      "æº¶": 4319,
      "cop": 4320,
      "ä¸Ŀ": 4321,
      "æķ´ä¸ª": 4322,
      "page": 4323,
      "åĿĢ": 4324,
      "è¾ħ": 4325,
      "åįĸ": 4326,
      "idence": 4327,
      "éĩĩåıĸ": 4328,
      "Will": 4329,
      "paren": 4330,
      "ç§ĳæĬĢ": 4331,
      "è´¢äº§": 4332,
      "èĤ¥": 4333,
      "è·³": 4334,
      "fall": 4335,
      "ä¸īä¸ª": 4336,
      "material": 4337,
      "pack": 4338,
      "éĶĻè¯¯": 4339,
      "mom": 4340,
      "urther": 4341,
      "students": 4342,
      "community": 4343,
      "aken": 4344,
      "ä¾Ŀæį®": 4345,
      "ä½ľæĸĩ": 4346,
      "è¿ħ": 4347,
      "åįµ": 4348,
      "human": 4349,
      "å·¥èµĦ": 4350,
      "ï¼ĮæĹł": 4351,
      "å¢ŀå¼º": 4352,
      ",Ċ": 4353,
      "ï¼ĮçĶ±": 4354,
      ");": 4355,
      "å¾Ģå¾Ģ": 4356,
      "country": 4357,
      "çĩĥ": 4358,
      "city": 4359,
      "èª": 4360,
      "concer": 4361,
      "åºŁ": 4362,
      "Har": 4363,
      "è¿ĩç¨ĭä¸Ń": 4364,
      "Ob": 4365,
      "actually": 4366,
      "model": 4367,
      "å¢ŀéķ¿": 4368,
      "tax": 4369,
      "ï¼į": 4370,
      "éĿ¢çļĦ": 4371,
      "video": 4372,
      "ï¼ĮéĤ£": 4373,
      "èµĦäº§": 4374,
      "ones": 4375,
      "èµĶåģ¿": 4376,
      "âĳł": 4377,
      "æµĵ": 4378,
      "Apr": 4379,
      "âĢ¢": 4380,
      "ured": 4381,
      "techno": 4382,
      "å·¥åħ·": 4383,
      "ulation": 4384,
      "ãĢĤæĪĳ": 4385,
      "èī¯å¥½çļĦ": 4386,
      "ints": 4387,
      "è£Ĥ": 4388,
      "Fl": 4389,
      "ED": 4390,
      "çļĦå°ı": 4391,
      "è¿Ĳè¡Į": 4392,
      "æ¯ıä¸ª": 4393,
      "roll": 4394,
      "ults": 4395,
      "hol": 4396,
      "minut": 4397,
      "ÃĹ": 4398,
      "åĳĺå·¥": 4399,
      "joy": 4400,
      "å¯»": 4401,
      "ä¼°": 4402,
      "ãĢĤâĢľ": 4403,
      "scre": 4404,
      "wide": 4405,
      "æ®ĸ": 4406,
      "æī¬": 4407,
      "B.": 4408,
      "è®°å½ķ": 4409,
      "æļ´": 4410,
      "å¯¹è±¡": 4411,
      "said.": 4412,
      "an,": 4413,
      "aper": 4414,
      "Per": 4415,
      "break": 4416,
      "èĤº": 4417,
      "æĪĲæľ¬": 4418,
      "æ¦Ĥå¿µ": 4419,
      "mult": 4420,
      "ama": 4421,
      "mag": 4422,
      "äºĮåįģ": 4423,
      "æľīä¸Ģ": 4424,
      "æ´ģ": 4425,
      "urch": 4426,
      "condition": 4427,
      "Now": 4428,
      "six": 4429,
      "org": 4430,
      "ãĢĤæŃ¤": 4431,
      "ç¢³": 4432,
      "åĵªäºĽ": 4433,
      "seen": 4434,
      "é©¾": 4435,
      "çī¹æ®Ĭ": 4436,
      "defin": 4437,
      "é¸Ł": 4438,
      "å°¾": 4439,
      "Some": 4440,
      "æŀĦæĪĲ": 4441,
      "hot": 4442,
      "s:": 4443,
      "strong": 4444,
      "ç»ª": 4445,
      "åħ¨éĥ¨": 4446,
      "feat": 4447,
      "ä¸Ģä¸ĭ": 4448,
      "çļĦåŁºç¡Ģ": 4449,
      "ing.Ċ": 4450,
      "reet": 4451,
      "çļĦå·¥ä½ľ": 4452,
      "sent": 4453,
      "phone": 4454,
      "development": 4455,
      "means": 4456,
      "vironment": 4457,
      "âĳ¡": 4458,
      "imes": 4459,
      "Bar": 4460,
      "äººãĢĤ": 4461,
      "è¯ļ": 4462,
      "ï¼ĮåĨį": 4463,
      "le,": 4464,
      "çĶ¨çļĦ": 4465,
      "ðŁ": 4466,
      "women": 4467,
      "specific": 4468,
      "ç¨³å®ļ": 4469,
      "ãĢĭãĢģãĢĬ": 4470,
      "personal": 4471,
      "individual": 4472,
      "èħº": 4473,
      "reach": 4474,
      "compet": 4475,
      "omet": 4476,
      "æ²Ł": 4477,
      "éĽ¶": 4478,
      "è°ĥæķ´": 4479,
      "fel": 4480,
      "ks": 4481,
      "åĶ±": 4482,
      "http": 4483,
      "å®īæİĴ": 4484,
      "Min": 4485,
      "æľĪï¼Į": 4486,
      "æ¯«": 4487,
      "Ge": 4488,
      "|US": 4489,
      "çļĦå½±åĵį": 4490,
      "lege": 4491,
      "çĤ¼": 4492,
      "å¿Ĩ": 4493,
      "è´´": 4494,
      "sch": 4495,
      "ä¹Łæľī": 4496,
      "cast": 4497,
      "ä¿Ŀéļľ": 4498,
      "èĥĨ": 4499,
      "ural": 4500,
      "aps": 4501,
      "ford": 4502,
      "redu": 4503,
      "uff": 4504,
      "ion.": 4505,
      "ä¼ļè®¡": 4506,
      "ç´łè´¨": 4507,
      "contain": 4508,
      "detail": 4509,
      "åľ°çĲĥ": 4510,
      "çŃīï¼Į": 4511,
      "ia,": 4512,
      "èĥİ": 4513,
      "ä¼¯": 4514,
      "pie": 4515,
      "éĻ¤äºĨ": 4516,
      "è®¿": 4517,
      "æĻ®éĢļ": 4518,
      "æĸ½å·¥": 4519,
      "shop": 4520,
      "box": 4521,
      "éľĩ": 4522,
      "cially": 4523,
      "Dav": 4524,
      "åıĳæĮ¥": 4525,
      "depend": 4526,
      "kid": 4527,
      "æĽ´åĬł": 4528,
      "åĪ¶å®ļ": 4529,
      "grad": 4530,
      "åĩºæĿ¥": 4531,
      "å¦Īå¦Ī": 4532,
      "æĮģç»Ń": 4533,
      "Tw": 4534,
      "åıĬåħ¶": 4535,
      "å¥ĭ": 4536,
      "ä¹ı": 4537,
      "portun": 4538,
      "çļĦåŁºæľ¬": 4539,
      "å¹´çº§": 4540,
      "pen": 4541,
      "æĶ¯ä»ĺ": 4542,
      "Qu": 4543,
      "å«": 4544,
      "å¥ı": 4545,
      "çĶŁçļĦ": 4546,
      "bad": 4547,
      "å¡«": 4548,
      "åĲĮæĹ¶ï¼Į": 4549,
      "whether": 4550,
      "deter": 4551,
      "ç£ģ": 4552,
      "sci": 4553,
      "times": 4554,
      "ä»·æł¼": 4555,
      "social": 4556,
      "future": 4557,
      "sound": 4558,
      "sell": 4559,
      "å¹¸": 4560,
      "åŃ¦ä¼ļ": 4561,
      "è¿ŀæİ¥": 4562,
      "ãĢĭï¼Į": 4563,
      "ror": 4564,
      "éģĵå¾·": 4565,
      "çĽĲ": 4566,
      "rad": 4567,
      "His": 4568,
      "äº§ä¸ļ": 4569,
      "sen": 4570,
      "è¯»ä¹¦": 4571,
      "éĹŃ": 4572,
      "åĮºåŁŁ": 4573,
      "ilar": 4574,
      "å¿ħè¦ģ": 4575,
      "é©¶": 4576,
      "åĽ½çļĦ": 4577,
      "å§Ķåĳĺ": 4578,
      "quick": 4579,
      "å·Ŀ": 4580,
      "æ½ľ": 4581,
      "å¸¸è§ģ": 4582,
      "However,": 4583,
      "æĽ¹": 4584,
      "æ¢ģ": 4585,
      "cli": 4586,
      "åĮ»çĸĹ": 4587,
      "iam": 4588,
      "çĶŁéķ¿": 4589,
      "third": 4590,
      "Our": 4591,
      "flu": 4592,
      "quality": 4593,
      "æ¶¦": 4594,
      "Dep": 4595,
      "æķı": 4596,
      "prove": 4597,
      "More": 4598,
      "Just": 4599,
      "çļĦè¯Ŀ": 4600,
      "åĬ¨ä½ľ": 4601,
      "started": 4602,
      "å¹³åĿĩ": 4603,
      "http://": 4604,
      "ats": 4605,
      "äººåı£": 4606,
      "çīĮ": 4607,
      "Rep": 4608,
      "åĨľä¸ļ": 4609,
      "éĽ·": 4610,
      "çĪ¸": 4611,
      "Post": 4612,
      "begin": 4613,
      "éĴĪå¯¹": 4614,
      "åª": 4615,
      "é¸¡": 4616,
      "å¤ļæķ°": 4617,
      "åįĪ": 4618,
      "åıĳå±ķçļĦ": 4619,
      "éº»": 4620,
      "priv": 4621,
      "æĺ¯ä»Ģä¹Ī": 4622,
      "Don": 4623,
      "acc": 4624,
      "vari": 4625,
      "æĢĿç»´": 4626,
      "cir": 4627,
      "among": 4628,
      "çĽ¸åºĶ": 4629,
      "çº·": 4630,
      "]Ċ": 4631,
      "pick": 4632,
      "indows": 4633,
      "åı¤ä»£": 4634,
      "above": 4635,
      "struction": 4636,
      "Pol": 4637,
      "åĭ¤": 4638,
      "è§Ħå¾ĭ": 4639,
      "æİī": 4640,
      "in,": 4641,
      "å°¤åħ¶": 4642,
      "National": 4643,
      "kill": 4644,
      "suggest": 4645,
      "çļĦæĹ¶éĹ´": 4646,
      "abl": 4647,
      "ury": 4648,
      "heart": 4649,
      "æ¸©åº¦": 4650,
      "ç»ĺ": 4651,
      "hit": 4652,
      "bring": 4653,
      "email": 4654,
      "IG": 4655,
      "across": 4656,
      "dom": 4657,
      "çº¯": 4658,
      "ä¸ºä»Ģä¹Ī": 4659,
      "method": 4660,
      "ï¼Įåħ¶ä¸Ń": 4661,
      "arter": 4662,
      "ony": 4663,
      "fully": 4664,
      "foot": 4665,
      "éĢĲæ¸Ĳ": 4666,
      "çĽ¸åĲĮ": 4667,
      "ãĢĤæľī": 4668,
      "å®ĥçļĦ": 4669,
      "åħ³æ³¨": 4670,
      "åĪ©çĽĬ": 4671,
      "benef": 4672,
      "éģµ": 4673,
      "tar": 4674,
      "åıĤèĢĥ": 4675,
      "ãĢĤä»İ": 4676,
      "matter": 4677,
      "è±Ĩ": 4678,
      "æĩĤ": 4679,
      "CP": 4680,
      "opportun": 4681,
      "believe": 4682,
      "ising": 4683,
      "è¯¦": 4684,
      "åĪĨå¸ĥ": 4685,
      "stay": 4686,
      "åĩłä¸ª": 4687,
      "NA": 4688,
      ".\"": 4689,
      "compan": 4690,
      "ery": 4691,
      "å®īè£ħ": 4692,
      "said.Ċ": 4693,
      "ï¼ĮæıĲé«ĺ": 4694,
      "åĬĽéĩı": 4695,
      "ä¸¥æł¼": 4696,
      "ï¼ħ": 4697,
      "taking": 4698,
      "dou": 4699,
      "æ¡£": 4700,
      "åĨ°": 4701,
      "åĸĿ": 4702,
      "Euro": 4703,
      "æĢĿèĢĥ": 4704,
      "åĮĸçļĦ": 4705,
      "å¤ļå°ĳ": 4706,
      "é«ĺçļĦ": 4707,
      "èį£": 4708,
      "ç»ĥä¹ł": 4709,
      "çļĦãĢĬ": 4710,
      "wood": 4711,
      "discuss": 4712,
      "æ¯ķä¸ļ": 4713,
      "é¦Ĩ": 4714,
      "us,": 4715,
      "æıĴ": 4716,
      "ape": 4717,
      "Her": 4718,
      "ene": 4719,
      "èµĦæľ¬": 4720,
      "æĬµ": 4721,
      "éļĶ": 4722,
      "blog": 4723,
      "ides": 4724,
      "duct": 4725,
      "fast": 4726,
      "mov": 4727,
      "ateg": 4728,
      "è§Ħæ¨¡": 4729,
      "å¼Ł": 4730,
      "æ±¡æŁĵ": 4731,
      "çĽ¸äºĴ": 4732,
      "Cont": 4733,
      "æĽ¿": 4734,
      "æķ¬": 4735,
      "æł¸å¿ĥ": 4736,
      "åĲī": 4737,
      "World": 4738,
      "å¤ļç§į": 4739,
      "å¤ªéĺ³": 4740,
      "åĽ°éļ¾": 4741,
      "æĪĲéķ¿": 4742,
      "polic": 4743,
      "æıĲåįĩ": 4744,
      "contact": 4745,
      "anything": 4746,
      "è¿İ": 4747,
      "åĬĽï¼Į": 4748,
      "å½¢è±¡": 4749,
      "young": 4750,
      "è°ĥæŁ¥": 4751,
      "çī©çĲĨ": 4752,
      "fail": 4753,
      "æĳĦ": 4754,
      "åĨħçļĦ": 4755,
      "çĻ»è®°": 4756,
      "cult": 4757,
      "ouch": 4758,
      "éĩįè§Ĩ": 4759,
      "character": 4760,
      "æī¿æĭħ": 4761,
      "çľł": 4762,
      "meas": 4763,
      "acy": 4764,
      "æĦŁè§ī": 4765,
      "Of": 4766,
      "äººä½ĵ": 4767,
      "è¿«": 4768,
      "While": 4769,
      "ä¸»é¢ĺ": 4770,
      "ï¼ĮéĤ£ä¹Ī": 4771,
      "ä¸Ģå®ļçļĦ": 4772,
      "åĨľæĿĳ": 4773,
      "åĹ": 4774,
      "æ²¿": 4775,
      "AD": 4776,
      "èĩ£": 4777,
      "åĨħéĥ¨": 4778,
      "wer": 4779,
      "ä¸¤ç§į": 4780,
      "éĩĳèŀį": 4781,
      "PM": 4782,
      "host": 4783,
      "ä½³": 4784,
      "mess": 4785,
      "æĿĥåĪ©": 4786,
      "éĩįè¦ģçļĦ": 4787,
      "ä½ĵçİ°": 4788,
      "æ¨ª": 4789,
      "ount": 4790,
      "or,": 4791,
      "film": 4792,
      "flo": 4793,
      "Des": 4794,
      "å¢Ļ": 4795,
      "ption": 4796,
      "ä¹ĭåīį": 4797,
      "å¡Ķ": 4798,
      "åĪĩï¼ĮéŁ³": 4799,
      "å²Ĺ": 4800,
      "é¢Ħéĺ²": 4801,
      "èĤ¤": 4802,
      "hind": 4803,
      "å¹ħ": 4804,
      "ä¼Ł": 4805,
      "å¦»": 4806,
      "Sch": 4807,
      "å¥½ï¼Į": 4808,
      "æĢķ": 4809,
      "åĲ´": 4810,
      "Mr.": 4811,
      "ä»ĸä»¬çļĦ": 4812,
      "fire": 4813,
      "County": 4814,
      "åĩ½": 4815,
      "oud": 4816,
      "held": 4817,
      "Dis": 4818,
      "mand": 4819,
      "artment": 4820,
      "Che": 4821,
      "ï¼Įä»¥åıĬ": 4822,
      "comput": 4823,
      "èĢħçļĦ": 4824,
      "åĬŀæ³ķ": 4825,
      "èĢĲ": 4826,
      "curity": 4827,
      "æ¾": 4828,
      "å¤įæĿĤ": 4829,
      "rate": 4830,
      "å¹¿æ³Ľ": 4831,
      "tit": 4832,
      "ä¸ĭéĿ¢": 4833,
      "taken": 4834,
      "almost": 4835,
      "ï¼Įå¹¶ä¸Ķ": 4836,
      "ç¼´": 4837,
      "value": 4838,
      "çī©çļĦ": 4839,
      "æļĹ": 4840,
      "Off": 4841,
      "track": 4842,
      "ances": 4843,
      "Ab": 4844,
      "å®£ä¼ł": 4845,
      "åºĨ": 4846,
      "æ´ŀ": 4847,
      "reco": 4848,
      "åħ¨çĲĥ": 4849,
      "visit": 4850,
      "éĵ¾": 4851,
      "é©±": 4852,
      "sess": 4853,
      "è´¹çĶ¨": 4854,
      "åı¦ä¸Ģ": 4855,
      "èĿ": 4856,
      "sex": 4857,
      "è®¼": 4858,
      "å¼ĥ": 4859,
      "ãĢĤæīĢä»¥": 4860,
      "çļĦé«ĺ": 4861,
      "ï¼Įä¸ĢèĪ¬": 4862,
      "ï¼Įéĥ½": 4863,
      "Pe": 4864,
      "ç«ŀäºī": 4865,
      "ç²Ĵ": 4866,
      "--------": 4867,
      "draw": 4868,
      "èĥ¡": 4869,
      "è·ĳ": 4870,
      "girl": 4871,
      "éĢĤåºĶ": 4872,
      "ç¬¬åĽĽ": 4873,
      "ï¼ĮåĲİ": 4874,
      "ards": 4875,
      "æ°§åĮĸ": 4876,
      "æĺ¯âĢľ": 4877,
      "else": 4878,
      "åŃĲçļĦ": 4879,
      "ï¼ĮéĢļè¿ĩ": 4880,
      "print": 4881,
      "æĿ¥æºĲ": 4882,
      "-year": 4883,
      "espe": 4884,
      "è¦": 4885,
      "uses": 4886,
      "ino": 4887,
      "space": 4888,
      "æĸĩåŃĹ": 4889,
      "South": 4890,
      "whole": 4891,
      "é¤Ĳ": 4892,
      "create": 4893,
      "likely": 4894,
      "å®ĮåĸĦ": 4895,
      "lay": 4896,
      "phys": 4897,
      "åľ°ä½į": 4898,
      "North": 4899,
      "ä¸»åĬ¨": 4900,
      "åħ¬åħĥ": 4901,
      "section": 4902,
      "aver": 4903,
      "final": 4904,
      "ç§ĺ": 4905,
      "èĵĿ": 4906,
      "è§ĦåĪĴ": 4907,
      "below": 4908,
      "lab": 4909,
      "City": 4910,
      "PC": 4911,
      "çĴ": 4912,
      "ST": 4913,
      "èĩªåĬ¨": 4914,
      "mun": 4915,
      "period": 4916,
      "ä¹ĺ": 4917,
      "cup": 4918,
      "èĤ¾": 4919,
      "ging": 4920,
      "flow": 4921,
      "å£ģ": 4922,
      "cred": 4923,
      "ä½ĵèĤ²": 4924,
      "publ": 4925,
      "ially": 4926,
      "çİ°å®ŀ": 4927,
      "due": 4928,
      "rown": 4929,
      "docu": 4930,
      "æĬ½": 4931,
      "çļĦãĢĤĊ": 4932,
      "School": 4933,
      "æ£Ģæµĭ": 4934,
      "æĬĳ": 4935,
      "Serv": 4936,
      "åŃĲå¥³": 4937,
      "ife": 4938,
      "someone": 4939,
      "ä¸ĢçĽ´": 4940,
      "ington": 4941,
      "single": 4942,
      "çĺ¤": 4943,
      "relation": 4944,
      "theĊ": 4945,
      "åĩ¡": 4946,
      "content": 4947,
      "è¯īè®¼": 4948,
      "çĬ¯ç½ª": 4949,
      "å¹´ä»£": 4950,
      "court": 4951,
      "è¯Ńæĸĩ": 4952,
      "è´¦": 4953,
      "exper": 4954,
      "è®ºæĸĩ": 4955,
      "CD": 4956,
      "æĻĭ": 4957,
      "ï¼Įå°±æĺ¯": 4958,
      "ies.": 4959,
      "åŃ¦ç§ĳ": 4960,
      "åĮ»éĻ¢": 4961,
      "Part": 4962,
      "probably": 4963,
      "æľĹ": 4964,
      "hor": 4965,
      "ded": 4966,
      "çŁ¿": 4967,
      "ç±į": 4968,
      "inc": 4969,
      "åĲĹï¼Ł": 4970,
      "ly.": 4971,
      "text": 4972,
      "åĩĿ": 4973,
      "ï¼Įè¿Ļæł·": 4974,
      "æľºä¼ļ": 4975,
      "spo": 4976,
      "çŃīãĢĤĊ": 4977,
      "æµª": 4978,
      "services": 4979,
      "æ»¡è¶³": 4980,
      "news": 4981,
      "ï¼Įèĥ½": 4982,
      "famil": 4983,
      "trying": 4984,
      "äºİæĺ¯": 4985,
      "é¥Ń": 4986,
      "further": 4987,
      "æķĮ": 4988,
      "typ": 4989,
      "Cent": 4990,
      "announ": 4991,
      "time,": 4992,
      "ðł": 4993,
      "Ã©": 4994,
      "äº¤æĺĵ": 4995,
      "pan": 4996,
      "fill": 4997,
      "æ·¡": 4998,
      "æįŁå¤±": 4999,
      "æľºåĪ¶": 5000,
      "\"I": 5001,
      "Here": 5002,
      "è¿ĻéĩĮ": 5003,
      "æĿ¨": 5004,
      "çĶŁæĢģ": 5005,
      "issue": 5006,
      "al,": 5007,
      "æĢ§ãĢĤ": 5008,
      "æ³½": 5009,
      "åĪ¶ä½ľ": 5010,
      "fo": 5011,
      "ä¹ĭåĲİï¼Į": 5012,
      "force": 5013,
      "everything": 5014,
      "eter": 5015,
      "continu": 5016,
      "ç¼ĺ": 5017,
      "gain": 5018,
      "non-": 5019,
      "ãĢĤãĢĢåıĪ": 5020,
      "èĥ¸": 5021,
      "according": 5022,
      "å°ıåŃ¦": 5023,
      "åħ¼": 5024,
      "å¦Ĥä¸ĭ": 5025,
      "init": 5026,
      "éĨĴ": 5027,
      "official": 5028,
      "former": 5029,
      "Dr": 5030,
      "!!": 5031,
      "pretty": 5032,
      "tre": 5033,
      "spir": 5034,
      "æ±½è½¦": 5035,
      "quite": 5036,
      "chall": 5037,
      "åŃ¦æľŁ": 5038,
      "Su": 5039,
      "black": 5040,
      "ï¼Įè¿Ļæĺ¯": 5041,
      "represent": 5042,
      "è¿¹": 5043,
      "ä½ĵä¼ļ": 5044,
      "åıįæĺł": 5045,
      "ET": 5046,
      "éŀ": 5047,
      "åŃ¦éĻ¢": 5048,
      "ison": 5049,
      "rather": 5050,
      "Europe": 5051,
      "ilities": 5052,
      "åĨł": 5053,
      "åĽĽãĢģ": 5054,
      "è§īå¾Ĺ": 5055,
      "'ll": 5056,
      "æķ°éĩı": 5057,
      "ä¹īåĬ¡": 5058,
      "éĽħ": 5059,
      "èħĶ": 5060,
      "åħ±åĴĮ": 5061,
      "ä¸ģ": 5062,
      "é¥°": 5063,
      "å¹¶ä¸į": 5064,
      "çī¹èī²": 5065,
      "çĪĨ": 5066,
      "favor": 5067,
      "è²Į": 5068,
      "ä»ģ": 5069,
      "æĢİæł·": 5070,
      "âĢĿãĢĤĊ": 5071,
      "either": 5072,
      "èį·": 5073,
      "èĭ±åĽ½": 5074,
      "sequ": 5075,
      "å¡ĳ": 5076,
      "äººæ°ĳæ³ķéĻ¢": 5077,
      "åĪĨéĴŁ": 5078,
      "th,": 5079,
      "çªĹ": 5080,
      "Mark": 5081,
      "å¤ļï¼Į": 5082,
      "æģ¢": 5083,
      "åĬĽçļĦ": 5084,
      "version": 5085,
      "ided": 5086,
      "ä¸ĭåĪĹ": 5087,
      "åħ¬åħ±": 5088,
      "æľĢåĲİ": 5089,
      "exist": 5090,
      "asked": 5091,
      "æĦŁåıĹ": 5092,
      "pose": 5093,
      "äºĨãĢĤĊ": 5094,
      "çĽ¸å½ĵ": 5095,
      "æĹ¦": 5096,
      "points": 5097,
      "necess": 5098,
      "æ½®": 5099,
      "environment": 5100,
      "æ¯Ķä¾ĭ": 5101,
      "wanted": 5102,
      "ãĢĤãĢĬ": 5103,
      "æĬļ": 5104,
      "æĸ¹éĿ¢çļĦ": 5105,
      "lease": 5106,
      "didn't": 5107,
      "March": 5108,
      "èĭĹ": 5109,
      "easy": 5110,
      "forward": 5111,
      "item": 5112,
      "Park": 5113,
      "buy": 5114,
      "åĽ½åĨħ": 5115,
      "TV": 5116,
      "æĪĲç«ĭ": 5117,
      "åĳ¼åĲ¸": 5118,
      "lex": 5119,
      "ä¸ĭçļĦ": 5120,
      "ç¢į": 5121,
      "æİ¥è§¦": 5122,
      "æģ©": 5123,
      "åıªæĺ¯": 5124,
      "åĶ¯": 5125,
      "éĽĨä¸Ń": 5126,
      "æĹ¥å¸¸": 5127,
      "account": 5128,
      "éĶĢåĶ®": 5129,
      "æ³¡": 5130,
      "è°·": 5131,
      "signific": 5132,
      "ï¼Įå¤ļ": 5133,
      "èµĦéĩĳ": 5134,
      "äººæīį": 5135,
      "æĢ§åĴĮ": 5136,
      "Act": 5137,
      "ners": 5138,
      "çĶµèĦĳ": 5139,
      "ä¾Ŀæ³ķ": 5140,
      "sco": 5141,
      "ç©ºæ°Ķ": 5142,
      "works": 5143,
      "è¾Ľ": 5144,
      "æł¹æľ¬": 5145,
      "å°ıæĹ¶": 5146,
      "respect": 5147,
      "J.": 5148,
      "death": 5149,
      "åĪ©äºİ": 5150,
      "ç«¹": 5151,
      "enjoy": 5152,
      "pict": 5153,
      "æĥĬ": 5154,
      "sem": 5155,
      "å¤§éĩı": 5156,
      "aĊ": 5157,
      "çŀ": 5158,
      "é»ĺ": 5159,
      "æĪĲäºĨ": 5160,
      "ique": 5161,
      "others": 5162,
      "itted": 5163,
      "door": 5164,
      "els": 5165,
      "term": 5166,
      "ä¸įåĪ°": 5167,
      ".âĢĿ": 5168,
      "Sm": 5169,
      "æ¯ıå¤©": 5170,
      "especially": 5171,
      "æľ±": 5172,
      "éĻµ": 5173,
      "require": 5174,
      "çĦ¶èĢĮ": 5175,
      "æīĢè°ĵ": 5176,
      "äºĭä¸ļ": 5177,
      "bel": 5178,
      "options": 5179,
      "conf": 5180,
      "entire": 5181,
      "æī£": 5182,
      "trave": 5183,
      "è¾Ĩ": 5184,
      "hom": 5185,
      "From": 5186,
      "è¶ĭ": 5187,
      "Thank": 5188,
      "pet": 5189,
      "åĢ¾": 5190,
      "æ»ĳ": 5191,
      "æŃ»äº¡": 5192,
      "study": 5193,
      "å¾Ĵ": 5194,
      "nothing": 5195,
      "åĭĩ": 5196,
      "ians": 5197,
      "website": 5198,
      "ham": 5199,
      "çĶŁç´ł": 5200,
      "yl": 5201,
      "perfect": 5202,
      "æµĭè¯ķ": 5203,
      "æĪĺçķ¥": 5204,
      "bank": 5205,
      "address": 5206,
      "student": 5207,
      "ä¼ĺç§Ģ": 5208,
      "å®ĩ": 5209,
      "beaut": 5210,
      "è´¯": 5211,
      "å³°": 5212,
      "éģĵè·¯": 5213,
      "åĵ²": 5214,
      "ecut": 5215,
      "behind": 5216,
      "èĸĦ": 5217,
      "åĪ¶éĢł": 5218,
      "Your": 5219,
      "ä¹Łä¸į": 5220,
      "ï¼Įä¹Łæĺ¯": 5221,
      "history": 5222,
      "ients": 5223,
      "it.Ċ": 5224,
      "åĬŀçĲĨ": 5225,
      "çĲĨæĥ³": 5226,
      "War": 5227,
      "ãĢĤä¸Ģ": 5228,
      "performance": 5229,
      "æĿ¥è¶Ĭ": 5230,
      "President": 5231,
      "åķĨåĵģ": 5232,
      "åįģäºĮ": 5233,
      "ai": 5234,
      "ç³»åĪĹ": 5235,
      "çĽ¾": 5236,
      "Cr": 5237,
      "æĹĭ": 5238,
      "urs": 5239,
      "ä¼¦": 5240,
      "ä¸ĢçĤ¹": 5241,
      "å°º": 5242,
      "tool": 5243,
      "join": 5244,
      "è®¨è®º": 5245,
      "ï¼ĮåºĶ": 5246,
      "exc": 5247,
      "è¶ĬæĿ¥è¶Ĭ": 5248,
      "Spe": 5249,
      "èµµ": 5250,
      "æŁ±": 5251,
      "å¤ļçļĦ": 5252,
      "ried": 5253,
      "toward": 5254,
      "æ¢ħ": 5255,
      "æģ¢å¤į": 5256,
      "è¿ĽæŃ¥": 5257,
      "ä¸´åºĬ": 5258,
      "âĹ": 5259,
      "RO": 5260,
      "tee": 5261,
      "wonder": 5262,
      "ä¿Ħ": 5263,
      "ï¼Įè¿ĻäºĽ": 5264,
      "king": 5265,
      "store": 5266,
      "æķĻæĿĲ": 5267,
      "âĦ": 5268,
      "o,": 5269,
      "æ´Ľ": 5270,
      "amer": 5271,
      "Rev": 5272,
      "glo": 5273,
      "æķ¢": 5274,
      "æĳ©": 5275,
      "needs": 5276,
      "AB": 5277,
      "active": 5278,
      "ç»ĵæĿŁ": 5279,
      "åİŁçĲĨ": 5280,
      "medi": 5281,
      "çıį": 5282,
      "ä¼ļè®®": 5283,
      "April": 5284,
      "æ³ķãĢĭ": 5285,
      "æľīäºĨ": 5286,
      "èİ«": 5287,
      "çļĨ": 5288,
      "$P$ãĢĢãĢĢ": 5289,
      "Po": 5290,
      "match": 5291,
      "saw": 5292,
      "Gre": 5293,
      "-in": 5294,
      "techn": 5295,
      "æĿľ": 5296,
      "èĳĹåĲį": 5297,
      "æĿ¥è¯´": 5298,
      "è§ĦåĪĻ": 5299,
      "building": 5300,
      "ä»²": 5301,
      "æĢ§ãĢģ": 5302,
      "super": 5303,
      "çıŃçº§": 5304,
      "ï¼Įæķħ": 5305,
      "ice,": 5306,
      "çĸı": 5307,
      "ump": 5308,
      "åĪĢ": 5309,
      "ä¹ĭåĲİ": 5310,
      "resh": 5311,
      "å±¥": 5312,
      "mail": 5313,
      "è¹": 5314,
      "upon": 5315,
      "é¼»": 5316,
      "å£®": 5317,
      "äºĭä»¶": 5318,
      "çļĦåŃ¦ä¹ł": 5319,
      "series": 5320,
      "Windows": 5321,
      "å¼ĢæĶ¾": 5322,
      "åĵĪ": 5323,
      "éĩįå¤§": 5324,
      "è¡°": 5325,
      "similar": 5326,
      "ague": 5327,
      "åį±éĻ©": 5328,
      "æŀĿ": 5329,
      "é¡¿": 5330,
      "å½»": 5331,
      "èĤ¯": 5332,
      "éĺ²æŃ¢": 5333,
      "éŃı": 5334,
      "ãĢĤæĪĳä»¬": 5335,
      "Li": 5336,
      "çĶĺ": 5337,
      "anim": 5338,
      "Friday": 5339,
      "è¿ĩåİ»": 5340,
      "èĢĹ": 5341,
      "åĪĨç±»": 5342,
      "ï¼ĮåĽł": 5343,
      "æĪ¿å±ĭ": 5344,
      "æķĪçİĩ": 5345,
      "natur": 5346,
      "ï¼Įä¸»è¦ģ": 5347,
      "ding": 5348,
      "dam": 5349,
      "æĬĢèĥ½": 5350,
      "è¡ĮåĬ¨": 5351,
      "çļĦä¸Ģä¸ª": 5352,
      "worth": 5353,
      "ä¼Ĭ": 5354,
      "æĥħç»ª": 5355,
      "crit": 5356,
      "è´¸": 5357,
      "ederal": 5358,
      "æĦıè§ģ": 5359,
      "Pa": 5360,
      "ns": 5361,
      "iment": 5362,
      "ç»§æī¿": 5363,
      "æ¸¯": 5364,
      "èķ": 5365,
      "âĨ": 5366,
      "media": 5367,
      "range": 5368,
      "true": 5369,
      "stri": 5370,
      "angu": 5371,
      "åĪ¤æĸŃ": 5372,
      "æ·±åħ¥": 5373,
      "everyone": 5374,
      "æĢ§è´¨": 5375,
      "Center": 5376,
      "æīĭæ®µ": 5377,
      "white": 5378,
      "ment,": 5379,
      "éĽĨä½ĵ": 5380,
      "associ": 5381,
      "æĭį": 5382,
      "èĥ¶": 5383,
      "æĢ§èĥ½": 5384,
      "å¦ĤæŃ¤": 5385,
      "CH": 5386,
      "Cour": 5387,
      "ancial": 5388,
      "approach": 5389,
      "ãĢĤä½Ĩæĺ¯": 5390,
      "æķ´ä½ĵ": 5391,
      "ä¿¡åı·": 5392,
      "age,": 5393,
      "aged": 5394,
      "I've": 5395,
      "çļĦåľ°æĸ¹": 5396,
      "table": 5397,
      "ation.Ċ": 5398,
      "éĻĲåĪ¶": 5399,
      "as,": 5400,
      "LE": 5401,
      "æĤ²": 5402,
      "wish": 5403,
      "ç»´æĬ¤": 5404,
      "ilt": 5405,
      "attack": 5406,
      "ministr": 5407,
      "å¸¦æĿ¥": 5408,
      "bod": 5409,
      "dest": 5410,
      "ä»¿": 5411,
      "åľĪ": 5412,
      "æ¢°": 5413,
      "æ¨¡åŀĭ": 5414,
      "å®¢æĪ·": 5415,
      "éĩįæĸ°": 5416,
      "è¯¾æĸĩ": 5417,
      "previous": 5418,
      "spr": 5419,
      "ä¼ļæľī": 5420,
      "éĤ£äºĽ": 5421,
      "related": 5422,
      "å®ŀè¡Į": 5423,
      "dig": 5424,
      ")ï¼Į": 5425,
      "Reg": 5426,
      "select": 5427,
      "è°Ĳ": 5428,
      "jud": 5429,
      "please": 5430,
      "ç»ķ": 5431,
      "Well": 5432,
      "on.": 5433,
      "ify": 5434,
      "Je": 5435,
      "ï¼ĮèĢĮæĺ¯": 5436,
      "said,": 5437,
      "å¹¼åĦ¿åĽŃ": 5438,
      "è¿ĩç¨ĭä¸Ńï¼Į": 5439,
      "San": 5440,
      "ä¹Į": 5441,
      "å½ĵæĹ¶": 5442,
      "Oc": 5443,
      "continue": 5444,
      "\",": 5445,
      "Pre": 5446,
      "purch": 5447,
      "subject": 5448,
      "aur": 5449,
      "æľ¬æĸĩ": 5450,
      "å®ļä¹ī": 5451,
      "åªĴ": 5452,
      "seems": 5453,
      "çŁĽ": 5454,
      "åĩ½æķ°": 5455,
      "risk": 5456,
      "cil": 5457,
      "æ£®": 5458,
      "ournal": 5459,
      "High": 5460,
      "çĽĳçĿ£": 5461,
      "July": 5462,
      "Day": 5463,
      "çļĦä¸Ģç§į": 5464,
      "çļ®èĤ¤": 5465,
      "ä¸ĭéĻį": 5466,
      "firm": 5467,
      "åİĭåĬĽ": 5468,
      "é¼ł": 5469,
      "Pat": 5470,
      "PS": 5471,
      "æ³¥": 5472,
      "dle": 5473,
      "appear": 5474,
      "ï¼Įä»ĸä»¬": 5475,
      "Satur": 5476,
      "Art": 5477,
      "âĳ¢": 5478,
      "èĻİ": 5479,
      "tware": 5480,
      "æļĸ": 5481,
      "Fir": 5482,
      "æĢģåº¦": 5483,
      "ç«Ł": 5484,
      "æµ®": 5485,
      "vert": 5486,
      "æ·»": 5487,
      "è¾ŀ": 5488,
      "ä¸įè¿ĩ": 5489,
      "è·Ŀç¦»": 5490,
      "å®Ŀå®Ŀ": 5491,
      "çĬ¶åĨµ": 5492,
      "ï¼ĮçĶļèĩ³": 5493,
      "ãĢĤå®ĥ": 5494,
      "logical": 5495,
      "Web": 5496,
      "å½ĵäºĭ": 5497,
      "significant": 5498,
      "running": 5499,
      "å§Ķåĳĺä¼ļ": 5500,
      "ends": 5501,
      "Char": 5502,
      "èģĮå·¥": 5503,
      "æĥħæĦŁ": 5504,
      "weight": 5505,
      "August": 5506,
      "v.": 5507,
      "åĲ¸æĶ¶": 5508,
      "çļĦåĨħå®¹": 5509,
      "i.": 5510,
      "åĪĨåŃĲ": 5511,
      "mother": 5512,
      "diffic": 5513,
      "SE": 5514,
      "connect": 5515,
      "è§Ĵåº¦": 5516,
      "particip": 5517,
      "æĮ¯": 5518,
      "è´Ŀ": 5519,
      "éĢĤå½ĵ": 5520,
      "Stud": 5521,
      "June": 5522,
      "ä¼¸": 5523,
      "å¤Ħäºİ": 5524,
[...]
