{
  "version": "1.0",
  "truncation": null,
  "padding": null,
  "added_tokens": [
    {
      "id": 0,
      "content": "[PAD]",
      "single_word": false,
      "lstrip": false,
      "rstrip": false,
      "normalized": false,
      "special": true
    },
    {
      "id": 1,
      "content": "[CLS]",
      "single_word": false,
      "lstrip": false,
      "rstrip": false,
      "normalized": false,
      "special": true
    },
    {
      "id": 2,
      "content": "[SEP]",
      "single_word": false,
      "lstrip": false,
      "rstrip": false,
      "normalized": false,
      "special": true
    },
    {
      "id": 3,
      "content": "[MASK]",
      "single_word": false,
      "lstrip": false,
      "rstrip": false,
      "normalized": false,
      "special": true
    },
    {
      "id": 4,
      "content": "[EXT_0]",
      "single_word": false,
      "lstrip": false,
      "rstrip": false,
      "normalized": false,
      "special": true
    },
    {
      "id": 5,
      "content": "[EXT_1]",
      "single_word": false,
      "lstrip": false,
      "rstrip": false,
      "normalized": false,
      "special": true
    },
    {
      "id": 6,
      "content": "[EXT_2]",
      "single_word": false,
      "lstrip": false,
      "rstrip": false,
      "normalized": false,
      "special": true
    },
    {
      "id": 7,
      "content": "[EXT_3]",
      "single_word": false,
      "lstrip": false,
      "rstrip": false,
      "normalized": false,
      "special": true
    },
    {
      "id": 8,
      "content": "[EXT_4]",
      "single_word": false,
      "lstrip": false,
      "rstrip": false,
      "normalized": false,
      "special": true
    },
    {
      "id": 9,
      "content": "[EXT_5]",
      "single_word": false,
      "lstrip": false,
      "rstrip": false,
      "normalized": false,
      "special": true
    },
    {
      "id": 10,
      "content": "[EXT_6]",
      "single_word": false,
      "lstrip": false,
      "rstrip": false,
      "normalized": false,
      "special": true
    },
    {
      "id": 11,
      "content": "[EXT_7]",
      "single_word": false,
      "lstrip": false,
      "rstrip": false,
      "normalized": false,
      "special": true
    },
    {
      "id": 12,
      "content": "[EXT_8]",
      "single_word": false,
      "lstrip": false,
      "rstrip": false,
      "normalized": false,
      "special": true
    },
    {
      "id": 13,
      "content": "[EXT_9]",
      "single_word": false,
      "lstrip": false,
      "rstrip": false,
      "normalized": false,
      "special": true
    },
    {
      "id": 14,
      "content": "[EXT_10]",
      "single_word": false,
      "lstrip": false,
      "rstrip": false,
      "normalized": false,
      "special": true
    },
    {
      "id": 15,
      "content": "[EXT_11]",
      "single_word": false,
      "lstrip": false,
      "rstrip": false,
      "normalized": false,
      "special": true
    },
    {
      "id": 16,
      "content": "[EXT_12]",
      "single_word": false,
      "lstrip": false,
      "rstrip": false,
      "normalized": false,
      "special": true
    },
    {
      "id": 17,
      "content": "[EXT_13]",
      "single_word": false,
      "lstrip": false,
      "rstrip": false,
      "normalized": false,
      "special": true
    },
    {
      "id": 18,
      "content": "[EXT_14]",
      "single_word": false,
      "lstrip": false,
      "rstrip": false,
      "normalized": false,
      "special": true
    },
    {
      "id": 19,
      "content": "[EXT_15]",
      "single_word": false,
      "lstrip": false,
      "rstrip": false,
      "normalized": false,
      "special": true
    },
    {
      "id": 20,
      "content": "[EXT_16]",
      "single_word": false,
      "lstrip": false,
      "rstrip": false,
      "normalized": false,
      "special": true
    },
    {
      "id": 21,
      "content": "[EXT_17]",
      "single_word": false,
      "lstrip": false,
      "rstrip": false,
      "normalized": false,
      "special": true
    },
    {
      "id": 22,
      "content": "[EXT_18]",
      "single_word": false,
      "lstrip": false,
      "rstrip": false,
      "normalized": false,
      "special": true
    },
    {
      "id": 23,
      "content": "[EXT_19]",
      "single_word": false,
      "lstrip": false,
      "rstrip": false,
      "normalized": false,
      "special": true
    },
    {
      "id": 24,
      "content": "[EXT_20]",
      "single_word": false,
      "lstrip": false,
      "rstrip": false,
      "normalized": false,
      "special": true
    },
    {
      "id": 25,
      "content": "[EXT_21]",
      "single_word": false,
      "lstrip": false,
      "rstrip": false,
      "normalized": false,
      "special": true
    },
    {
      "id": 26,
      "content": "[EXT_22]",
      "single_word": false,
      "lstrip": false,
      "rstrip": false,
      "normalized": false,
      "special": true
    },
    {
      "id": 27,
      "content": "[EXT_23]",
      "single_word": false,
      "lstrip": false,
      "rstrip": false,
      "normalized": false,
      "special": true
    },
    {
      "id": 28,
      "content": "[EXT_24]",
      "single_word": false,
      "lstrip": false,
      "rstrip": false,
      "normalized": false,
      "special": true
    },
    {
      "id": 29,
      "content": "[EXT_25]",
      "single_word": false,
      "lstrip": false,
      "rstrip": false,
      "normalized": false,
      "special": true
    },
    {
      "id": 30,
      "content": "[EXT_26]",
      "single_word": false,
      "lstrip": false,
      "rstrip": false,
      "normalized": false,
      "special": true
    },
    {
      "id": 31,
      "content": "[EXT_27]",
      "single_word": false,
      "lstrip": false,
      "rstrip": false,
      "normalized": false,
      "special": true
    },
    {
      "id": 32,
      "content": "[EXT_28]",
      "single_word": false,
      "lstrip": false,
      "rstrip": false,
      "normalized": false,
      "special": true
    },
    {
      "id": 33,
      "content": "[EXT_29]",
      "single_word": false,
      "lstrip": false,
      "rstrip": false,
      "normalized": false,
      "special": true
    },
    {
      "id": 34,
      "content": "[EXT_30]",
      "single_word": false,
      "lstrip": false,
      "rstrip": false,
      "normalized": false,
      "special": true
    },
    {
      "id": 35,
      "content": "[EXT_31]",
      "single_word": false,
      "lstrip": false,
      "rstrip": false,
      "normalized": false,
      "special": true
    },
    {
      "id": 36,
      "content": "[EXT_32]",
      "single_word": false,
      "lstrip": false,
      "rstrip": false,
      "normalized": false,
      "special": true
    },
    {
      "id": 37,
      "content": "[EXT_33]",
      "single_word": false,
      "lstrip": false,
      "rstrip": false,
      "normalized": false,
      "special": true
    },
    {
      "id": 38,
      "content": "[EXT_34]",
      "single_word": false,
      "lstrip": false,
      "rstrip": false,
      "normalized": false,
      "special": true
    },
    {
      "id": 39,
      "content": "[EXT_35]",
      "single_word": false,
      "lstrip": false,
      "rstrip": false,
      "normalized": false,
      "special": true
    },
    {
      "id": 40,
      "content": "[EXT_36]",
      "single_word": false,
      "lstrip": false,
      "rstrip": false,
      "normalized": false,
      "special": true
    },
    {
      "id": 41,
      "content": "[EXT_37]",
      "single_word": false,
      "lstrip": false,
      "rstrip": false,
      "normalized": false,
      "special": true
    },
    {
      "id": 42,
      "content": "[EXT_38]",
      "single_word": false,
      "lstrip": false,
      "rstrip": false,
      "normalized": false,
      "special": true
    },
    {
      "id": 43,
      "content": "[EXT_39]",
      "single_word": false,
      "lstrip": false,
      "rstrip": false,
      "normalized": false,
      "special": true
    },
    {
      "id": 44,
      "content": "[EXT_40]",
      "single_word": false,
      "lstrip": false,
      "rstrip": false,
      "normalized": false,
      "special": true
    },
    {
      "id": 45,
      "content": "[EXT_41]",
      "single_word": false,
      "lstrip": false,
      "rstrip": false,
      "normalized": false,
      "special": true
    },
    {
      "id": 46,
      "content": "[EXT_42]",
      "single_word": false,
      "lstrip": false,
      "rstrip": false,
      "normalized": false,
      "special": true
    },
    {
      "id": 47,
      "content": "[EXT_43]",
      "single_word": false,
      "lstrip": false,
      "rstrip": false,
      "normalized": false,
      "special": true
    },
    {
      "id": 48,
      "content": "[EXT_44]",
      "single_word": false,
      "lstrip": false,
      "rstrip": false,
      "normalized": false,
      "special": true
    },
    {
      "id": 49,
      "content": "[EXT_45]",
      "single_word": false,
      "lstrip": false,
      "rstrip": false,
      "normalized": false,
      "special": true
    },
    {
      "id": 50,
      "content": "[EXT_46]",
      "single_word": false,
      "lstrip": false,
      "rstrip": false,
      "normalized": false,
      "special": true
    },
    {
      "id": 51,
      "content": "[EXT_47]",
      "single_word": false,
      "lstrip": false,
      "rstrip": false,
      "normalized": false,
      "special": true
    },
    {
      "id": 52,
      "content": "[EXT_48]",
      "single_word": false,
      "lstrip": false,
      "rstrip": false,
      "normalized": false,
      "special": true
    },
    {
      "id": 53,
      "content": "[EXT_49]",
      "single_word": false,
      "lstrip": false,
      "rstrip": false,
      "normalized": false,
      "special": true
    },
    {
      "id": 54,
      "content": "[EXT_50]",
      "single_word": false,
      "lstrip": false,
      "rstrip": false,
      "normalized": false,
      "special": true
    },
    {
      "id": 55,
      "content": "[EXT_51]",
      "single_word": false,
      "lstrip": false,
      "rstrip": false,
      "normalized": false,
      "special": true
    },
    {
      "id": 56,
      "content": "[EXT_52]",
      "single_word": false,
      "lstrip": false,
      "rstrip": false,
      "normalized": false,
      "special": true
    },
    {
      "id": 57,
      "content": "[EXT_53]",
      "single_word": false,
      "lstrip": false,
      "rstrip": false,
      "normalized": false,
      "special": true
    },
    {
      "id": 58,
      "content": "[EXT_54]",
      "single_word": false,
      "lstrip": false,
      "rstrip": false,
      "normalized": false,
      "special": true
    },
    {
      "id": 59,
      "content": "[EXT_55]",
      "single_word": false,
      "lstrip": false,
      "rstrip": false,
      "normalized": false,
      "special": true
    },
    {
      "id": 60,
      "content": "[EXT_56]",
      "single_word": false,
      "lstrip": false,
      "rstrip": false,
      "normalized": false,
      "special": true
    },
    {
      "id": 61,
      "content": "[EXT_57]",
      "single_word": false,
      "lstrip": false,
      "rstrip": false,
      "normalized": false,
      "special": true
    },
    {
      "id": 62,
      "content": "[EXT_58]",
      "single_word": false,
      "lstrip": false,
      "rstrip": false,
      "normalized": false,
      "special": true
    },
    {
      "id": 63,
      "content": "[EXT_59]",
      "single_word": false,
      "lstrip": false,
      "rstrip": false,
      "normalized": false,
      "special": true
    },
    {
      "id": 64,
      "content": "[EXT_60]",
      "single_word": false,
      "lstrip": false,
      "rstrip": false,
      "normalized": false,
      "special": true
    },
    {
      "id": 65,
      "content": "[EXT_61]",
      "single_word": false,
      "lstrip": false,
      "rstrip": false,
      "normalized": false,
      "special": true
    },
    {
      "id": 66,
      "content": "[EXT_62]",
      "single_word": false,
      "lstrip": false,
      "rstrip": false,
      "normalized": false,
      "special": true
    },
    {
      "id": 67,
      "content": "[EXT_63]",
      "single_word": false,
      "lstrip": false,
      "rstrip": false,
      "normalized": false,
      "special": true
    },
    {
      "id": 68,
      "content": "[EXT_64]",
      "single_word": false,
      "lstrip": false,
      "rstrip": false,
      "normalized": false,
      "special": true
    },
    {
      "id": 69,
      "content": "[EXT_65]",
      "single_word": false,
      "lstrip": false,
      "rstrip": false,
      "normalized": false,
      "special": true
    },
    {
      "id": 70,
      "content": "[EXT_66]",
      "single_word": false,
      "lstrip": false,
      "rstrip": false,
      "normalized": false,
      "special": true
    },
    {
      "id": 71,
      "content": "[EXT_67]",
      "single_word": false,
      "lstrip": false,
      "rstrip": false,
      "normalized": false,
      "special": true
    },
    {
      "id": 72,
      "content": "[EXT_68]",
      "single_word": false,
      "lstrip": false,
      "rstrip": false,
      "normalized": false,
      "special": true
    },
    {
      "id": 73,
      "content": "[EXT_69]",
      "single_word": false,
      "lstrip": false,
      "rstrip": false,
      "normalized": false,
      "special": true
    },
    {
      "id": 74,
      "content": "[EXT_70]",
      "single_word": false,
      "lstrip": false,
      "rstrip": false,
      "normalized": false,
      "special": true
    },
    {
      "id": 75,
      "content": "[EXT_71]",
      "single_word": false,
      "lstrip": false,
      "rstrip": false,
      "normalized": false,
      "special": true
    },
    {
      "id": 76,
      "content": "[EXT_72]",
      "single_word": false,
      "lstrip": false,
      "rstrip": false,
      "normalized": false,
      "special": true
    },
    {
      "id": 77,
      "content": "[EXT_73]",
      "single_word": false,
      "lstrip": false,
      "rstrip": false,
      "normalized": false,
      "special": true
    },
    {
      "id": 78,
      "content": "[EXT_74]",
      "single_word": false,
      "lstrip": false,
      "rstrip": false,
      "normalized": false,
      "special": true
    },
    {
      "id": 79,
      "content": "[EXT_75]",
      "single_word": false,
      "lstrip": false,
      "rstrip": false,
      "normalized": false,
      "special": true
    },
    {
      "id": 80,
      "content": "[EXT_76]",
      "single_word": false,
      "lstrip": false,
      "rstrip": false,
      "normalized": false,
      "special": true
    },
    {
      "id": 81,
      "content": "[EXT_77]",
      "single_word": false,
      "lstrip": false,
      "rstrip": false,
      "normalized": false,
      "special": true
    },
    {
      "id": 82,
      "content": "[EXT_78]",
      "single_word": false,
      "lstrip": false,
      "rstrip": false,
      "normalized": false,
      "special": true
    },
    {
      "id": 83,
      "content": "[EXT_79]",
      "single_word": false,
      "lstrip": false,
      "rstrip": false,
      "normalized": false,
      "special": true
    },
    {
      "id": 84,
      "content": "[EXT_80]",
      "single_word": false,
      "lstrip": false,
      "rstrip": false,
      "normalized": false,
      "special": true
    },
    {
      "id": 85,
      "content": "[EXT_81]",
      "single_word": false,
      "lstrip": false,
      "rstrip": false,
      "normalized": false,
      "special": true
    },
    {
      "id": 86,
      "content": "[EXT_82]",
      "single_word": false,
      "lstrip": false,
      "rstrip": false,
      "normalized": false,
      "special": true
    },
    {
      "id": 87,
      "content": "[EXT_83]",
      "single_word": false,
      "lstrip": false,
      "rstrip": false,
      "normalized": false,
      "special": true
    },
    {
      "id": 88,
      "content": "[EXT_84]",
      "single_word": false,
      "lstrip": false,
      "rstrip": false,
      "normalized": false,
      "special": true
    },
    {
      "id": 89,
      "content": "[EXT_85]",
      "single_word": false,
      "lstrip": false,
      "rstrip": false,
      "normalized": false,
      "special": true
    },
    {
      "id": 90,
      "content": "[EXT_86]",
      "single_word": false,
      "lstrip": false,
      "rstrip": false,
      "normalized": false,
      "special": true
    },
    {
      "id": 91,
      "content": "[EXT_87]",
      "single_word": false,
      "lstrip": false,
      "rstrip": false,
      "normalized": false,
      "special": true
    },
    {
      "id": 92,
      "content": "[EXT_88]",
      "single_word": false,
      "lstrip": false,
      "rstrip": false,
      "normalized": false,
      "special": true
    },
    {
      "id": 93,
      "content": "[EXT_89]",
      "single_word": false,
      "lstrip": false,
      "rstrip": false,
      "normalized": false,
      "special": true
    },
    {
      "id": 94,
      "content": "[EXT_90]",
      "single_word": false,
      "lstrip": false,
      "rstrip": false,
      "normalized": false,
      "special": true
    },
    {
      "id": 95,
      "content": "[EXT_91]",
      "single_word": false,
      "lstrip": false,
      "rstrip": false,
      "normalized": false,
      "special": true
    },
    {
      "id": 96,
      "content": "[EXT_92]",
      "single_word": false,
      "lstrip": false,
      "rstrip": false,
      "normalized": false,
      "special": true
    },
    {
      "id": 97,
      "content": "[EXT_93]",
      "single_word": false,
      "lstrip": false,
      "rstrip": false,
      "normalized": false,
      "special": true
    },
    {
      "id": 98,
      "content": "[EXT_94]",
      "single_word": false,
      "lstrip": false,
      "rstrip": false,
      "normalized": false,
      "special": true
    },
    {
      "id": 99,
      "content": "[EXT_95]",
      "single_word": false,
      "lstrip": false,
      "rstrip": false,
      "normalized": false,
      "special": true
    },
    {
      "id": 100,
      "content": "[EXT_96]",
      "single_word": false,
      "lstrip": false,
      "rstrip": false,
      "normalized": false,
      "special": true
    },
    {
      "id": 101,
      "content": "[EXT_97]",
      "single_word": false,
      "lstrip": false,
      "rstrip": false,
      "normalized": false,
      "special": true
    },
    {
      "id": 102,
      "content": "[EXT_98]",
      "single_word": false,
      "lstrip": false,
      "rstrip": false,
      "normalized": false,
      "special": true
    },
    {
      "id": 103,
      "content": "[EXT_99]",
      "single_word": false,
      "lstrip": false,
      "rstrip": false,
      "normalized": false,
      "special": true
    },
    {
      "id": 104,
      "content": "[EXT_100]",
      "single_word": false,
      "lstrip": false,
      "rstrip": false,
      "normalized": false,
      "special": true
    },
    {
      "id": 105,
      "content": "[EXT_101]",
      "single_word": false,
      "lstrip": false,
      "rstrip": false,
      "normalized": false,
      "special": true
    },
    {
      "id": 106,
      "content": "[EXT_102]",
      "single_word": false,
      "lstrip": false,
      "rstrip": false,
      "normalized": false,
      "special": true
    },
    {
      "id": 107,
      "content": "[EXT_103]",
      "single_word": false,
      "lstrip": false,
      "rstrip": false,
      "normalized": false,
      "special": true
    },
    {
      "id": 108,
      "content": "[EXT_104]",
      "single_word": false,
      "lstrip": false,
      "rstrip": false,
      "normalized": false,
      "special": true
    },
    {
      "id": 109,
      "content": "[EXT_105]",
      "single_word": false,
      "lstrip": false,
      "rstrip": false,
      "normalized": false,
      "special": true
    },
    {
      "id": 110,
      "content": "[EXT_106]",
      "single_word": false,
      "lstrip": false,
      "rstrip": false,
      "normalized": false,
      "special": true
    },
    {
      "id": 111,
      "content": "[EXT_107]",
      "single_word": false,
      "lstrip": false,
      "rstrip": false,
      "normalized": false,
      "special": true
    },
    {
      "id": 112,
      "content": "[EXT_108]",
      "single_word": false,
      "lstrip": false,
      "rstrip": false,
      "normalized": false,
      "special": true
    },
    {
      "id": 113,
      "content": "[EXT_109]",
      "single_word": false,
      "lstrip": false,
      "rstrip": false,
      "normalized": false,
      "special": true
    },
    {
      "id": 114,
      "content": "[EXT_110]",
      "single_word": false,
      "lstrip": false,
      "rstrip": false,
      "normalized": false,
      "special": true
    },
    {
      "id": 115,
      "content": "[EXT_111]",
      "single_word": false,
      "lstrip": false,
      "rstrip": false,
      "normalized": false,
      "special": true
    },
    {
      "id": 116,
      "content": "[EXT_112]",
      "single_word": false,
      "lstrip": false,
      "rstrip": false,
      "normalized": false,
      "special": true
    },
    {
      "id": 117,
      "content": "[EXT_113]",
      "single_word": false,
      "lstrip": false,
      "rstrip": false,
      "normalized": false,
      "special": true
    },
    {
      "id": 118,
      "content": "[EXT_114]",
      "single_word": false,
      "lstrip": false,
      "rstrip": false,
      "normalized": false,
      "special": true
    },
    {
      "id": 119,
      "content": "[EXT_115]",
      "single_word": false,
      "lstrip": false,
      "rstrip": false,
      "normalized": false,
      "special": true
    },
    {
      "id": 120,
      "content": "[EXT_116]",
      "single_word": false,
      "lstrip": false,
      "rstrip": false,
      "normalized": false,
      "special": true
    },
    {
      "id": 121,
      "content": "[EXT_117]",
      "single_word": false,
      "lstrip": false,
      "rstrip": false,
      "normalized": false,
      "special": true
    },
    {
      "id": 122,
      "content": "[EXT_118]",
      "single_word": false,
      "lstrip": false,
      "rstrip": false,
      "normalized": false,
      "special": true
    },
    {
      "id": 123,
      "content": "[EXT_119]",
      "single_word": false,
      "lstrip": false,
      "rstrip": false,
      "normalized": false,
      "special": true
    },
    {
      "id": 124,
      "content": "[EXT_120]",
      "single_word": false,
      "lstrip": false,
      "rstrip": false,
      "normalized": false,
      "special": true
    },
    {
      "id": 125,
      "content": "[EXT_121]",
      "single_word": false,
      "lstrip": false,
      "rstrip": false,
      "normalized": false,
      "special": true
    },
    {
      "id": 126,
      "content": "[EXT_122]",
      "single_word": false,
      "lstrip": false,
      "rstrip": false,
      "normalized": false,
      "special": true
    },
    {
      "id": 127,
      "content": "[EXT_123]",
      "single_word": false,
      "lstrip": false,
      "rstrip": false,
      "normalized": false,
      "special": true
    },
    {
      "id": 128,
      "content": "[EXT_124]",
      "single_word": false,
      "lstrip": false,
      "rstrip": false,
      "normalized": false,
      "special": true
    },
    {
      "id": 129,
      "content": "[EXT_125]",
      "single_word": false,
      "lstrip": false,
      "rstrip": false,
      "normalized": false,
      "special": true
    },
    {
      "id": 130,
      "content": "[EXT_126]",
      "single_word": false,
      "lstrip": false,
      "rstrip": false,
      "normalized": false,
      "special": true
    },
    {
      "id": 131,
      "content": "[EXT_127]",
      "single_word": false,
      "lstrip": false,
      "rstrip": false,
      "normalized": false,
      "special": true
    },
    {
      "id": 132,
      "content": "[EXT_128]",
      "single_word": false,
      "lstrip": false,
      "rstrip": false,
      "normalized": false,
      "special": true
    },
    {
      "id": 133,
      "content": "[EXT_129]",
      "single_word": false,
      "lstrip": false,
      "rstrip": false,
      "normalized": false,
      "special": true
    },
    {
      "id": 134,
      "content": "[EXT_130]",
      "single_word": false,
      "lstrip": false,
      "rstrip": false,
      "normalized": false,
      "special": true
    },
    {
      "id": 135,
      "content": "[EXT_131]",
      "single_word": false,
      "lstrip": false,
      "rstrip": false,
      "normalized": false,
      "special": true
    },
    {
      "id": 136,
      "content": "[EXT_132]",
      "single_word": false,
      "lstrip": false,
      "rstrip": false,
      "normalized": false,
      "special": true
    },
    {
      "id": 137,
      "content": "[EXT_133]",
      "single_word": false,
      "lstrip": false,
      "rstrip": false,
      "normalized": false,
      "special": true
    },
    {
      "id": 138,
      "content": "[EXT_134]",
      "single_word": false,
      "lstrip": false,
      "rstrip": false,
      "normalized": false,
      "special": true
    },
    {
      "id": 139,
      "content": "[EXT_135]",
      "single_word": false,
      "lstrip": false,
      "rstrip": false,
      "normalized": false,
      "special": true
    },
    {
      "id": 140,
      "content": "[EXT_136]",
      "single_word": false,
      "lstrip": false,
      "rstrip": false,
      "normalized": false,
      "special": true
    },
    {
      "id": 141,
      "content": "[EXT_137]",
      "single_word": false,
      "lstrip": false,
      "rstrip": false,
      "normalized": false,
      "special": true
    },
    {
      "id": 142,
      "content": "[EXT_138]",
      "single_word": false,
      "lstrip": false,
      "rstrip": false,
      "normalized": false,
      "special": true
    },
    {
      "id": 143,
      "content": "[EXT_139]",
      "single_word": false,
      "lstrip": false,
      "rstrip": false,
      "normalized": false,
      "special": true
    },
    {
      "id": 144,
      "content": "[EXT_140]",
      "single_word": false,
      "lstrip": false,
      "rstrip": false,
      "normalized": false,
      "special": true
    },
    {
      "id": 145,
      "content": "[EXT_141]",
      "single_word": false,
      "lstrip": false,
      "rstrip": false,
      "normalized": false,
      "special": true
    },
    {
      "id": 146,
      "content": "[EXT_142]",
      "single_word": false,
      "lstrip": false,
      "rstrip": false,
      "normalized": false,
      "special": true
    },
    {
      "id": 147,
      "content": "[EXT_143]",
      "single_word": false,
      "lstrip": false,
      "rstrip": false,
      "normalized": false,
      "special": true
    },
    {
      "id": 148,
      "content": "[EXT_144]",
      "single_word": false,
      "lstrip": false,
      "rstrip": false,
      "normalized": false,
      "special": true
    },
    {
      "id": 149,
      "content": "[EXT_145]",
      "single_word": false,
      "lstrip": false,
      "rstrip": false,
      "normalized": false,
      "special": true
    },
    {
      "id": 150,
      "content": "[EXT_146]",
      "single_word": false,
      "lstrip": false,
      "rstrip": false,
      "normalized": false,
      "special": true
    },
    {
      "id": 151,
      "content": "[EXT_147]",
      "single_word": false,
      "lstrip": false,
      "rstrip": false,
      "normalized": false,
      "special": true
    },
    {
      "id": 152,
      "content": "[EXT_148]",
      "single_word": false,
      "lstrip": false,
      "rstrip": false,
      "normalized": false,
      "special": true
    },
    {
      "id": 153,
      "content": "[EXT_149]",
      "single_word": false,
      "lstrip": false,
      "rstrip": false,
      "normalized": false,
      "special": true
    },
    {
      "id": 154,
      "content": "[EXT_150]",
      "single_word": false,
      "lstrip": false,
      "rstrip": false,
      "normalized": false,
      "special": true
    },
    {
      "id": 155,
      "content": "[EXT_151]",
      "single_word": false,
      "lstrip": false,
      "rstrip": false,
      "normalized": false,
      "special": true
    },
    {
      "id": 156,
      "content": "[EXT_152]",
      "single_word": false,
      "lstrip": false,
      "rstrip": false,
      "normalized": false,
      "special": true
    },
    {
      "id": 157,
      "content": "[EXT_153]",
      "single_word": false,
      "lstrip": false,
      "rstrip": false,
      "normalized": false,
      "special": true
    },
    {
      "id": 158,
      "content": "[EXT_154]",
      "single_word": false,
      "lstrip": false,
      "rstrip": false,
      "normalized": false,
      "special": true
    },
    {
      "id": 159,
      "content": "[EXT_155]",
      "single_word": false,
      "lstrip": false,
      "rstrip": false,
      "normalized": false,
      "special": true
    },
    {
      "id": 160,
      "content": "[EXT_156]",
      "single_word": false,
      "lstrip": false,
      "rstrip": false,
      "normalized": false,
      "special": true
    },
    {
      "id": 161,
      "content": "[EXT_157]",
      "single_word": false,
      "lstrip": false,
      "rstrip": false,
      "normalized": false,
      "special": true
    },
    {
      "id": 162,
      "content": "[EXT_158]",
      "single_word": false,
      "lstrip": false,
      "rstrip": false,
      "normalized": false,
      "special": true
    },
    {
      "id": 163,
      "content": "[EXT_159]",
      "single_word": false,
      "lstrip": false,
      "rstrip": false,
      "normalized": false,
      "special": true
    },
    {
      "id": 164,
      "content": "[EXT_160]",
      "single_word": false,
      "lstrip": false,
      "rstrip": false,
      "normalized": false,
      "special": true
    },
    {
      "id": 165,
      "content": "[EXT_161]",
      "single_word": false,
      "lstrip": false,
      "rstrip": false,
      "normalized": false,
      "special": true
    },
    {
      "id": 166,
      "content": "[EXT_162]",
      "single_word": false,
      "lstrip": false,
      "rstrip": false,
      "normalized": false,
      "special": true
    },
    {
      "id": 167,
      "content": "[EXT_163]",
      "single_word": false,
      "lstrip": false,
      "rstrip": false,
      "normalized": false,
      "special": true
    },
    {
      "id": 168,
      "content": "[EXT_164]",
      "single_word": false,
      "lstrip": false,
      "rstrip": false,
      "normalized": false,
      "special": true
    },
    {
      "id": 169,
      "content": "[EXT_165]",
      "single_word": false,
      "lstrip": false,
      "rstrip": false,
      "normalized": false,
      "special": true
    },
    {
      "id": 170,
      "content": "[EXT_166]",
      "single_word": false,
      "lstrip": false,
      "rstrip": false,
      "normalized": false,
      "special": true
    },
    {
      "id": 171,
      "content": "[EXT_167]",
      "single_word": false,
      "lstrip": false,
      "rstrip": false,
      "normalized": false,
      "special": true
    },
    {
      "id": 172,
      "content": "[EXT_168]",
      "single_word": false,
      "lstrip": false,
      "rstrip": false,
      "normalized": false,
      "special": true
    },
    {
      "id": 173,
      "content": "[EXT_169]",
      "single_word": false,
      "lstrip": false,
      "rstrip": false,
      "normalized": false,
      "special": true
    },
    {
      "id": 174,
      "content": "[EXT_170]",
      "single_word": false,
      "lstrip": false,
      "rstrip": false,
      "normalized": false,
      "special": true
    },
    {
      "id": 175,
      "content": "[EXT_171]",
      "single_word": false,
      "lstrip": false,
      "rstrip": false,
      "normalized": false,
      "special": true
    },
    {
      "id": 176,
      "content": "[EXT_172]",
      "single_word": false,
      "lstrip": false,
      "rstrip": false,
      "normalized": false,
      "special": true
    },
    {
      "id": 177,
      "content": "[EXT_173]",
      "single_word": false,
      "lstrip": false,
      "rstrip": false,
      "normalized": false,
      "special": true
    },
    {
      "id": 178,
      "content": "[EXT_174]",
      "single_word": false,
      "lstrip": false,
      "rstrip": false,
      "normalized": false,
      "special": true
    },
    {
      "id": 179,
      "content": "[EXT_175]",
      "single_word": false,
      "lstrip": false,
      "rstrip": false,
      "normalized": false,
      "special": true
    },
    {
      "id": 180,
      "content": "[EXT_176]",
      "single_word": false,
      "lstrip": false,
      "rstrip": false,
      "normalized": false,
      "special": true
    },
    {
      "id": 181,
      "content": "[EXT_177]",
      "single_word": false,
      "lstrip": false,
      "rstrip": false,
      "normalized": false,
      "special": true
    },
    {
      "id": 182,
      "content": "[EXT_178]",
      "single_word": false,
      "lstrip": false,
      "rstrip": false,
      "normalized": false,
      "special": true
    },
    {
      "id": 183,
      "content": "[EXT_179]",
      "single_word": false,
      "lstrip": false,
      "rstrip": false,
      "normalized": false,
      "special": true
    },
    {
      "id": 184,
      "content": "[EXT_180]",
      "single_word": false,
      "lstrip": false,
      "rstrip": false,
      "normalized": false,
      "special": true
    },
    {
      "id": 185,
      "content": "[EXT_181]",
      "single_word": false,
      "lstrip": false,
      "rstrip": false,
      "normalized": false,
      "special": true
    },
    {
      "id": 186,
      "content": "[EXT_182]",
      "single_word": false,
      "lstrip": false,
      "rstrip": false,
      "normalized": false,
      "special": true
    },
    {
      "id": 187,
      "content": "[EXT_183]",
      "single_word": false,
      "lstrip": false,
      "rstrip": false,
      "normalized": false,
      "special": true
    },
    {
      "id": 188,
      "content": "[EXT_184]",
      "single_word": false,
      "lstrip": false,
      "rstrip": false,
      "normalized": false,
      "special": true
    },
    {
      "id": 189,
      "content": "[EXT_185]",
      "single_word": false,
      "lstrip": false,
      "rstrip": false,
      "normalized": false,
      "special": true
    },
    {
      "id": 190,
      "content": "[EXT_186]",
      "single_word": false,
      "lstrip": false,
      "rstrip": false,
      "normalized": false,
      "special": true
    },
    {
      "id": 191,
      "content": "[EXT_187]",
      "single_word": false,
      "lstrip": false,
      "rstrip": false,
      "normalized": false,
      "special": true
    }
  ],
  "normalizer": {
    "type": "Sequence",
    "normalizers": [
      {
        "type": "NFC"
      }
    ]
  },
  "pre_tokenizer": {
    "type": "Sequence",
    "pretokenizers": [
      {
        "type": "Split",
        "pattern": {
          "String": "(?i:'s|'t|'re|'ve|'m|'ll|'d)|[^\\r\\n\\p{L}\\p{N}]?\\p{L}+|\\p{N}| ?[^\\s\\p{L}\\p{N}]+[\\r\\n]*|\\s*[\\r\\n]+|\\s+(?!\\S)|\\s+"
        },
        "behavior": "Isolated",
        "invert": false
      },
      {
        "type": "Digits",
        "individual_digits": true
      },
      {
        "type": "Split",
        "pattern": {
          "String": " "
        },
        "behavior": "Isolated",
        "invert": false
      },
      {
        "type": "ByteLevel",
        "add_prefix_space": false,
        "trim_offsets": true,
        "use_regex": false
      }
    ]
  },
  "post_processor": {
    "type": "ByteLevel",
    "add_prefix_space": true,
    "trim_offsets": false,
    "use_regex": true
  },
  "decoder": null,
  "model": {
    "type": "BPE",
    "dropout": null,
    "unk_token": null,
    "continuing_subword_prefix": null,
    "end_of_word_suffix": null,
    "fuse_unk": false,
    "byte_fallback": true,
    "ignore_merges": false,
    "vocab": {
      "[PAD]": 0,
      "[CLS]": 1,
      "[SEP]": 2,
      "[MASK]": 3,
      "[EXT_0]": 4,
      "[EXT_1]": 5,
      "[EXT_2]": 6,
      "[EXT_3]": 7,
      "[EXT_4]": 8,
      "[EXT_5]": 9,
      "[EXT_6]": 10,
      "[EXT_7]": 11,
      "[EXT_8]": 12,
      "[EXT_9]": 13,
      "[EXT_10]": 14,
      "[EXT_11]": 15,
      "[EXT_12]": 16,
      "[EXT_13]": 17,
      "[EXT_14]": 18,
      "[EXT_15]": 19,
      "[EXT_16]": 20,
      "[EXT_17]": 21,
      "[EXT_18]": 22,
      "[EXT_19]": 23,
      "[EXT_20]": 24,
      "[EXT_21]": 25,
      "[EXT_22]": 26,
      "[EXT_23]": 27,
      "[EXT_24]": 28,
      "[EXT_25]": 29,
      "[EXT_26]": 30,
      "[EXT_27]": 31,
      "[EXT_28]": 32,
      "[EXT_29]": 33,
      "[EXT_30]": 34,
      "[EXT_31]": 35,
      "[EXT_32]": 36,
      "[EXT_33]": 37,
      "[EXT_34]": 38,
      "[EXT_35]": 39,
      "[EXT_36]": 40,
      "[EXT_37]": 41,
      "[EXT_38]": 42,
      "[EXT_39]": 43,
      "[EXT_40]": 44,
      "[EXT_41]": 45,
      "[EXT_42]": 46,
      "[EXT_43]": 47,
      "[EXT_44]": 48,
      "[EXT_45]": 49,
      "[EXT_46]": 50,
      "[EXT_47]": 51,
      "[EXT_48]": 52,
      "[EXT_49]": 53,
      "[EXT_50]": 54,
      "[EXT_51]": 55,
      "[EXT_52]": 56,
      "[EXT_53]": 57,
      "[EXT_54]": 58,
      "[EXT_55]": 59,
      "[EXT_56]": 60,
      "[EXT_57]": 61,
      "[EXT_58]": 62,
      "[EXT_59]": 63,
      "[EXT_60]": 64,
      "[EXT_61]": 65,
      "[EXT_62]": 66,
      "[EXT_63]": 67,
      "[EXT_64]": 68,
      "[EXT_65]": 69,
      "[EXT_66]": 70,
      "[EXT_67]": 71,
      "[EXT_68]": 72,
      "[EXT_69]": 73,
      "[EXT_70]": 74,
      "[EXT_71]": 75,
      "[EXT_72]": 76,
      "[EXT_73]": 77,
      "[EXT_74]": 78,
      "[EXT_75]": 79,
      "[EXT_76]": 80,
      "[EXT_77]": 81,
      "[EXT_78]": 82,
      "[EXT_79]": 83,
      "[EXT_80]": 84,
      "[EXT_81]": 85,
      "[EXT_82]": 86,
      "[EXT_83]": 87,
      "[EXT_84]": 88,
      "[EXT_85]": 89,
      "[EXT_86]": 90,
      "[EXT_87]": 91,
      "[EXT_88]": 92,
      "[EXT_89]": 93,
      "[EXT_90]": 94,
      "[EXT_91]": 95,
      "[EXT_92]": 96,
      "[EXT_93]": 97,
      "[EXT_94]": 98,
      "[EXT_95]": 99,
      "[EXT_96]": 100,
      "[EXT_97]": 101,
      "[EXT_98]": 102,
      "[EXT_99]": 103,
      "[EXT_100]": 104,
      "[EXT_101]": 105,
      "[EXT_102]": 106,
      "[EXT_103]": 107,
      "[EXT_104]": 108,
      "[EXT_105]": 109,
      "[EXT_106]": 110,
      "[EXT_107]": 111,
      "[EXT_108]": 112,
      "[EXT_109]": 113,
      "[EXT_110]": 114,
      "[EXT_111]": 115,
      "[EXT_112]": 116,
      "[EXT_113]": 117,
      "[EXT_114]": 118,
      "[EXT_115]": 119,
      "[EXT_116]": 120,
      "[EXT_117]": 121,
      "[EXT_118]": 122,
      "[EXT_119]": 123,
      "[EXT_120]": 124,
      "[EXT_121]": 125,
      "[EXT_122]": 126,
      "[EXT_123]": 127,
      "[EXT_124]": 128,
      "[EXT_125]": 129,
      "[EXT_126]": 130,
      "[EXT_127]": 131,
      "[EXT_128]": 132,
      "[EXT_129]": 133,
      "[EXT_130]": 134,
      "[EXT_131]": 135,
      "[EXT_132]": 136,
      "[EXT_133]": 137,
      "[EXT_134]": 138,
      "[EXT_135]": 139,
      "[EXT_136]": 140,
      "[EXT_137]": 141,
      "[EXT_138]": 142,
      "[EXT_139]": 143,
      "[EXT_140]": 144,
      "[EXT_141]": 145,
      "[EXT_142]": 146,
      "[EXT_143]": 147,
      "[EXT_144]": 148,
      "[EXT_145]": 149,
      "[EXT_146]": 150,
      "[EXT_147]": 151,
      "[EXT_148]": 152,
      "[EXT_149]": 153,
      "[EXT_150]": 154,
      "[EXT_151]": 155,
      "[EXT_152]": 156,
      "[EXT_153]": 157,
      "[EXT_154]": 158,
      "[EXT_155]": 159,
      "[EXT_156]": 160,
      "[EXT_157]": 161,
      "[EXT_158]": 162,
      "[EXT_159]": 163,
      "[EXT_160]": 164,
      "[EXT_161]": 165,
      "[EXT_162]": 166,
      "[EXT_163]": 167,
      "[EXT_164]": 168,
      "[EXT_165]": 169,
      "[EXT_166]": 170,
      "[EXT_167]": 171,
      "[EXT_168]": 172,
      "[EXT_169]": 173,
      "[EXT_170]": 174,
      "[EXT_171]": 175,
      "[EXT_172]": 176,
      "[EXT_173]": 177,
      "[EXT_174]": 178,
      "[EXT_175]": 179,
      "[EXT_176]": 180,
      "[EXT_177]": 181,
      "[EXT_178]": 182,
      "[EXT_179]": 183,
      "[EXT_180]": 184,
      "[EXT_181]": 185,
      "[EXT_182]": 186,
      "[EXT_183]": 187,
      "[EXT_184]": 188,
      "[EXT_185]": 189,
      "[EXT_186]": 190,
      "[EXT_187]": 191,
      "!": 192,
      "\"": 193,
      "#": 194,
      "$": 195,
      "%": 196,
      "&": 197,
      "'": 198,
      "(": 199,
      ")": 200,
      "*": 201,
      "+": 202,
      ",": 203,
      "-": 204,
      ".": 205,
      "/": 206,
      "0": 207,
      "1": 208,
      "2": 209,
      "3": 210,
      "4": 211,
      "5": 212,
      "6": 213,
      "7": 214,
      "8": 215,
      "9": 216,
      ":": 217,
      ";": 218,
      "<": 219,
      "=": 220,
      ">": 221,
      "?": 222,
      "@": 223,
      "A": 224,
      "B": 225,
      "C": 226,
      "D": 227,
      "E": 228,
      "F": 229,
      "G": 230,
      "H": 231,
      "I": 232,
      "J": 233,
      "K": 234,
      "L": 235,
      "M": 236,
      "N": 237,
      "O": 238,
      "P": 239,
      "Q": 240,
      "R": 241,
      "S": 242,
      "T": 243,
      "U": 244,
      "V": 245,
      "W": 246,
      "X": 247,
      "Y": 248,
      "Z": 249,
      "[": 250,
      "\\": 251,
      "]": 252,
      "^": 253,
      "_": 254,
      "`": 255,
      "a": 256,
      "b": 257,
      "c": 258,
      "d": 259,
      "e": 260,
      "f": 261,
      "g": 262,
      "h": 263,
      "i": 264,
      "j": 265,
      "k": 266,
      "l": 267,
      "m": 268,
      "n": 269,
      "o": 270,
      "p": 271,
      "q": 272,
      "r": 273,
      "s": 274,
      "t": 275,
      "u": 276,
      "v": 277,
      "w": 278,
      "x": 279,
      "y": 280,
      "z": 281,
      "{": 282,
      "|": 283,
      "}": 284,
      "~": 285,
      "¡": 286,
      "¢": 287,
      "£": 288,
      "¤": 289,
      "¥": 290,
      "¦": 291,
      "§": 292,
      "¨": 293,
      "©": 294,
      "ª": 295,
      "«": 296,
      "¬": 297,
      "®": 298,
      "¯": 299,
      "°": 300,
      "±": 301,
      "²": 302,
      "³": 303,
      "´": 304,
      "µ": 305,
      "¶": 306,
      "·": 307,
      "¸": 308,
      "¹": 309,
      "º": 310,
      "»": 311,
      "¼": 312,
      "½": 313,
      "¾": 314,
      "¿": 315,
      "Â": 316,
      "Ã": 317,
      "Ä": 318,
      "Å": 319,
      "Æ": 320,
      "Ç": 321,
      "È": 322,
      "É": 323,
      "Ê": 324,
      "Ë": 325,
      "Ì": 326,
      "Í": 327,
      "Î": 328,
      "Ï": 329,
      "Ð": 330,
      "Ñ": 331,
      "Ò": 332,
      "Ó": 333,
      "Ô": 334,
      "Õ": 335,
      "Ö": 336,
      "×": 337,
      "Ø": 338,
      "Ù": 339,
      "Ú": 340,
      "Û": 341,
      "Ü": 342,
      "Þ": 343,
      "ß": 344,
      "à": 345,
      "á": 346,
      "â": 347,
      "ã": 348,
      "ä": 349,
      "å": 350,
      "æ": 351,
      "ç": 352,
      "è": 353,
      "é": 354,
      "ê": 355,
      "ë": 356,
      "ì": 357,
      "í": 358,
      "î": 359,
      "ï": 360,
      "ð": 361,
      "ó": 362,
      "ô": 363,
      "Ā": 364,
      "ā": 365,
      "Ă": 366,
      "ă": 367,
      "Ą": 368,
      "ą": 369,
      "Ć": 370,
      "ć": 371,
      "Ĉ": 372,
      "ĉ": 373,
      "Ċ": 374,
      "ċ": 375,
      "Č": 376,
      "č": 377,
      "Ď": 378,
      "ď": 379,
      "Đ": 380,
      "đ": 381,
      "Ē": 382,
      "ē": 383,
      "Ĕ": 384,
      "ĕ": 385,
      "Ė": 386,
      "ė": 387,
      "Ę": 388,
      "ę": 389,
      "Ě": 390,
      "ě": 391,
      "Ĝ": 392,
      "ĝ": 393,
      "Ğ": 394,
      "ğ": 395,
      "Ġ": 396,
      "ġ": 397,
      "Ģ": 398,
      "ģ": 399,
      "Ĥ": 400,
      "ĥ": 401,
      "Ħ": 402,
      "ħ": 403,
      "Ĩ": 404,
      "ĩ": 405,
      "Ī": 406,
      "ī": 407,
      "Ĭ": 408,
      "ĭ": 409,
      "Į": 410,
      "į": 411,
      "İ": 412,
      "ı": 413,
      "Ĳ": 414,
      "ĳ": 415,
      "Ĵ": 416,
      "ĵ": 417,
      "Ķ": 418,
      "ķ": 419,
      "ĸ": 420,
      "Ĺ": 421,
      "ĺ": 422,
      "Ļ": 423,
      "ļ": 424,
      "Ľ": 425,
      "ľ": 426,
      "Ŀ": 427,
      "ŀ": 428,
      "Ł": 429,
      "ł": 430,
      "Ń": 431,
      "ï¼": 432,
      "ä¸": 433,
      "th": 434,
      "ï¼Į": 435,
      "ãĢ": 436,
      "in": 437,
      "çļ": 438,
      "çļĦ": 439,
      "er": 440,
      "an": 441,
      "on": 442,
      "äº": 443,
      "the": 444,
      "re": 445,
      "at": 446,
      "ãĢĤ": 447,
      "åı": 448,
      "en": 449,
      "or": 450,
      "æľ": 451,
      "ä»": 452,
      "st": 453,
      "åħ": 454,
      "ou": 455,
      "al": 456,
      "âĢ": 457,
      "ed": 458,
      "ing": 459,
      "å¤": 460,
      "åĪ": 461,
      "to": 462,
      "å®": 463,
      "is": 464,
      "ar": 465,
      "and": 466,
      "es": 467,
      "çĶ": 468,
      "ãĢģ": 469,
      "ä½": 470,
      "åĲ": 471,
      "è¿": 472,
      "it": 473,
      "of": 474,
      "æĺ": 475,
      "ä¹": 476,
      "åľ": 477,
      "åŃ": 478,
      "as": 479,
      "è¯": 480,
      "ç»": 481,
      "ic": 482,
      "æĪ": 483,
      "åĬ": 484,
      "le": 485,
      "ä¸Ģ": 486,
      "ion": 487,
      "æĸ": 488,
      "æĺ¯": 489,
      "åĽ": 490,
      "om": 491,
      "å°": 492,
      "æĹ": 493,
      "è®": 494,
      "he": 495,
      "ent": 496,
      "å¹": 497,
      "il": 498,
      "æľī": 499,
      "åį": 500,
      "se": 501,
      ".Ċ": 502,
      "ac": 503,
      "ä¼": 504,
      "äºº": 505,
      "åľ¨": 506,
      "æķ": 507,
      "ä¸į": 508,
      "ve": 509,
      "æĿ": 510,
      "èĢ": 511,
      "be": 512,
      "ro": 513,
      "åº": 514,
      "åĨ": 515,
      "éĩ": 516,
      "for": 517,
      "æī": 518,
      "è¡": 519,
      "åŃ¦": 520,
      "å¼": 521,
      "å·": 522,
      "åĴ": 523,
      "å¯": 524,
      "ly": 525,
      "ä¸Ń": 526,
      "å¾": 527,
      "ad": 528,
      "å¸": 529,
      "ä¸º": 530,
      "æĢ": 531,
      "åĩ": 532,
      "åĴĮ": 533,
      "id": 534,
      "ch": 535,
      "è§": 536,
      "éĢ": 537,
      "ç§": 538,
      "ãĢĤĊ": 539,
      "çĶŁ": 540,
      "am": 541,
      "ĥ½": 542,
      "lo": 543,
      "äºĨ": 544,
      "ay": 545,
      "æł": 546,
      "ä»¥": 547,
      "çĽ": 548,
      "åĮ": 549,
      "âĢľ": 550,
      "âĢĿ": 551,
      "æ³": 552,
      "æ°": 553,
      "¦ģ": 554,
      "im": 555,
      "çİ": 556,
      "è¦ģ": 557,
      "ig": 558,
      "et": 559,
      "å½": 560,
      "è´": 561,
      "çī": 562,
      "ol": 563,
      "wh": 564,
      "å¤§": 565,
      "çĶ¨": 566,
      "æĬ": 567,
      "ver": 568,
      "æŃ": 569,
      "that": 570,
      "no": 571,
      "æĹ¶": 572,
      "èĩ": 573,
      "ï¼ļ": 574,
      "å±": 575,
      "å¿": 576,
      "ct": 577,
      "ation": 578,
      "ut": 579,
      "ä¸ª": 580,
      "ith": 581,
      "èµ": 582,
      "un": 583,
      "æĶ": 584,
      "el": 585,
      "åĽ½": 586,
      "éĹ": 587,
      "åİ": 588,
      "ur": 589,
      "you": 590,
      "are": 591,
      "çº": 592,
      "ä¸Ĭ": 593,
      "çĲ": 594,
      "æŀ": 595,
      "éĿ": 596,
      "ä½ľ": 597,
      "ir": 598,
      "èĥ½": 599,
      "éĻ": 600,
      "ab": 601,
      "å¥": 602,
      "åı¯": 603,
      "è¿Ļ": 604,
      "with": 605,
      "ce": 606,
      "ag": 607,
      "çŃ": 608,
      "æĪĳ": 609,
      "ter": 610,
      "å¯¹": 611,
      "åıĳ": 612,
      "æ¯": 613,
      "us": 614,
      "æĪĲ": 615,
      "å¹´": 616,
      "åĳ": 617,
      "ä¼ļ": 618,
      "æµ": 619,
      "ä¿": 620,
      "æİ": 621,
      "con": 622,
      "The": 623,
      "äºİ": 624,
      "é¢": 625,
      "com": 626,
      "è¡Į": 627,
      "æ²": 628,
      "åĪĨ": 629,
      "è¾": 630,
      "æĸ¹": 631,
      "æ³ķ": 632,
      "æĥ": 633,
      "çĲĨ": 634,
      "ul": 635,
      "åľ°": 636,
      "åĬ¨": 637,
      "de": 638,
      "mo": 639,
      "âĢĻ": 640,
      "åĪ°": 641,
      "ãĢĢ": 642,
      "æĦ": 643,
      "ill": 644,
      "ers": 645,
      "å¦": 646,
      "åĩº": 647,
      "ap": 648,
      "pro": 649,
      "ow": 650,
      "æĮ": 651,
      "ere": 652,
      "ï¼ī": 653,
      "ne": 654,
      "èĤ": 655,
      "li": 656,
      "res": 657,
      "ï¼Ī": 658,
      "èĩª": 659,
      "æĿ¥": 660,
      "ri": 661,
      "åĲİ": 662,
      "åŁ": 663,
      "op": 664,
      "em": 665,
      "ä»¬": 666,
      "æ´": 667,
      "su": 668,
      "å·¥": 669,
      "ke": 670,
      "out": 671,
      "è¿ĩ": 672,
      "all": 673,
      "éĺ": 674,
      "ä¹ĭ": 675,
      "çľ": 676,
      "ä½ĵ": 677,
      "å¤ļ": 678,
      "å®ļ": 679,
      "ha": 680,
      "s,": 681,
      "åŃĲ": 682,
      "æĢ§": 683,
      "ate": 684,
      "ä¸ĭ": 685,
      "we": 686,
      "æ±": 687,
      "æĸĩ": 688,
      "was": 689,
      "ex": 690,
      "åĲĮ": 691,
      "ä¹Ł": 692,
      "å°±": 693,
      "æĭ": 694,
      "æķĻ": 695,
      "èĢĮ": 696,
      "ç«": 697,
      "pe": 698,
      "ä¾": 699,
      "çİ°": 700,
      "ç®": 701,
      "pl": 702,
      "ä¸İ": 703,
      "fr": 704,
      "è½": 705,
      "åī": 706,
      "ç¨": 707,
      "igh": 708,
      "ä¸ļ": 709,
      "ld": 710,
      "è¿Ľ": 711,
      "sh": 712,
      "çŃī": 713,
      "åĵ": 714,
      "å¦Ĥ": 715,
      "é«": 716,
      "å®¶": 717,
      "ä¸»": 718,
      "åģ": 719,
      "if": 720,
      "éģ": 721,
      "åħ¶": 722,
      "our": 723,
      "å®ŀ": 724,
      "é«ĺ": 725,
      "ain": 726,
      "oun": 727,
      "tr": 728,
      "te": 729,
      "one": 730,
      "æľ¬": 731,
      "ess": 732,
      "ç»ı": 733,
      "ç¬": 734,
      "ment": 735,
      "so": 736,
      "æı": 737,
      "éĥ": 738,
      "åĬĽ": 739,
      "po": 740,
      "çŁ": 741,
      "ä»ĸ": 742,
      "çĤ": 743,
      "åĮĸ": 744,
      "æ¸": 745,
      "çī©": 746,
      "åºĶ": 747,
      "æīĢ": 748,
      "art": 749,
      "by": 750,
      "æ¬": 751,
      "éĿ¢": 752,
      "éķ": 753,
      "ç§į": 754,
      "oo": 755,
      "åĲĪ": 756,
      "ant": 757,
      "èĢħ": 758,
      "æĽ": 759,
      "ç½": 760,
      "ther": 761,
      "ity": 762,
      "qu": 763,
      "éĩį": 764,
      "'s": 765,
      "è°": 766,
      "å°ı": 767,
      "have": 768,
      "æį": 769,
      "ï¼Ľ": 770,
      "åħ³": 771,
      "this": 772,
      "from": 773,
      "ist": 774,
      "his": 775,
      "æĪĸ": 776,
      "çĹ": 777,
      "ç¤": 778,
      "not": 779,
      "åħ¨": 780,
      "éĥ¨": 781,
      "åº¦": 782,
      "per": 783,
      "èĬ": 784,
      "äºĭ": 785,
      "æķ°": 786,
      "é¡": 787,
      "ive": 788,
      "é£": 789,
      "å¿ĥ": 790,
      "å¾Ĺ": 791,
      "åĽł": 792,
      "åĨħ": 793,
      "ust": 794,
      "åĢ": 795,
      "fe": 796,
      "åĪ¶": 797,
      "å¥½": 798,
      "äº§": 799,
      "ç³": 800,
      "um": 801,
      "act": 802,
      "ast": 803,
      "ight": 804,
      "éĢļ": 805,
      "s.": 806,
      "èī": 807,
      "éķ¿": 808,
      "æ°´": 809,
      "éĹ´": 810,
      "end": 811,
      "å¼Ģ": 812,
      "å»": 813,
      "ould": 814,
      "In": 815,
      "ge": 816,
      "ãĢĭ": 817,
      "ãĢĬ": 818,
      "è·": 819,
      "wor": 820,
      "do": 821,
      "up": 822,
      "éļ": 823,
      "ard": 824,
      "ä½¿": 825,
      "åıĬ": 826,
      "æľº": 827,
      "è¯´": 828,
      "éĩı": 829,
      "ort": 830,
      "çĽ¸": 831,
      "å½ĵ": 832,
      "ies": 833,
      "ä¸ī": 834,
      "æŁ": 835,
      "ç±": 836,
      "âĢĻs": 837,
      "æ´»": 838,
      "me": 839,
      "åħ¬": 840,
      "åĬł": 841,
      "éĥ½": 842,
      "çĿ": 843,
      "ç¨ĭ": 844,
      "è¶": 845,
      "æĦı": 846,
      "ome": 847,
      "å¢": 848,
      "éĽ": 849,
      "ç©": 850,
      "ç¡": 851,
      "çĦ": 852,
      "æĺİ": 853,
      "åĿ": 854,
      "èĥ": 855,
      "but": 856,
      "åīį": 857,
      "æľŁ": 858,
      "å¤©": 859,
      "æĥħ": 860,
      "gh": 861,
      "ä¸Ģä¸ª": 862,
      "çĤ¹": 863,
      "æıĲ": 864,
      "æľĢ": 865,
      "co": 866,
      "åı¯ä»¥": 867,
      "can": 868,
      "æ°ĳ": 869,
      "ç¬¬": 870,
      "ear": 871,
      "will": 872,
      "è¡¨": 873,
      "pr": 874,
      "ç³»": 875,
      "ãĢĢãĢĢ": 876,
      "ally": 877,
      "ä»£": 878,
      "é¢ĺ": 879,
      "æĻ": 880,
      "ack": 881,
      "ç¾": 882,
      "ç´": 883,
      "ä»İ": 884,
      "cl": 885,
      "gr": 886,
      "çĻ": 887,
      "any": 888,
      "ind": 889,
      "è§£": 890,
      "æĸ°": 891,
      "å¸¸": 892,
      "çķ": 893,
      "ä¹ł": 894,
      "èµ·": 895,
      "go": 896,
      "çĸ": 897,
      "ä½į": 898,
      "has": 899,
      "çł": 900,
      "å¹¶": 901,
      "æĹ¥": 902,
      "âĢĶ": 903,
      "æ¶": 904,
      "èģ": 905,
      "ç»ĵ": 906,
      "å»º": 907,
      "å±ķ": 908,
      "ç¥": 909,
      "èĭ": 910,
      "äºĮ": 911,
      "ä¿Ŀ": 912,
      "ci": 913,
      "æĹł": 914,
      "ud": 915,
      "åħ¥": 916,
      "è®¾": 917,
      "æĪĳä»¬": 918,
      "ak": 919,
      "çĦ¶": 920,
      "æŀľ": 921,
      "å¤ĸ": 922,
      "åŁº": 923,
      "éľ": 924,
      "è®¡": 925,
      "ç¼": 926,
      "çĶ±": 927,
      "çĶµ": 928,
      "éħ": 929,
      "å§": 930,
      "ine": 931,
      "å½¢": 932,
      "ç®¡": 933,
      "..": 934,
      "å¸Ī": 935,
      "äºĽ": 936,
      "è¿ĺ": 937,
      "ough": 938,
      "sa": 939,
      "iv": 940,
      "æŃ£": 941,
      "å¼ı": 942,
      "ie": 943,
      "æģ": 944,
      "åŃ¦çĶŁ": 945,
      "æŃ¤": 946,
      "æľĪ": 947,
      "ell": 948,
      "å®ī": 949,
      "ide": 950,
      "Th": 951,
      "__": 952,
      "èĪ": 953,
      "æ¡": 954,
      "çģ": 955,
      "ç²": 956,
      "éģĵ": 957,
      "çĪ": 958,
      "æ¯Ķ": 959,
      "ice": 960,
      "your": 961,
      "ä½Ĩ": 962,
      "der": 963,
      "å°Ĩ": 964,
      "ure": 965,
      "çŁ¥": 966,
      "ich": 967,
      "èĦ": 968,
      "day": 969,
      "çĥ": 970,
      "åİŁ": 971,
      "port": 972,
      "èį": 973,
      "çľĭ": 974,
      "è§Ħ": 975,
      "èµĦ": 976,
      "age": 977,
      "å¹³": 978,
      "tim": 979,
      "çī¹": 980,
      "åĪ©": 981,
      "çĽ®": 982,
      "est": 983,
      "è´¨": 984,
      "è¢": 985,
      "Ĥ£": 986,
      "éĶ": 987,
      "ä¹Ī": 988,
      "çĿĢ": 989,
      "my": 990,
      "able": 991,
      "bo": 992,
      "now": 993,
      "they": 994,
      "åĲį": 995,
      "ä»¶": 996,
      "ç»Ł": 997,
      "æį®": 998,
      "åĬ¡": 999,
      "æł·": 1000,
      "ame": 1001,
      "ck": 1002,
      "ound": 1003,
      "å£": 1004,
      "au": 1005,
      "æ¬¡": 1006,
      "æĦŁ": 1007,
      "åĵģ": 1008,
      "ated": 1009,
      "éĹ®": 1010,
      "ev": 1011,
      "low": 1012,
      "åıĺ": 1013,
      "åįģ": 1014,
      "ach": 1015,
      "å¾Ī": 1016,
      "æ·": 1017,
      "more": 1018,
      "æĽ´": 1019,
      "ire": 1020,
      "å·¥ä½ľ": 1021,
      "éª": 1022,
      "éĩĮ": 1023,
      "å¤Ħ": 1024,
      "$P": 1025,
      "form": 1026,
      "æĶ¿": 1027,
      "èĲ": 1028,
      "ç±»": 1029,
      "åģļ": 1030,
      "çĹħ": 1031,
      "åĲĦ": 1032,
      "èĤ²": 1033,
      "$P$": 1034,
      "ber": 1035,
      "çļĦï¼Į": 1036,
      "ä½ł": 1037,
      "av": 1038,
      "ong": 1039,
      "åĲĳ": 1040,
      "å·±": 1041,
      "comp": 1042,
      "æĮĩ": 1043,
      "ans": 1044,
      "æİ¥": 1045,
      "éĴ": 1046,
      "their": 1047,
      "ç«ĭ": 1048,
      "æĥ³": 1049,
      "ä¿¡": 1050,
      "ä¹ī": 1051,
      "af": 1052,
      "æ®": 1053,
      "ction": 1054,
      "ä¹¦": 1055,
      "who": 1056,
      "æłĩ": 1057,
      "è¯Ĩ": 1058,
      "some": 1059,
      "ake": 1060,
      "èĢĥ": 1061,
      "ore": 1062,
      "èº": 1063,
      "ip": 1064,
      "her": 1065,
      "å¯¼": 1066,
      "è¯Ń": 1067,
      "ç§ĳ": 1068,
      "æº": 1069,
      "ç»Ħ": 1070,
      "å¼º": 1071,
      "å®ĥ": 1072,
      "ä¸¤": 1073,
      "åįķ": 1074,
      "åĮº": 1075,
      "åħ·": 1076,
      "about": 1077,
      "èĩªå·±": 1078,
      "ts": 1079,
      "very": 1080,
      "way": 1081,
      "åĸ": 1082,
      "æľ¯": 1083,
      "ous": 1084,
      "æµģ": 1085,
      "ç¤¾": 1086,
      "æ±Ĥ": 1087,
      "åĳĺ": 1088,
      "è¢«": 1089,
      "è¿Ľè¡Į": 1090,
      "cre": 1091,
      "æ°Ķ": 1092,
      "get": 1093,
      "iz": 1094,
      "work": 1095,
      "åĦ": 1096,
      "ass": 1097,
      "du": 1098,
      "äº¤": 1099,
      "ep": 1100,
      "åŀ": 1101,
      "æ²»": 1102,
      "--": 1103,
      "which": 1104,
      "æĢĿ": 1105,
      "ary": 1106,
      "è®¤": 1107,
      "off": 1108,
      "åİ»": 1109,
      "year": 1110,
      "åŃĹ": 1111,
      "ä¼ł": 1112,
      "éĩĳ": 1113,
      "ail": 1114,
      "ite": 1115,
      "ll": 1116,
      "An": 1117,
      "éľĢ": 1118,
      "own": 1119,
      "It": 1120,
      "other": 1121,
      "bl": 1122,
      "çĬ": 1123,
      "ä»»": 1124,
      "è¯¾": 1125,
      "ï¼Ł": 1126,
      "èº«": 1127,
      "æ²¡": 1128,
      "es,": 1129,
      "è¥": 1130,
      "åıª": 1131,
      "ence": 1132,
      "St": 1133,
      "é©": 1134,
      "ç¾İ": 1135,
      "æ¯ı": 1136,
      "thing": 1137,
      "æīĭ": 1138,
      "ish": 1139,
      "è±": 1140,
      "pre": 1141,
      "åĦ¿": 1142,
      "ç¦": 1143,
      "ood": 1144,
      "åıĳå±ķ": 1145,
      "è®º": 1146,
      "æĿ¡": 1147,
      "åıĹ": 1148,
      "åĽĽ": 1149,
      "åıĪ": 1150,
      "ä¸ĸ": 1151,
      "è¥¿": 1152,
      "èĬĤ": 1153,
      "cont": 1154,
      "ia": 1155,
      "å°ĳ": 1156,
      "éŁ": 1157,
      "é¦": 1158,
      "man": 1159,
      "èī²": 1160,
      "èĻ": 1161,
      "åŃ¦ä¹ł": 1162,
      "ä¸ŃåĽ½": 1163,
      "ace": 1164,
      "str": 1165,
      "br": 1166,
      "Ch": 1167,
      "its": 1168,
      "å®¹": 1169,
      "ser": 1170,
      "ot": 1171,
      "had": 1172,
      "å¸Ĥ": 1173,
      "ï¼Įåľ¨": 1174,
      "è¿Ĳ": 1175,
      "ç¡®": 1176,
      "ance": 1177,
      "||": 1178,
      "åĪĻ": 1179,
      "ï¼Įä¸į": 1180,
      "time": 1181,
      "åĻ": 1182,
      "ick": 1183,
      "like": 1184,
      "ï¼Įè¿Ļ": 1185,
      "èĮ": 1186,
      "over": 1187,
      "åĪ«": 1188,
      "ition": 1189,
      "new": 1190,
      "æķĪ": 1191,
      "æĬĬ": 1192,
      "ase": 1193,
      "éĤ£": 1194,
      "æ»": 1195,
      "sp": 1196,
      "ical": 1197,
      "è¯ģ": 1198,
      "ign": 1199,
      "were": 1200,
      "é»": 1201,
      "part": 1202,
      "ty": 1203,
      "åħĥ": 1204,
      "æĿĥ": 1205,
      "Wh": 1206,
      "èĢģ": 1207,
      "åıĸ": 1208,
      "è¾ĥ": 1209,
      "said": 1210,
      "int": 1211,
      "æĬĢ": 1212,
      "è°ĥ": 1213,
      "dis": 1214,
      "ç¤¾ä¼ļ": 1215,
      "çłĶ": 1216,
      "éĢł": 1217,
      "çº§": 1218,
      "åħ»": 1219,
      "éĵ": 1220,
      "åħĪ": 1221,
      "è£": 1222,
      "é£İ": 1223,
      "ç´ł": 1224,
      "åı£": 1225,
      "ile": 1226,
      "would": 1227,
      "æĶ¶": 1228,
      "been": 1229,
      "pres": 1230,
      "åĻ¨": 1231,
      "æĹ¶ï¼Į": 1232,
      "åıį": 1233,
      "ok": 1234,
      "è§Ĥ": 1235,
      "ree": 1236,
      "å±±": 1237,
      "fer": 1238,
      "åľº": 1239,
      "åħ±": 1240,
      "è®°": 1241,
      "æ£": 1242,
      "We": 1243,
      "there": 1244,
      "è¯»": 1245,
      "éĹ®é¢ĺ": 1246,
      "çº¿": 1247,
      "æĶ¾": 1248,
      "æł¡": 1249,
      "èĩ³": 1250,
      "åĨĻ": 1251,
      "åķ": 1252,
      "æ³¨": 1253,
      "ble": 1254,
      "æł¼": 1255,
      "åŃĺ": 1256,
      "åĩĨ": 1257,
      "è®©": 1258,
      "ark": 1259,
      "æ¸ħ": 1260,
      "å²": 1261,
      "æĮģ": 1262,
      "æ²¡æľī": 1263,
      "æŀĦ": 1264,
      "pos": 1265,
      "å·²": 1266,
      "ï¼Įä½Ĩ": 1267,
      "ef": 1268,
      "ä¸ľ": 1269,
      "åŀĭ": 1270,
      "ple": 1271,
      "aw": 1272,
      "ç¥ŀ": 1273,
      "æķĻèĤ²": 1274,
      "éĹ¨": 1275,
      "ç»Ļ": 1276,
      "just": 1277,
      "èħ": 1278,
      "ph": 1279,
      "æĶ¹": 1280,
      "He": 1281,
      "æĢ»": 1282,
      "è·¯": 1283,
      "åįĹ": 1284,
      "åĽ¾": 1285,
      "than": 1286,
      "tw": 1287,
      "ç§°": 1288,
      "ink": 1289,
      "é£Ł": 1290,
      "also": 1291,
      "when": 1292,
      "od": 1293,
      "ï¼ĮèĢĮ": 1294,
      "fir": 1295,
      "å¢ŀ": 1296,
      "æ´»åĬ¨": 1297,
      "ial": 1298,
      "ren": 1299,
      "å®Į": 1300,
      "å°±æĺ¯": 1301,
      "è¾¾": 1302,
      "cor": 1303,
      "çĽ´": 1304,
      "inter": 1305,
      "å¤į": 1306,
      "cr": 1307,
      "them": 1308,
      "s.Ċ": 1309,
      "ue": 1310,
      "æł¹": 1311,
      "'t": 1312,
      "what": 1313,
      "ç½ĳ": 1314,
      "ä¸ĵ": 1315,
      "éĢī": 1316,
      "y,": 1317,
      "æºĲ": 1318,
      "pt": 1319,
      "äºĶ": 1320,
      "ç©¶": 1321,
      "åĨĽ": 1322,
      "ä¸Ńï¼Į": 1323,
      "çİ¯": 1324,
      "è±¡": 1325,
      "å¿ħ": 1326,
      "ç®¡çĲĨ": 1327,
      "çĻ½": 1328,
      "ç¤º": 1329,
      "è§ģ": 1330,
      "å¤ĩ": 1331,
      "cent": 1332,
      "å¼ķ": 1333,
      "old": 1334,
      "ç²¾": 1335,
      "æĪĺ": 1336,
      "æīį": 1337,
      "çı": 1338,
      "éŁ³": 1339,
      "æµ·": 1340,
      "ens": 1341,
      "é¡¹": 1342,
      "åħī": 1343,
      "æľį": 1344,
      "è¨": 1345,
      "ang": 1346,
      "ï¼Įå¹¶": 1347,
      "éĿŀ": 1348,
      "çľŁ": 1349,
      "çħ": 1350,
      "comm": 1351,
      "å¤´": 1352,
      "æĸĻ": 1353,
      "åĬŁ": 1354,
      "æŃ¥": 1355,
      "çķĮ": 1356,
      "cess": 1357,
      "èĬ±": 1358,
      "åį³": 1359,
      "This": 1360,
      "æ¨": 1361,
      "éĢļè¿ĩ": 1362,
      "åĮħ": 1363,
      "æĬ¥": 1364,
      "æķ´": 1365,
      "å¾ĭ": 1366,
      "ä»Ģ": 1367,
      "å¸¦": 1368,
      "ult": 1369,
      "ä¸»è¦ģ": 1370,
      "å¦Ĥæŀľ": 1371,
      "åĮĹ": 1372,
      "ions": 1373,
      "ç»Ĩ": 1374,
      "ç®Ĺ": 1375,
      "å½±": 1376,
      "è¡Ģ": 1377,
      "éĻ¢": 1378,
      "è½¦": 1379,
      "åĶ": 1380,
      "ful": 1381,
      "know": 1382,
      "into": 1383,
      "è¯¥": 1384,
      "çĬ¶": 1385,
      "æĹ¶éĹ´": 1386,
      "ä½¿çĶ¨": 1387,
      "éľĢè¦ģ": 1388,
      "ä»Ģä¹Ī": 1389,
      "åĲİï¼Į": 1390,
      "è¯ķ": 1391,
      "ater": 1392,
      "æ¡Ī": 1393,
      "åĨµ": 1394,
      "æŁ¥": 1395,
      "å¢ĥ": 1396,
      "åı¸": 1397,
      "she": 1398,
      "åĨ³": 1399,
      "çĭ": 1400,
      "åĽŀ": 1401,
      "åŃ©": 1402,
      "ob": 1403,
      "ä»·": 1404,
      "spe": 1405,
      "éĺ²": 1406,
      "log": 1407,
      "æĸ¹æ³ķ": 1408,
      "åİĨ": 1409,
      "è¨Ģ": 1410,
      "åĪĩ": 1411,
      "ä½ķ": 1412,
      "play": 1413,
      "è½¬": 1414,
      "ï¼Įä»¥": 1415,
      "åĪĽ": 1416,
      "ning": 1417,
      "how": 1418,
      "åı²": 1419,
      "åĳ½": 1420,
      "ï¼Įæĺ¯": 1421,
      "back": 1422,
      "âĢ¦": 1423,
      "æķħ": 1424,
      "éĽĨ": 1425,
      "é¥": 1426,
      "çĶŁæ´»": 1427,
      "ç©º": 1428,
      "ild": 1429,
      "æĺĵ": 1430,
      "Re": 1431,
      "æĬ¤": 1432,
      "sy": 1433,
      "æĸ½": 1434,
      "min": 1435,
      "ting": 1436,
      "æģ¯": 1437,
      "mer": 1438,
      "æµİ": 1439,
      "ry": 1440,
      "ade": 1441,
      "ç§¯": 1442,
      "first": 1443,
      "åĨį": 1444,
      "åıĤ": 1445,
      "çİĩ": 1446,
      "éªĮ": 1447,
      "çłĶç©¶": 1448,
      "es.": 1449,
      "æķĻåŃ¦": 1450,
      "ä¸ŃçļĦ": 1451,
      "ople": 1452,
      "ory": 1453,
      "app": 1454,
      "åı¤": 1455,
      "æ¢": 1456,
      "æĮī": 1457,
      "åĽ½å®¶": 1458,
      "att": 1459,
      "most": 1460,
      "å§ĭ": 1461,
      "æŀģ": 1462,
      "ç¦»": 1463,
      "éĻ¤": 1464,
      "æĸŃ": 1465,
      "æĢģ": 1466,
      "æ·±": 1467,
      "æĤ": 1468,
      "ents": 1469,
      "ook": 1470,
      "ãĢĤè¿Ļ": 1471,
      "åĢ¼": 1472,
      "des": 1473,
      "ç½®": 1474,
      "å¥³": 1475,
      "ian": 1476,
      "prov": 1477,
      "æ®µ": 1478,
      "mon": 1479,
      "ä¼ģ": 1480,
      "èİ": 1481,
      "ä¸ĩ": 1482,
      "row": 1483,
      "ï¼Įä¹Ł": 1484,
      "çİĭ": 1485,
      "ations": 1486,
      "åŃ©åŃĲ": 1487,
      "å®īåħ¨": 1488,
      "ä¾ĭ": 1489,
      "fore": 1490,
      "é¢Ĩ": 1491,
      "enc": 1492,
      "vers": 1493,
      "èĩ´": 1494,
      "reat": 1495,
      "çĲĥ": 1496,
      "ç³»ç»Ł": 1497,
      "ä½İ": 1498,
      "èģĶ": 1499,
      "éļ¾": 1500,
      "use": 1501,
      "åķĨ": 1502,
      "read": 1503,
      "åĵį": 1504,
      "è´¹": 1505,
      "æ¶Ī": 1506,
      "only": 1507,
      "âĢĻt": 1508,
      "æ¼": 1509,
      "ä¸Ģç§į": 1510,
      "è§Ĩ": 1511,
      "ç»ıæµİ": 1512,
      "éĻħ": 1513,
      "cau": 1514,
      "æĶ¯": 1515,
      "å¾·": 1516,
      "åĩł": 1517,
      "è´£": 1518,
      "cur": 1519,
      "two": 1520,
      "çĪ±": 1521,
      "add": 1522,
      "åĳ¨": 1523,
      "è®®": 1524,
      "çĥŃ": 1525,
      "çª": 1526,
      "ä¸Ķ": 1527,
      "people": 1528,
      "may": 1529,
      "è¯į": 1530,
      "bet": 1531,
      "coun": 1532,
      "ç»´": 1533,
      "ä»ĸä»¬": 1534,
      "éĢĤ": 1535,
      "å¤±": 1536,
      "å¤ª": 1537,
      "col": 1538,
      "cho": 1539,
      "____": 1540,
      "fin": 1541,
      "Ne": 1542,
      "çº¦": 1543,
      "èĥ½åĬĽ": 1544,
      ")Ċ": 1545,
      "ä¹Ĳ": 1546,
      "ï¼Įæľī": 1547,
      "ä¼ģä¸ļ": 1548,
      "æĬĢæľ¯": 1549,
      "åŁİ": 1550,
      "èı": 1551,
      "èģĮ": 1552,
      "âĢĵ": 1553,
      "Un": 1554,
      "ï¼ļĊ": 1555,
      "ï¼İ": 1556,
      "ors": 1557,
      "è¯Ŀ": 1558,
      "sel": 1559,
      "æĥħåĨµ": 1560,
      "ãĢĤåľ¨": 1561,
      "see": 1562,
      "rough": 1563,
      "è¦ģæ±Ĥ": 1564,
      "è¯·": 1565,
      "cause": 1566,
      "ed,": 1567,
      "éĩįè¦ģ": 1568,
      "æ¨¡": 1569,
      "ä¸įåĲĮ": 1570,
      "åĮ»": 1571,
      "å±ŀ": 1572,
      "ing,": 1573,
      "æľª": 1574,
      "say": 1575,
      "ä¾Ľ": 1576,
      "èĳ": 1577,
      "åı¯èĥ½": 1578,
      "need": 1579,
      "å¹¼": 1580,
      "gu": 1581,
      "),": 1582,
      "him": 1583,
      "iew": 1584,
      "æīĵ": 1585,
      "åı·": 1586,
      "look": 1587,
      "çļĦäºº": 1588,
      "ual": 1589,
      "hel": 1590,
      "çħ§": 1591,
      "èĮĥ": 1592,
      "incl": 1593,
      "ä»Ĭ": 1594,
      "é©¬": 1595,
      "æ£Ģ": 1596,
      "çŁ¥è¯Ĩ": 1597,
      "åĥ": 1598,
      "åĪĹ": 1599,
      "è¯Ĺ": 1600,
      "éĢŁ": 1601,
      "after": 1602,
      "èĪ¬": 1603,
      "ï¼Įä¸Ģ": 1604,
      "oc": 1605,
      "æµĭ": 1606,
      "bu": 1607,
      "éĩĩ": 1608,
      "é¦ĸ": 1609,
      "çıŃ": 1610,
      "je": 1611,
      "itt": 1612,
      "åħĭ": 1613,
      "ra": 1614,
      "ict": 1615,
      "ç¢": 1616,
      "æĺ¾": 1617,
      "reg": 1618,
      "where": 1619,
      "äººçļĦ": 1620,
      "å¹¿": 1621,
      "èį¯": 1622,
      "And": 1623,
      "èĲ¥": 1624,
      "well": 1625,
      "don": 1626,
      "As": 1627,
      "çĸĹ": 1628,
      "åĬ©": 1629,
      "ating": 1630,
      "å¿«": 1631,
      "æĸ¹éĿ¢": 1632,
      "âĢĿï¼Į": 1633,
      "è¿ĳ": 1634,
      "under": 1635,
      "å¹²": 1636,
      "io": 1637,
      "ä¾¿": 1638,
      "åİĭ": 1639,
      "ubl": 1640,
      "æĹı": 1641,
      "urn": 1642,
      "æİĴ": 1643,
      "ose": 1644,
      "serv": 1645,
      "è¿ĩç¨ĭ": 1646,
      "å¸ĥ": 1647,
      "åŁ¹": 1648,
      "å½±åĵį": 1649,
      "could": 1650,
      "åĬ³": 1651,
      "äººæ°ĳ": 1652,
      "ates": 1653,
      "æħ": 1654,
      "æŀĲ": 1655,
      "åĽłä¸º": 1656,
      "âĳ": 1657,
      "å¡": 1658,
      "med": 1659,
      "fl": 1660,
      "ï¼ĮæĪĳ": 1661,
      "çĮ": 1662,
      "right": 1663,
      "è¶³": 1664,
      "cial": 1665,
      "through": 1666,
      "er,": 1667,
      "æĳ": 1668,
      "è¶Ĭ": 1669,
      "åľŁ": 1670,
      "ious": 1671,
      "å¾Ģ": 1672,
      "âĢĶâĢĶ": 1673,
      "éĥ¨åĪĨ": 1674,
      "æİ¨": 1675,
      "?Ċ": 1676,
      "ï¼ļâĢľ": 1677,
      "æīĢä»¥": 1678,
      "å±Ĥ": 1679,
      "then": 1680,
      "æĪ¿": 1681,
      "lect": 1682,
      "sc": 1683,
      "ç»ĩ": 1684,
      "make": 1685,
      "air": 1686,
      "tt": 1687,
      "ä¾Ŀ": 1688,
      "ä¼ĺ": 1689,
      "åĬŀ": 1690,
      "ek": 1691,
      "åħ¬åı¸": 1692,
      "ä½ľçĶ¨": 1693,
      "come": 1694,
      "want": 1695,
      "åºı": 1696,
      "åĭ": 1697,
      "did": 1698,
      "ener": 1699,
      "åĪĴ": 1700,
      "æĪĸèĢħ": 1701,
      "èĭ±": 1702,
      "éħį": 1703,
      "è£ħ": 1704,
      "åĨľ": 1705,
      "ï¼ģ": 1706,
      "éĻ©": 1707,
      "æĿĲ": 1708,
      "si": 1709,
      "red": 1710,
      "ç±³": 1711,
      "æĸ¯": 1712,
      "down": 1713,
      "çģ«": 1714,
      "åĨħå®¹": 1715,
      "cer": 1716,
      "Com": 1717,
      "dif": 1718,
      "éļı": 1719,
      "è®¸": 1720,
      "dr": 1721,
      "æļ": 1722,
      "æĵ": 1723,
      "every": 1724,
      "äºī": 1725,
      "iss": 1726,
      "åł": 1727,
      "é¾": 1728,
      "ä¸¥": 1729,
      "åıĳçĶŁ": 1730,
      "arch": 1731,
      "æİ§": 1732,
      "æł¹æį®": 1733,
      "æıĲé«ĺ": 1734,
      "Con": 1735,
      "ving": 1736,
      "æķĻå¸Ī": 1737,
      "çļĦãĢĤ": 1738,
      "ise": 1739,
      "these": 1740,
      "é¡»": 1741,
      "For": 1742,
      "å¹¼åĦ¿": 1743,
      "ä¸ĸçķĮ": 1744,
      "å£°": 1745,
      "æĪ·": 1746,
      "è§Ħå®ļ": 1747,
      "ath": 1748,
      "åĪĿ": 1749,
      "ï¼Įåħ¶": 1750,
      "even": 1751,
      "ank": 1752,
      "çīĩ": 1753,
      "å¼ł": 1754,
      "ug": 1755,
      "ason": 1756,
      "If": 1757,
      "rel": 1758,
      "èĩªå·±çļĦ": 1759,
      "ä¸ĢäºĽ": 1760,
      "æ¹": 1761,
      "good": 1762,
      "åĢĻ": 1763,
      "fun": 1764,
      "çİ¯å¢ĥ": 1765,
      "ins": 1766,
      "åĥı": 1767,
      "åĩºçİ°": 1768,
      "âĢĿĊ": 1769,
      "produ": 1770,
      "You": 1771,
      "éĺ³": 1772,
      "åı¥": 1773,
      "æ»¡": 1774,
      "No": 1775,
      "ational": 1776,
      "ject": 1777,
      "Al": 1778,
      "åĲ«": 1779,
      "But": 1780,
      "æ¸¸": 1781,
      "ç»Ń": 1782,
      "uch": 1783,
      "çŁ³": 1784,
      "åĳĬ": 1785,
      "stem": 1786,
      "åįİ": 1787,
      "éĻĲ": 1788,
      "tain": 1789,
      "çĻ¾": 1790,
      "ç¯": 1791,
      "åħħ": 1792,
      "æī¿": 1793,
      "ed.": 1794,
      "çº¢": 1795,
      "let": 1796,
      "å©": 1797,
      "many": 1798,
      "é»Ħ": 1799,
      "æĴ": 1800,
      "a,": 1801,
      "fect": 1802,
      "high": 1803,
      "è¾¹": 1804,
      "æ¯į": 1805,
      "think": 1806,
      "though": 1807,
      "ever": 1808,
      "pers": 1809,
      "ç«ł": 1810,
      "ç¬¬ä¸Ģ": 1811,
      "å®³": 1812,
      "ç»Ħç»ĩ": 1813,
      "ident": 1814,
      "æł¸": 1815,
      "stud": 1816,
      "æ¿": 1817,
      "åĽŃ": 1818,
      "æ¸©": 1819,
      "should": 1820,
      "ities": 1821,
      "æĸĩåĮĸ": 1822,
      "cond": 1823,
      "sup": 1824,
      "æ²³": 1825,
      "land": 1826,
      "åħŃ": 1827,
      "De": 1828,
      "ative": 1829,
      "çĶ»": 1830,
      "because": 1831,
      "vis": 1832,
      "çĽĬ": 1833,
      "che": 1834,
      "ave": 1835,
      "ï¼Įå¯¹": 1836,
      "é¢Ħ": 1837,
      "åĩı": 1838,
      "åħ·æľī": 1839,
      "ä¸įèĥ½": 1840,
      "âĢĿçļĦ": 1841,
      "Â·": 1842,
      "é¸": 1843,
      "è¿ŀ": 1844,
      "|Ċ": 1845,
      "used": 1846,
      "view": 1847,
      "ä¿®": 1848,
      "New": 1849,
      "åħ³ç³»": 1850,
      ":Ċ": 1851,
      "help": 1852,
      "è¯Ħ": 1853,
      "å¿µ": 1854,
      "æĭ¬": 1855,
      "last": 1856,
      "ost": 1857,
      "æĬķ": 1858,
      "again": 1859,
      "ä»ħ": 1860,
      "ific": 1861,
      "!Ċ": 1862,
      "åħ¶ä»ĸ": 1863,
      "è®²": 1864,
      "è§ī": 1865,
      "åģ¥": 1866,
      "å£«": 1867,
      "pol": 1868,
      "åŁºæľ¬": 1869,
      "åĽ´": 1870,
      "line": 1871,
      "call": 1872,
      "mem": 1873,
      "åįı": 1874,
      "æĸ¹å¼ı": 1875,
      "æ±Ł": 1876,
      "åı°": 1877,
      "ress": 1878,
      "è¿Ļä¸ª": 1879,
      "long": 1880,
      "anc": 1881,
      "æĺ¥": 1882,
      "set": 1883,
      "ann": 1884,
      "wr": 1885,
      "sub": 1886,
      "ys": 1887,
      "car": 1888,
      "å°Ķ": 1889,
      "æŃ»": 1890,
      "\"Ċ": 1891,
      "cord": 1892,
      "ss": 1893,
      "å¾ģ": 1894,
      "å¤Ł": 1895,
      "ç¡Ģ": 1896,
      "ç®Ģ": 1897,
      "æ¯Ĵ": 1898,
      "è¿ľ": 1899,
      "åĪĨæŀĲ": 1900,
      "ç§ĳåŃ¦": 1901,
      "æľĿ": 1902,
      ").": 1903,
      "åŁºç¡Ģ": 1904,
      "US": 1905,
      "ä¸»ä¹ī": 1906,
      "ven": 1907,
      "åĽłæŃ¤": 1908,
      "ä¿¡æģ¯": 1909,
      "åħļ": 1910,
      "éĺŁ": 1911,
      "æ¥": 1912,
      "çļĦæĺ¯": 1913,
      "amp": 1914,
      "åŁŁ": 1915,
      "ased": 1916,
      "pect": 1917,
      "åħ´": 1918,
      "ä¼¤": 1919,
      "ç¼ĸ": 1920,
      "åº·": 1921,
      "show": 1922,
      "cle": 1923,
      "ash": 1924,
      "æŃ¢": 1925,
      "åĿĩ": 1926,
      "such": 1927,
      "here": 1928,
      "ä½ľä¸º": 1929,
      "æ¿Ģ": 1930,
      "stand": 1931,
      "sur": 1932,
      "start": 1933,
      "çĹĩ": 1934,
      "èī¯": 1935,
      "çĶŁäº§": 1936,
      "much": 1937,
      "åĲ¬": 1938,
      "æĻ¯": 1939,
      "æķ°æį®": 1940,
      "ret": 1941,
      "less": 1942,
      "ä¸ĢèĪ¬": 1943,
      "ily": 1944,
      "atch": 1945,
      "ä¸ĬçļĦ": 1946,
      "è®¾è®¡": 1947,
      "Se": 1948,
      "ular": 1949,
      "æ±ī": 1950,
      "put": 1951,
      "ä¸Ģå®ļ": 1952,
      "æŁĵ": 1953,
      "è´Ł": 1954,
      "self": 1955,
      "cons": 1956,
      "è§Ĵ": 1957,
      "aking": 1958,
      "éĿĴ": 1959,
      "äº²": 1960,
      "Ar": 1961,
      "çŃĶ": 1962,
      "ton": 1963,
      "alk": 1964,
      "æĹ©": 1965,
      "èĲ½": 1966,
      "å¤§çļĦ": 1967,
      "éĻį": 1968,
      "åŃ¦æł¡": 1969,
      "week": 1970,
      "ility": 1971,
      "ä¸įæĺ¯": 1972,
      "åıĮ": 1973,
      "èµ°": 1974,
      "çĶ±äºİ": 1975,
      "è¶ħ": 1976,
      "uring": 1977,
      "ited": 1978,
      "è¿°": 1979,
      "**": 1980,
      "æľĽ": 1981,
      "å¼Ģå§ĭ": 1982,
      "æ¬¾": 1983,
      "So": 1984,
      "æ¤": 1985,
      "try": 1986,
      "çĨ": 1987,
      "Fr": 1988,
      "å¨": 1989,
      "ange": 1990,
      "ç»ĥ": 1991,
      "ext": 1992,
      "ä½ı": 1993,
      "å·ŀ": 1994,
      "les": 1995,
      "n't": 1996,
      "å¿Ĺ": 1997,
      "è´¢": 1998,
      "includ": 1999,
      "made": 2000,
      "åĲ¦": 2001,
      "æĤ£": 2002,
      "å¿ħé¡»": 2003,
      "åĬ¿": 2004,
      "é¼": 2005,
      "ask": 2006,
      "åįĩ": 2007,
      "åĸĦ": 2008,
      "åĬ³åĬ¨": 2009,
      "ub": 2010,
      "åįķä½į": 2011,
      "sm": 2012,
      "åĲ¸": 2013,
      "ments": 2014,
      "éĤ": 2015,
      "loc": 2016,
      "å¥½çļĦ": 2017,
      "å±ħ": 2018,
      "being": 2019,
      "å±Ģ": 2020,
      "å¸Ŀ": 2021,
      "è¡Įä¸º": 2022,
      "book": 2023,
      "formation": 2024,
      "éħ¸": 2025,
      "En": 2026,
      "ï¼Įä»İ": 2027,
      "ublic": 2028,
      "çľ¼": 2029,
      "requ": 2030,
      "çľģ": 2031,
      "...": 2032,
      "åºľ": 2033,
      "èĢģå¸Ī": 2034,
      "åıĳçİ°": 2035,
      "åĲĥ": 2036,
      "ç»Ī": 2037,
      "I'": 2038,
      "those": 2039,
      "æŀĹ": 2040,
      "mark": 2041,
      "åİĨåı²": 2042,
      "before": 2043,
      "ward": 2044,
      "âĢĿãĢĤ": 2045,
      "æĪĲä¸º": 2046,
      "å¯Ĩ": 2047,
      "åĮħæĭ¬": 2048,
      "å·®": 2049,
      "ï¼Įä½¿": 2050,
      "ax": 2051,
      "Pro": 2052,
      "fol": 2053,
      "æľįåĬ¡": 2054,
      "å½ķ": 2055,
      "pon": 2056,
      "ä¸Ĭï¼Į": 2057,
      "éĿ©": 2058,
      "è®¡ç®Ĺ": 2059,
      "å½¢æĪĲ": 2060,
      "gan": 2061,
      "åħį": 2062,
      "è¡¥": 2063,
      "clo": 2064,
      "system": 2065,
      "è®Ń": 2066,
      "çŃĸ": 2067,
      "å¤ĦçĲĨ": 2068,
      "èīº": 2069,
      "does": 2070,
      "çĭ¬": 2071,
      "æłĳ": 2072,
      "å°½": 2073,
      "äºĨï¼Į": 2074,
      "fi": 2075,
      "led": 2076,
      "åįĥ": 2077,
      "eng": 2078,
      "èĨ": 2079,
      "æĭ©": 2080,
      "ãĢĤâĢĿ": 2081,
      "åħ«": 2082,
      "ved": 2083,
      "æ³¨æĦı": 2084,
      "peri": 2085,
      "chool": 2086,
      "ures": 2087,
      "çºª": 2088,
      "é²": 2089,
      "å®ĺ": 2090,
      "å¯Į": 2091,
      "sure": 2092,
      "velo": 2093,
      "äº§çĶŁ": 2094,
      "èİ·": 2095,
      "ç¨İ": 2096,
      "ff": 2097,
      "èĽ": 2098,
      "ç¯ĩ": 2099,
      "ç¿": 2100,
      "each": 2101,
      "æĢĿæĥ³": 2102,
      "going": 2103,
      "del": 2104,
      "æĢİ": 2105,
      "å¼Ĥ": 2106,
      "gram": 2107,
      "val": 2108,
      "fact": 2109,
      "tri": 2110,
      "å»ºè®¾": 2111,
      "å®¢": 2112,
      "lar": 2113,
      "Jo": 2114,
      "trans": 2115,
      "main": 2116,
      "take": 2117,
      "cour": 2118,
      "æĵį": 2119,
      "while": 2120,
      "æĹ¶åĢĻ": 2121,
      "æ³ķå¾ĭ": 2122,
      "äºĴ": 2123,
      "son": 2124,
      "char": 2125,
      "èĩªçĦ¶": 2126,
      "æłĩåĩĨ": 2127,
      "bus": 2128,
      "æ¦": 2129,
      "hand": 2130,
      "è½»": 2131,
      "ement": 2132,
      "ï¼Įå¦Ĥ": 2133,
      "æįŁ": 2134,
      "åĽ¢": 2135,
      "å®Ŀ": 2136,
      "differ": 2137,
      "ä»¤": 2138,
      "find": 2139,
      "æĭī": 2140,
      "çĽ¸åħ³": 2141,
      "äººåĳĺ": 2142,
      "å®¤": 2143,
      "åı¦": 2144,
      "ï¼Įå°±": 2145,
      "net": 2146,
      "y.": 2147,
      "ç»ľ": 2148,
      "ä¸ĵä¸ļ": 2149,
      "e,": 2150,
      "æ¶²": 2151,
      "run": 2152,
      "ince": 2153,
      "èŀ": 2154,
      "éĢīæĭ©": 2155,
      "è®¤ä¸º": 2156,
      "ãĢĤ$P$": 2157,
      "vent": 2158,
      "éĺ¶": 2159,
      "There": 2160,
      "fam": 2161,
      "az": 2162,
      "Ro": 2163,
      "ç¾¤": 2164,
      "å¾®": 2165,
      "ced": 2166,
      "sign": 2167,
      "åŃĺåľ¨": 2168,
      "ner": 2169,
      "head": 2170,
      "top": 2171,
      "èĦĳ": 2172,
      "ï¼Įä¸º": 2173,
      "person": 2174,
      "ä¹ĭéĹ´": 2175,
      "æıĲä¾Ľ": 2176,
      "num": 2177,
      "æĲ": 2178,
      "alth": 2179,
      "è¯ī": 2180,
      "åĲĮæĹ¶": 2181,
      "äºļ": 2182,
      "ç»ĵæŀĦ": 2183,
      "emp": 2184,
      "çļĦä¸Ģ": 2185,
      "å¸Ĥåľº": 2186,
      "To": 2187,
      "stru": 2188,
      "çļ®": 2189,
      "Amer": 2190,
      "di": 2191,
      "æ¯Ķè¾ĥ": 2192,
      "ï¼ĮæĪĳä»¬": 2193,
      "éĥ½æĺ¯": 2194,
      "ings": 2195,
      "years": 2196,
      "è½½": 2197,
      "ly,": 2198,
      "æĬĹ": 2199,
      "point": 2200,
      "ä¸ĥ": 2201,
      "Americ": 2202,
      "æĻ®": 2203,
      "æĺŁ": 2204,
      "oup": 2205,
      "jo": 2206,
      "Le": 2207,
      "leg": 2208,
      "åį´": 2209,
      "å·²ç»ı": 2210,
      "vel": 2211,
      "Cl": 2212,
      "çĪ¶": 2213,
      "åįĬ": 2214,
      "ween": 2215,
      "ï¼Įè¿ĺ": 2216,
      "è¾ĵ": 2217,
      "ç¬¬äºĮ": 2218,
      "ices": 2219,
      "det": 2220,
      "å·¥ç¨ĭ": 2221,
      "They": 2222,
      "great": 2223,
      "life": 2224,
      "ually": 2225,
      "On": 2226,
      "ç»§": 2227,
      "world": 2228,
      "æī§": 2229,
      "å¯Ł": 2230,
      "å¤§åŃ¦": 2231,
      "çķĻ": 2232,
      "æ²»çĸĹ": 2233,
      "lead": 2234,
      "really": 2235,
      "åĪ°äºĨ": 2236,
      "æŁĲ": 2237,
      "sim": 2238,
      "èĥŀ": 2239,
      "åĿļ": 2240,
      "åĩ»": 2241,
      "ship": 2242,
      "vol": 2243,
      "ä¸¾": 2244,
      "ç²¾ç¥ŀ": 2245,
      "åĬŁèĥ½": 2246,
      "å©ļ": 2247,
      "çĽĳ": 2248,
      "a.": 2249,
      "velop": 2250,
      "iness": 2251,
      "ä¼Ĺ": 2252,
      "å¹´ï¼Į": 2253,
      "ing.": 2254,
      "å¾Īå¤ļ": 2255,
      "çªģ": 2256,
      "æĿ¥ï¼Į": 2257,
      "ä»¥åıĬ": 2258,
      "still": 2259,
      "three": 2260,
      "éĶĻ": 2261,
      "æĿ¿": 2262,
      "ç¼º": 2263,
      "è¡¨çİ°": 2264,
      "arm": 2265,
      "æİ§åĪ¶": 2266,
      "åıĭ": 2267,
      "æį¢": 2268,
      "als": 2269,
      "ï¼īĊ": 2270,
      "team": 2271,
      "care": 2272,
      "çĹĽ": 2273,
      "å®ŀéĻħ": 2274,
      "çł´": 2275,
      "æľ¨": 2276,
      "ä¸ªäºº": 2277,
      "cut": 2278,
      "èĴ": 2279,
      "home": 2280,
      "åºĶçĶ¨": 2281,
      "åĽº": 2282,
      "nâĢĻt": 2283,
      "Br": 2284,
      "ç½ĳç»ľ": 2285,
      "information": 2286,
      "ers,": 2287,
      "ä¸ĭï¼Į": 2288,
      "ics": 2289,
      "åĤ": 2290,
      "test": 2291,
      "xt": 2292,
      "side": 2293,
      "æ²¹": 2294,
      "S.": 2295,
      "pri": 2296,
      "çķ¥": 2297,
      "çļĦâĢľ": 2298,
      "è¿ĲåĬ¨": 2299,
      "çº³": 2300,
      "æĿ¡ä»¶": 2301,
      "çĶ²": 2302,
      "ves": 2303,
      "sing": 2304,
      "fil": 2305,
      ",\"": 2306,
      "èįī": 2307,
      "Be": 2308,
      "åį«": 2309,
      "å®¡": 2310,
      "è´£ä»»": 2311,
      "ä¿ĿæĬ¤": 2312,
      "real": 2313,
      "ah": 2314,
      "same": 2315,
      "light": 2316,
      "between": 2317,
      "è¿ĻäºĽ": 2318,
      "ouse": 2319,
      "æĪĳåĽ½": 2320,
      "place": 2321,
      "ç«¯": 2322,
      "best": 2323,
      "dec": 2324,
      "list": 2325,
      "çĽ®æłĩ": 2326,
      "åĪ¶åº¦": 2327,
      "å¯¹äºİ": 2328,
      "too": 2329,
      "åİ¿": 2330,
      "äººä»¬": 2331,
      "åĲĪåĲĮ": 2332,
      "present": 2333,
      "par": 2334,
      "irect": 2335,
      "child": 2336,
      "æŃĮ": 2337,
      "around": 2338,
      "å°Ħ": 2339,
      "äºĨè§£": 2340,
      "å¤«": 2341,
      "ä»½": 2342,
      "æĽ²": 2343,
      "inst": 2344,
      "gl": 2345,
      "æī¾": 2346,
      "Ad": 2347,
      "é¢Ŀ": 2348,
      "åĪ¤": 2349,
      "ç»Ĩèĥŀ": 2350,
      "åŁ¹åħ»": 2351,
      "åį°": 2352,
      "åºĶè¯¥": 2353,
      "follow": 2354,
      "Tr": 2355,
      "ï¼ŁĊ": 2356,
      "æ¼Ķ": 2357,
      "Sh": 2358,
      "æĿĳ": 2359,
      "post": 2360,
      "sk": 2361,
      "çİ°åľ¨": 2362,
      "åı¶": 2363,
      "How": 2364,
      "èĹ": 2365,
      "cept": 2366,
      "miss": 2367,
      "æīĢæľī": 2368,
      "dy": 2369,
      "both": 2370,
      "åĲĦç§į": 2371,
      "ãĢĳ": 2372,
      "Ph": 2373,
      "æŃ¦": 2374,
      "å§Ķ": 2375,
      "å¸®": 2376,
      "ittle": 2377,
      "ivers": 2378,
      "åģ¥åº·": 2379,
      "She": 2380,
      "å²ģ": 2381,
      "ww": 2382,
      "ãĢĲ": 2383,
      "å·¦": 2384,
      "èĥ½å¤Ł": 2385,
      "ower": 2386,
      "found": 2387,
      "æĭħ": 2388,
      "åĸľ": 2389,
      "åĪ©çĶ¨": 2390,
      "lot": 2391,
      "ï¼Įå®ĥ": 2392,
      "ç£": 2393,
      "æ½": 2394,
      "bre": 2395,
      "åºķ": 2396,
      "æľīåħ³": 2397,
      "ä¸´": 2398,
      "åłĤ": 2399,
      "çŁŃ": 2400,
      "game": 2401,
      "çĲĨè®º": 2402,
      "ways": 2403,
      "èĤ¡": 2404,
      "åĪ»": 2405,
      "å®ŀçİ°": 2406,
      "äººï¼Į": 2407,
      "åįł": 2408,
      "æĶ¿åºľ": 2409,
      "ç¬Ķ": 2410,
      "åı³": 2411,
      "atter": 2412,
      "e.": 2413,
      "åĳ³": 2414,
      "ç§»": 2415,
      "åĵª": 2416,
      "æĿİ": 2417,
      "cap": 2418,
      "åĳ¢": 2419,
      "éĨ": 2420,
      "èĳĹ": 2421,
      "äº¬": 2422,
      "program": 2423,
      "sol": 2424,
      "äºĨãĢĤ": 2425,
      "ten": 2426,
      "è¿Ļæł·": 2427,
      "var": 2428,
      "ms": 2429,
      "----": 2430,
      "report": 2431,
      "æı¡": 2432,
      "eld": 2433,
      "gener": 2434,
      "åľ°åĮº": 2435,
      "çĤİ": 2436,
      "ä¹Ŀ": 2437,
      "å¤§å®¶": 2438,
      "ation,": 2439,
      "åį±": 2440,
      "çĵ": 2441,
      "ä»ĺ": 2442,
      "éĶĢ": 2443,
      "çĩ": 2444,
      "ature": 2445,
      "ï¼īï¼Į": 2446,
      "éĢłæĪĲ": 2447,
      "ional": 2448,
      "åºŃ": 2449,
      "éĥ¨éĹ¨": 2450,
      "using": 2451,
      "åºĶå½ĵ": 2452,
      "ä»ĭ": 2453,
      "é£ŀ": 2454,
      "âĢĺ": 2455,
      "èĥĮ": 2456,
      "äº§åĵģ": 2457,
      "æ¤į": 2458,
      "search": 2459,
      "got": 2460,
      "riend": 2461,
      "second": 2462,
      "ft": 2463,
      "å»ºç«ĭ": 2464,
      "develop": 2465,
      "ider": 2466,
      "Ex": 2467,
      "ER": 2468,
      "exam": 2469,
      "éħĴ": 2470,
      "ç¬¦": 2471,
      "çĶ³": 2472,
      "èĭ¥": 2473,
      "commun": 2474,
      "åħ¸": 2475,
      "dat": 2476,
      "è´¨éĩı": 2477,
      "few": 2478,
      "åİŁåĽł": 2479,
      "ç»Ŀ": 2480,
      "èĻ½": 2481,
      "èŀį": 2482,
      "Co": 2483,
      "unt": 2484,
      "open": 2485,
      "ma": 2486,
      "ä¿ĥ": 2487,
      "rent": 2488,
      "åħµ": 2489,
      "support": 2490,
      "issu": 2491,
      "akes": 2492,
      "ion,": 2493,
      "çĸ¾": 2494,
      "site": 2495,
      "è·µ": 2496,
      "plic": 2497,
      "äºĳ": 2498,
      "éļľ": 2499,
      "ä¼¼": 2500,
      "ç½Ĺ": 2501,
      "è¿Ļç§į": 2502,
      "çĽ´æİ¥": 2503,
      "dist": 2504,
      "Mar": 2505,
      "happ": 2506,
      "IâĢĻ": 2507,
      "ese": 2508,
      "little": 2509,
      "æ¦Ĥ": 2510,
      "å¾ħ": 2511,
      "è§£åĨ³": 2512,
      "ord": 2513,
      "å¥¹": 2514,
      "éĤ£ä¹Ī": 2515,
      "opt": 2516,
      "IN": 2517,
      "é¾Ļ": 2518,
      "What": 2519,
      "å¦Ī": 2520,
      "æī¹": 2521,
      "æĻº": 2522,
      "giv": 2523,
      "èµĦæºĲ": 2524,
      "åħ·ä½ĵ": 2525,
      "sĊ": 2526,
      "çĽĺ": 2527,
      "éĺħ": 2528,
      "Pr": 2529,
      "æĿĲæĸĻ": 2530,
      "å¢ŀåĬł": 2531,
      "That": 2532,
      "ale": 2533,
      "month": 2534,
      "ied": 2535,
      "åıĺåĮĸ": 2536,
      "åĲĹ": 2537,
      "respon": 2538,
      "å½¢å¼ı": 2539,
      "different": 2540,
      "ä½Ļ": 2541,
      "state": 2542,
      "çŁ¥éģĵ": 2543,
      "ãĢĤä½Ĩ": 2544,
      "ense": 2545,
      "éĿŀå¸¸": 2546,
      "ired": 2547,
      "æİĮ": 2548,
      "æĢ¥": 2549,
      "åĶĲ": 2550,
      "éĩĬ": 2551,
      "Is": 2552,
      "å¿ĥçĲĨ": 2553,
      "é½": 2554,
      "Gr": 2555,
      "ç¾İåĽ½": 2556,
      "press": 2557,
      "es.Ċ": 2558,
      "free": 2559,
      "å¯¼èĩ´": 2560,
      "ï¼Įåı¯": 2561,
      "ç»ĵåĲĪ": 2562,
      "ness": 2563,
      "rest": 2564,
      "bit": 2565,
      "æıĲåĩº": 2566,
      "æĽ¾": 2567,
      "å¦Ĥä½ķ": 2568,
      "å®ĮæĪĲ": 2569,
      "çŃĳ": 2570,
      "ä¹ŁãĢĤ": 2571,
      "éĵ¶": 2572,
      "èĭı": 2573,
      "è¯Ńè¨Ģ": 2574,
      "school": 2575,
      "prof": 2576,
      "åıªæľī": 2577,
      "âĢ¦âĢ¦": 2578,
      "æ³¢": 2579,
      "å®Ĺ": 2580,
      "pass": 2581,
      "æ¬¢": 2582,
      "é»ĳ": 2583,
      "ä¸¤ä¸ª": 2584,
      "åı«": 2585,
      "group": 2586,
      "pur": 2587,
      "é¡¹çĽ®": 2588,
      "os": 2589,
      "è½¯": 2590,
      "ger": 2591,
      "room": 2592,
      "è¶£": 2593,
      "win": 2594,
      "during": 2595,
      "design": 2596,
      "ï¼Įåı¯ä»¥": 2597,
      "quest": 2598,
      "All": 2599,
      "friend": 2600,
      "éĢģ": 2601,
      "public": 2602,
      "éª¨": 2603,
      "æİ¢": 2604,
      "tech": 2605,
      "çīĪ": 2606,
      "å®Ī": 2607,
      "ize": 2608,
      "ital": 2609,
      "feel": 2610,
      "r.": 2611,
      "ç½ª": 2612,
      "è¯´ï¼Į": 2613,
      "ç§¯æŀģ": 2614,
      "å®ŀè·µ": 2615,
      "contin": 2616,
      "è¯¯": 2617,
      "ï¼ĮæīĢä»¥": 2618,
      "éģ¿": 2619,
      "cover": 2620,
      "ç´¢": 2621,
      "won": 2622,
      "ä»¥ä¸Ĭ": 2623,
      "ä¸ºäºĨ": 2624,
      "big": 2625,
      "éĴĪ": 2626,
      "another": 2627,
      "provid": 2628,
      "name": 2629,
      "çĶļ": 2630,
      "éĢĲ": 2631,
      "æ°´å¹³": 2632,
      "gest": 2633,
      "ä¹Łæĺ¯": 2634,
      "å½Ĵ": 2635,
      "ï¼Įè®©": 2636,
      "è®¡åĪĴ": 2637,
      "next": 2638,
      "æķ£": 2639,
      "When": 2640,
      "Inter": 2641,
      "æĸĩä»¶": 2642,
      "åģ¿": 2643,
      "order": 2644,
      "vi": 2645,
      "å¼ķèµ·": 2646,
      "ä»£è¡¨": 2647,
      "æ°ĳæĹı": 2648,
      "oper": 2649,
      "é¦Ļ": 2650,
      "ä»¥ä¸ĭ": 2651,
      "dri": 2652,
      "å°ģ": 2653,
      "æ£ĢæŁ¥": 2654,
      "incre": 2655,
      "åľ°æĸ¹": 2656,
      "ris": 2657,
      "fic": 2658,
      "partic": 2659,
      "ized": 2660,
      "ator": 2661,
      "vest": 2662,
      "law": 2663,
      ".\"Ċ": 2664,
      "enter": 2665,
      "èĤī": 2666,
      "rist": 2667,
      "plan": 2668,
      "çĲĨè§£": 2669,
      "éº": 2670,
      "ç»¿": 2671,
      "eas": 2672,
      "æĿĤ": 2673,
      "ä¸°": 2674,
      "ically": 2675,
      "è®¸å¤ļ": 2676,
      "æħ¢": 2677,
      "aph": 2678,
      "èıĮ": 2679,
      "Col": 2680,
      "æĶ¿æ²»": 2681,
      "åĲĮåŃ¦": 2682,
      "æŃ£ç¡®": 2683,
      "çŃīãĢĤ": 2684,
      "åģĩ": 2685,
      "å®«": 2686,
      "åīĤ": 2687,
      "day,": 2688,
      "é¥®": 2689,
      "åĬłå¼º": 2690,
      "æ¯Ľ": 2691,
      "èľ": 2692,
      "bers": 2693,
      "å¸Į": 2694,
      "çļĩ": 2695,
      "oto": 2696,
      "ç´§": 2697,
      "allow": 2698,
      "gre": 2699,
      "ude": 2700,
      "è¿Ļä¸Ģ": 2701,
      "loy": 2702,
      "äºĪ": 2703,
      "cri": 2704,
      "exp": 2705,
      "æĿ¥çļĦ": 2706,
      "éĩĩçĶ¨": 2707,
      "business": 2708,
      "bro": 2709,
      "ç«Ļ": 2710,
      "åį¡": 2711,
      "interest": 2712,
      "ric": 2713,
      "season": 2714,
      "soci": 2715,
      "against": 2716,
      "æľīæķĪ": 2717,
      "ä¹°": 2718,
      "came": 2719,
      "AN": 2720,
      "ç»ĵæŀľ": 2721,
      "ces": 2722,
      "product": 2723,
      "å®£": 2724,
      "AT": 2725,
      "national": 2726,
      "ï¼Įä»ĸ": 2727,
      "since": 2728,
      "éŃ": 2729,
      "something": 2730,
      "ä»·åĢ¼": 2731,
      "process": 2732,
      "ages": 2733,
      "ather": 2734,
      "ork": 2735,
      "night": 2736,
      "çģµ": 2737,
      "æīįèĥ½": 2738,
      "it.": 2739,
      "æĤ£èĢħ": 2740,
      "ont": 2741,
      "ared": 2742,
      "ï¼Įåį³": 2743,
      "ç¨ĭåºı": 2744,
      "contro": 2745,
      "Pl": 2746,
      "ross": 2747,
      "æĢ§çļĦ": 2748,
      "including": 2749,
      "water": 2750,
      "market": 2751,
      "Or": 2752,
      "äººç±»": 2753,
      "four": 2754,
      "éĶ®": 2755,
      "åŃ¦çĶŁçļĦ": 2756,
      "import": 2757,
      "è´§": 2758,
      "å·´": 2759,
      "é±": 2760,
      "word": 2761,
      ".com": 2762,
      "must": 2763,
      "ient": 2764,
      "better": 2765,
      "çļĦæĹ¶åĢĻ": 2766,
      "number": 2767,
      "æĺ¯åĲ¦": 2768,
      "sit": 2769,
      "çī¹åĪ«": 2770,
      "ished": 2771,
      "æĵįä½ľ": 2772,
      ",âĢĿ": 2773,
      "çĻ»": 2774,
      "ä¸Ģæ¬¡": 2775,
      "illion": 2776,
      "gy": 2777,
      "ped": 2778,
      "ç¦ı": 2779,
      "keep": 2780,
      "never": 2781,
      "ç¤¼": 2782,
      "çĨŁ": 2783,
      "uck": 2784,
      "appe": 2785,
      "met": 2786,
      "é¡º": 2787,
      "éģĹ": 2788,
      "é±¼": 2789,
      "vir": 2790,
      "experi": 2791,
      "love": 2792,
      "ush": 2793,
      "èĭ¦": 2794,
      "organ": 2795,
      "çī¹çĤ¹": 2796,
      "éĢĢ": 2797,
      "ä¹ĭä¸Ģ": 2798,
      "avail": 2799,
      "pay": 2800,
      "åħ°": 2801,
      "iting": 2802,
      "çİ°ä»£": 2803,
      "ç»¼": 2804,
      "proble": 2805,
      "å®¶éķ¿": 2806,
      "qual": 2807,
      "direct": 2808,
      "wom": 2809,
      "æĢİä¹Ī": 2810,
      "ç¬¬ä¸ī": 2811,
      "hard": 2812,
      "oth": 2813,
      "æ´²": 2814,
      "ï½": 2815,
      "My": 2816,
      "æĮīçħ§": 2817,
      "without": 2818,
      "atur": 2819,
      "sum": 2820,
      "ames": 2821,
      "por": 2822,
      "å¸®åĬ©": 2823,
      "ç§ĭ": 2824,
      "çĺ": 2825,
      "rece": 2826,
      ".,": 2827,
      "èīºæľ¯": 2828,
      "nor": 2829,
      "AR": 2830,
      "ï¼Įæ¯ı": 2831,
      "vo": 2832,
      "æĪı": 2833,
      "è®¤è¯Ĩ": 2834,
      "power": 2835,
      "åĢŁ": 2836,
      "uc": 2837,
      "è®¾å¤ĩ": 2838,
      "çłģ": 2839,
      "å®ĭ": 2840,
      "hn": 2841,
      "comple": 2842,
      "æĹ¶æľŁ": 2843,
      "æ°§": 2844,
      "æĥ¯": 2845,
      "ä¸Ģæł·": 2846,
      "äº¤éĢļ": 2847,
      "health": 2848,
      "pot": 2849,
      "possi": 2850,
      "small": 2851,
      "gover": 2852,
      "ä¸Ńå¿ĥ": 2853,
      "effect": 2854,
      "stat": 2855,
      "æĿ¾": 2856,
      "æĦ¿": 2857,
      "éĽ¨": 2858,
      "ä¸įæĸŃ": 2859,
      "èĽĭ": 2860,
      "ç¥ĸ": 2861,
      "Coun": 2862,
      "ä¹ħ": 2863,
      "åĿĹ": 2864,
      "lear": 2865,
      "åħ³äºİ": 2866,
      "ism": 2867,
      "er.": 2868,
      "æĹ¢": 2869,
      "it's": 2870,
      "ï¼ĽĊ": 2871,
      "è¿ĩĊ": 2872,
      "éĺħè¯»": 2873,
      "build": 2874,
      "class": 2875,
      "aren": 2876,
      "éĺ´": 2877,
      "________": 2878,
      "åģľ": 2879,
      "level": 2880,
      "beli": 2881,
      "perform": 2882,
      "ability": 2883,
      "ready": 2884,
      "pat": 2885,
      "seem": 2886,
      "éĿĻ": 2887,
      "ç¡¬": 2888,
      "ç³ĸ": 2889,
      "è¯¢": 2890,
      "è¿ĺæĺ¯": 2891,
      "é¢ĳ": 2892,
      "dep": 2893,
      "ball": 2894,
      "gin": 2895,
      "æĮ¥": 2896,
      "web": 2897,
      "å®¹æĺĵ": 2898,
      "mus": 2899,
      "ç«¥": 2900,
      "May": 2901,
      "åĽ½éĻħ": 2902,
      "ç¨³": 2903,
      "å»ºçŃĳ": 2904,
      "è¿½": 2905,
      "è¡¨ç¤º": 2906,
      "ib": 2907,
      "ï¼Įè¦ģ": 2908,
      "iversity": 2909,
      "çĦ¶åĲİ": 2910,
      "face": 2911,
      "åıĬæĹ¶": 2912,
      "ä¹¡": 2913,
      "çĬ¯": 2914,
      "çī©è´¨": 2915,
      "mar": 2916,
      "ON": 2917,
      "At": 2918,
      "might": 2919,
      "æ°ı": 2920,
      "è¿Ľåħ¥": 2921,
      "åĲ¯": 2922,
      "aim": 2923,
      "ution": 2924,
      "åĪĳ": 2925,
      "æĦıè¯Ĩ": 2926,
      "éĵģ": 2927,
      "Car": 2928,
      "ä»į": 2929,
      "spec": 2930,
      "don't": 2931,
      "æĸ°çļĦ": 2932,
      "ä¼łç»Ł": 2933,
      "cu": 2934,
      "äº«": 2935,
      "Ser": 2936,
      "change": 2937,
      "lin": 2938,
      "adv": 2939,
      "U.": 2940,
      "Bl": 2941,
      "åħ±åĲĮ": 2942,
      "åĺ": 2943,
      "è¿Ŀ": 2944,
      "æ¸Ĳ": 2945,
      "//": 2946,
      "æī§è¡Į": 2947,
      "case": 2948,
      "ird": 2949,
      "æıı": 2950,
      "lim": 2951,
      "nment": 2952,
      "èĢĥè¯ķ": 2953,
      "grow": 2954,
      "å½©": 2955,
      "åĨ²": 2956,
      "company": 2957,
      "åĪĺ": 2958,
      "çĶŁçī©": 2959,
      "å¾ĹåĪ°": 2960,
      "éģĩ": 2961,
      ".âĢĿĊ": 2962,
      "èº«ä½ĵ": 2963,
      "gen": 2964,
      "cell": 2965,
      "available": 2966,
      "éĺ¶æ®µ": 2967,
      "åľĨ": 2968,
      "ä¸ĢãĢģ": 2969,
      "based": 2970,
      "å¼Ģå±ķ": 2971,
      "rele": 2972,
      "èµĽ": 2973,
      "èĵ": 2974,
      "la": 2975,
      "....": 2976,
      "bal": 2977,
      "ä¸ĢæŃ¥": 2978,
      "åĳ¼": 2979,
      "turn": 2980,
      "åŃ£": 2981,
      "men": 2982,
      "èĹı": 2983,
      "ele": 2984,
      "fort": 2985,
      "çĶ¨äºİ": 2986,
      "John": 2987,
      "æľºæŀĦ": 2988,
      "çĽ®åīį": 2989,
      "ä¸¥éĩį": 2990,
      "oot": 2991,
      "æ´¾": 2992,
      "uss": 2993,
      "appro": 2994,
      "Fe": 2995,
      "ES": 2996,
      "è¾¾åĪ°": 2997,
      "A.": 2998,
      "p.": 2999,
      "èŃ": 3000,
      "on,": 3001,
      "çļĦå¤§": 3002,
      "æŃ£å¸¸": 3003,
      "position": 3004,
      "fac": 3005,
      "ues": 3006,
      "move": 3007,
      "äº¡": 3008,
      "'re": 3009,
      "ey": 3010,
      "ç¡®å®ļ": 3011,
      "æĦıä¹ī": 3012,
      ").Ċ": 3013,
      "I'm": 3014,
      "éĴ±": 3015,
      "å¤ľ": 3016,
      "æī©": 3017,
      "itch": 3018,
      "åĽ°": 3019,
      "æķ°åŃ¦": 3020,
      "åĨ·": 3021,
      "Res": 3022,
      "ï¼ĮæľĢ": 3023,
      "away": 3024,
      "å³": 3025,
      "things": 3026,
      "ç»¼åĲĪ": 3027,
      "IS": 3028,
      "bed": 3029,
      "è´Ń": 3030,
      "éĴŁ": 3031,
      "def": 3032,
      "ever,": 3033,
      "è¡ĮæĶ¿": 3034,
      "ï½ŀ": 3035,
      "always": 3036,
      "ä¸Ģèµ·": 3037,
      "ago": 3038,
      "èĻļ": 3039,
      "èıľ": 3040,
      "å¥ĩ": 3041,
      "ters": 3042,
      "ï¼Įå¦Ĥæŀľ": 3043,
      "ably": 3044,
      "åĽłç´ł": 3045,
      "æĸĹ": 3046,
      "ç»©": 3047,
      "AS": 3048,
      "current": 3049,
      "æĮĩå¯¼": 3050,
      "çĶ·": 3051,
      "it,": 3052,
      "éĺ¿": 3053,
      "action": 3054,
      "hist": 3055,
      "çĶŁåĳ½": 3056,
      "Man": 3057,
      "èĮ¶": 3058,
      "With": 3059,
      "manag": 3060,
      "åĿı": 3061,
      "æīĺ": 3062,
      "ix": 3063,
      "çĶļèĩ³": 3064,
      "æĬķèµĦ": 3065,
      "åŁİå¸Ĥ": 3066,
      "ä¹łæĥ¯": 3067,
      "çĶ³è¯·": 3068,
      "Ap": 3069,
      "ed.Ċ": 3070,
      "å¹´çļĦ": 3071,
      "ier": 3072,
      "èĨľ": 3073,
      "åŃĶ": 3074,
      "ï¼ĮåıĪ": 3075,
      "è°Ī": 3076,
      "pop": 3077,
      "bor": 3078,
      "thor": 3079,
      "ï¼Įä½Ĩæĺ¯": 3080,
      "å±ŀäºİ": 3081,
      "hold": 3082,
      "æ³ķéĻ¢": 3083,
      "å»¶": 3084,
      "ation.": 3085,
      "Âł": 3086,
      "æľĭ": 3087,
      "ars": 3088,
      "logy": 3089,
      "èĸ": 3090,
      "èĮĥåĽ´": 3091,
      "ç§°ä¸º": 3092,
      "è§¦": 3093,
      "æİª": 3094,
      "hum": 3095,
      "return": 3096,
      "count": 3097,
      "æĩ": 3098,
      "çĸ«": 3099,
      "ä»ĸçļĦ": 3100,
      "ety": 3101,
      "æľīçļĦ": 3102,
      "åĢº": 3103,
      "outh": 3104,
      "éĩįçĤ¹": 3105,
      "åİŁåĪĻ": 3106,
      "American": 3107,
      "ants": 3108,
      "å¼Ģåıĳ": 3109,
      "left": 3110,
      "ribut": 3111,
      "record": 3112,
      "Af": 3113,
      "æİĮæı¡": 3114,
      "ik": 3115,
      "ä¹İ": 3116,
      "graph": 3117,
      "Do": 3118,
      "prom": 3119,
      "èİ·å¾Ĺ": 3120,
      "data": 3121,
      "å§ĵ": 3122,
      "åĬª": 3123,
      "è´µ": 3124,
      "give": 3125,
      "inal": 3126,
      "åħ¨åĽ½": 3127,
      "åį·": 3128,
      "èĥľ": 3129,
      "å®ŀæĸ½": 3130,
      "è¯´æĺİ": 3131,
      "æĴŃ": 3132,
      "body": 3133,
      "ï¼Įå¤§": 3134,
      "family": 3135,
      "ä»»ä½ķ": 3136,
      "å®¶åºŃ": 3137,
      "itâĢĻs": 3138,
      "tom": 3139,
      "æ¹ĸ": 3140,
      "äºĮãĢģ": 3141,
      "åºĵ": 3142,
      "æĢĢ": 3143,
      "èĻ½çĦ¶": 3144,
      "offer": 3145,
      "é¢Ĩå¯¼": 3146,
      "çĸ¾çĹħ": 3147,
      "meet": 3148,
      "invest": 3149,
      "ä¸įä¼ļ": 3150,
      "hop": 3151,
      "sal": 3152,
      "æķĪæŀľ": 3153,
      "ç§¦": 3154,
      "until": 3155,
      "offic": 3156,
      "ï¼ĮèĢĮä¸Ķ": 3157,
      "éĻĦ": 3158,
      "chang": 3159,
      "ute": 3160,
      "full": 3161,
      "è®¨": 3162,
      "project": 3163,
      "ustom": 3164,
      "ä¹Ļ": 3165,
      "æĻļ": 3166,
      "Ac": 3167,
      "Nor": 3168,
      "ling": 3169,
      "åįļ": 3170,
      "è¯¸": 3171,
      "children": 3172,
      "åĨ³å®ļ": 3173,
      "çº¸": 3174,
      "example": 3175,
      "ä¿ĿéĻ©": 3176,
      "past": 3177,
      "åºĬ": 3178,
      "åĪĩï¼Į": 3179,
      "expect": 3180,
      "æ²Ļ": 3181,
      "tell": 3182,
      "èµĦæĸĻ": 3183,
      "hal": 3184,
      "æ¥¼": 3185,
      "cost": 3186,
      "c.": 3187,
      "talk": 3188,
      "äº®": 3189,
      "æĹ¶ä»£": 3190,
      "çĮ®": 3191,
      "ãĢģâĢľ": 3192,
      "åĬ¨çī©": 3193,
      "bin": 3194,
      "å®ľ": 3195,
      "AM": 3196,
      "è°ĵ": 3197,
      "blo": 3198,
      "ï¼Įä½ł": 3199,
      "å¤ı": 3200,
      "äºĨä¸Ģ": 3201,
      "clear": 3202,
      "consider": 3203,
      "ral": 3204,
      "ove": 3205,
      "ä¾§": 3206,
      "$P$$P$": 3207,
      "çīĽ": 3208,
      "que": 3209,
      "OR": 3210,
      "ä¿ĿæĮģ": 3211,
      "Can": 3212,
      "éĿł": 3213,
      "å¤ĸï¼Į": 3214,
      "ç¼©": 3215,
      "arr": 3216,
      "æĺ¯åľ¨": 3217,
      "ä¸ĸçºª": 3218,
      "key": 3219,
      "äºĭæķħ": 3220,
      "field": 3221,
      "und": 3222,
      "hour": 3223,
      "çĥŁ": 3224,
      "æĺ¯ä¸Ģä¸ª": 3225,
      "çŃ¾": 3226,
      "ç®Ģåįķ": 3227,
      "æĪĲåĬŁ": 3228,
      "sever": 3229,
      "çİ°è±¡": 3230,
      "é¦ĸåħĪ": 3231,
      "åĲİçļĦ": 3232,
      "æľĭåıĭ": 3233,
      "U.S.": 3234,
      "ï¼Įåıª": 3235,
      "åº§": 3236,
      "ç»į": 3237,
      "ists": 3238,
      "èĻĳ": 3239,
      "äººçľĭ": 3240,
      "suc": 3241,
      "æĶ¿çŃĸ": 3242,
      "å¾Ħ": 3243,
      "C.": 3244,
      "conom": 3245,
      "enn": 3246,
      "âĢĻre": 3247,
      "ä¹±": 3248,
      "æ´ĭ": 3249,
      "ãĢĤåħ¶": 3250,
      "important": 3251,
      "University": 3252,
      "ï¼Įå½ĵ": 3253,
      "ç»ıè¿ĩ": 3254,
      "éķĩ": 3255,
      "çĿ¡": 3256,
      "åĬªåĬĽ": 3257,
      "è·Ŀ": 3258,
      "ium": 3259,
      "event": 3260,
      "Me": 3261,
      "æĪĳçļĦ": 3262,
      "ately": 3263,
      "One": 3264,
      "ãĢĤå¦Ĥæŀľ": 3265,
      "plac": 3266,
      "åĩıå°ĳ": 3267,
      "nam": 3268,
      "æ¯ķ": 3269,
      "éĻĪ": 3270,
      "çĿ£": 3271,
      ";Ċ": 3272,
      "dev": 3273,
      "Christ": 3274,
      "åĩĨå¤ĩ": 3275,
      "indow": 3276,
      "reason": 3277,
      "è¿ĺæľī": 3278,
      "ended": 3279,
      "ä¾µ": 3280,
      "æİĪ": 3281,
      "house": 3282,
      "ä¸įåı¯": 3283,
      "istr": 3284,
      "æĺ¯ä¸Ģ": 3285,
      "æĽ°": 3286,
      "ron": 3287,
      "iver": 3288,
      "recent": 3289,
      "å®ŀéªĮ": 3290,
      "ï¼ĮçĶ¨": 3291,
      "Bo": 3292,
      "ä¿ĥè¿Ľ": 3293,
      "ision": 3294,
      "near": 3295,
      "èĦļ": 3296,
      "æ±¡": 3297,
      "ç¥¨": 3298,
      "tem": 3299,
      "ime": 3300,
      "åĪº": 3301,
      "åŃķ": 3302,
      "æķĳ": 3303,
      "cy": 3304,
      "ãĢĤèĢĮ": 3305,
      "sw": 3306,
      "prote": 3307,
      "å¼±": 3308,
      "çļĦåıĳå±ķ": 3309,
      "sof": 3310,
      "course": 3311,
      "ivid": 3312,
      "making": 3313,
      "ster": 3314,
      "coming": 3315,
      "AL": 3316,
      "plain": 3317,
      "nal": 3318,
      "åıĤåĬł": 3319,
      "è·Ł": 3320,
      "å®½": 3321,
      "t.": 3322,
      "éĩıçļĦ": 3323,
      "æĬĺ": 3324,
      "ley": 3325,
      "çİī": 3326,
      "ç»ĦæĪĲ": 3327,
      "è¯¾ç¨ĭ": 3328,
      "ending": 3329,
      "far": 3330,
      "æ¬§": 3331,
      "æĸ¹åĲĳ": 3332,
      "non": 3333,
      "æĿĢ": 3334,
      "ä¿Ĺ": 3335,
      "ä½Ľ": 3336,
      "é½Ĳ": 3337,
      "Mon": 3338,
      "å°ļ": 3339,
      "ç¹": 3340,
      "ä»ª": 3341,
      "èĤĮ": 3342,
      "called": 3343,
      "tract": 3344,
      "ä¸Ńåįİ": 3345,
      "æĶ»": 3346,
      "æĹłæ³ķ": 3347,
      "icle": 3348,
      "å®Įåħ¨": 3349,
      "åĲĽ": 3350,
      "function": 3351,
      "åħħåĪĨ": 3352,
      "ä¸°å¯Į": 3353,
      "é¹": 3354,
      "load": 3355,
      "mot": 3356,
      "æĶ¯æĮģ": 3357,
      "member": 3358,
      "aster": 3359,
      "late": 3360,
      "oney": 3361,
      "æ¥ļ": 3362,
      "åıĹåĪ°": 3363,
      "åī§": 3364,
      "hy": 3365,
      "ies,": 3366,
      "within": 3367,
      "ä½ľèĢħ": 3368,
      "éļıçĿĢ": 3369,
      "ency": 3370,
      "çĥĪ": 3371,
      "å°Ĭ": 3372,
      "æĿŁ": 3373,
      "ers.": 3374,
      "Sy": 3375,
      "ï¼īãĢĤ": 3376,
      "æĸĩç«ł": 3377,
      "m.": 3378,
      "Te": 3379,
      "job": 3380,
      "having": 3381,
      "service": 3382,
      "æİªæĸ½": 3383,
      "large": 3384,
      "jor": 3385,
      "æľ«": 3386,
      "äººçľĭè¿ĩĊ": 3387,
      "government": 3388,
      "ï¼Įå°Ĩ": 3389,
      "é²ľ": 3390,
      "ç¨ĭåº¦": 3391,
      "Sp": 3392,
      "çģŃ": 3393,
      "den": 3394,
      "employ": 3395,
      "ä¸įè¦ģ": 3396,
      "ps": 3397,
      "çĬ¶æĢģ": 3398,
      "kind": 3399,
      "whe": 3400,
      "æĤ¨": 3401,
      "cording": 3402,
      "ca": 3403,
      "èĦī": 3404,
      "ply": 3405,
      "è´Łè´£": 3406,
      "percent": 3407,
      "çļĦäºĭ": 3408,
      "ste": 3409,
      "ç¦ģ": 3410,
      "å°¿": 3411,
      "å´": 3412,
      "åħ¨éĿ¢": 3413,
      "åĬ±": 3414,
      "comes": 3415,
      "èģļ": 3416,
      "tow": 3417,
      "æ¯Ķå¦Ĥ": 3418,
      "bas": 3419,
      "ç»ıéªĮ": 3420,
      "åĪĨä¸º": 3421,
      "è¶ħè¿ĩ": 3422,
      "proper": 3423,
      "çĹĩçĬ¶": 3424,
      "èĦ±": 3425,
      "éĢı": 3426,
      "çĪ¶æ¯į": 3427,
      "æĽ´å¤ļ": 3428,
      "çļĦéĹ®é¢ĺ": 3429,
      "Med": 3430,
      "æĭĽ": 3431,
      "says": 3432,
      "ç«ŀ": 3433,
      "èµ·æĿ¥": 3434,
      "ï¼ĮâĢľ": 3435,
      "elect": 3436,
      "è´¥": 3437,
      "local": 3438,
      "research": 3439,
      "ben": 3440,
      "ç»ıèĲ¥": 3441,
      "ä¿Ŀè¯ģ": 3442,
      "èŃ¦": 3443,
      "æ´Ĺ": 3444,
      "åĪļ": 3445,
      "ï¼ĮåĽłæŃ¤": 3446,
      "å¤®": 3447,
      "photo": 3448,
      "ctor": 3449,
      "ä¹³": 3450,
      "æĬ¥åĳĬ": 3451,
      "ref": 3452,
      "cas": 3453,
      "å¯Ĵ": 3454,
      "ï¼ĮåĽłä¸º": 3455,
      "trad": 3456,
      "çģ¯": 3457,
      "Ste": 3458,
      "addition": 3459,
      "ãĢĤï¼Ī": 3460,
      "èĤł": 3461,
      "äº¦": 3462,
      "å·¥ä¸ļ": 3463,
      "ideo": 3464,
      "è¿Ľä¸ĢæŃ¥": 3465,
      "åį«çĶŁ": 3466,
      "AC": 3467,
      "Jan": 3468,
      "å¨ģ": 3469,
      "è°¢": 3470,
      "é¼ĵ": 3471,
      "æķħäºĭ": 3472,
      "ãĢĤå½ĵ": 3473,
      "åĿļæĮģ": 3474,
      "uro": 3475,
      "vious": 3476,
      "å°¼": 3477,
      "mind": 3478,
      "ond": 3479,
      "å°¤": 3480,
      "working": 3481,
      "åĴ¨": 3482,
      "mean": 3483,
      "bur": 3484,
      "went": 3485,
      "éĻĨ": 3486,
      "è¡£": 3487,
      "bar": 3488,
      "ible": 3489,
      "ä¸įåĲĮçļĦ": 3490,
      "èģĶç³»": 3491,
      "æ°¸": 3492,
      "æ±ĩ": 3493,
      "t,": 3494,
      "Mic": 3495,
      "ho": 3496,
      "çīĻ": 3497,
      "ng": 3498,
      "control": 3499,
      "èļ": 3500,
      "ãĢģãĢĬ": 3501,
      "augh": 3502,
      "mil": 3503,
      "ground": 3504,
      "custom": 3505,
      "activ": 3506,
      "é¡¾": 3507,
      "ä¸ľè¥¿": 3508,
      "train": 3509,
      "éĢĶ": 3510,
      "è§Ĥå¯Ł": 3511,
      "gether": 3512,
      "è¡¡": 3513,
      "åĪĽéĢł": 3514,
      "aid": 3515,
      "ping": 3516,
      "çİ©": 3517,
      "ç©ºéĹ´": 3518,
      "éĿ©åĳ½": 3519,
      "date": 3520,
      "çļĦéĩįè¦ģ": 3521,
      "donâĢĻt": 3522,
      "cal": 3523,
      "fund": 3524,
      "èĶ": 3525,
      "food": 3526,
      "åĤ¨": 3527,
      "After": 3528,
      "åŁ¹è®Ń": 3529,
      "åĿĲ": 3530,
      "i-": 3531,
      "looking": 3532,
      "æģ¶": 3533,
      "ï¼ĮåĪĻ": 3534,
      "enough": 3535,
      "æ··": 3536,
      "æĸĩæĺİ": 3537,
      "pract": 3538,
      "é£Łçī©": 3539,
      "æĶ¹éĿ©": 3540,
      "èĤĿ": 3541,
      "ç¼ĵ": 3542,
      "least": 3543,
      "board": 3544,
      "èµĶ": 3545,
      "ä¾ĭå¦Ĥ": 3546,
      "çĽĸ": 3547,
      "å¦ĩ": 3548,
      "IT": 3549,
      "è®¡ç®Ĺæľº": 3550,
      "million": 3551,
      "åĴ¨è¯¢": 3552,
      "å¸ĮæľĽ": 3553,
      "åıįåºĶ": 3554,
      "çĶ°": 3555,
      "æĺİç¡®": 3556,
      "ç©¿": 3557,
      "è®¾ç½®": 3558,
      "ike": 3559,
      "è§ĦèĮĥ": 3560,
      "æĹ¥æľ¬": 3561,
      "ç¹ģ": 3562,
      "ç§Ģ": 3563,
      "å±ĭ": 3564,
      "æĺİæĺ¾": 3565,
      "today": 3566,
      "åĶ®": 3567,
      "è¡¨è¾¾": 3568,
      "èģĮä¸ļ": 3569,
      "experience": 3570,
      "åıĸå¾Ĺ": 3571,
      "å»ºè®®": 3572,
      "ç»Łä¸Ģ": 3573,
      "æ¡¥": 3574,
      "äº¤æµģ": 3575,
      "éŁ³ä¹Ĳ": 3576,
      "Pres": 3577,
      "Jun": 3578,
      "ä¸½": 3579,
      "special": 3580,
      "çĶµåŃĲ": 3581,
      "ned": 3582,
      "possible": 3583,
      "mit": 3584,
      "æĦŁæŁĵ": 3585,
      "ä½ĵçļĦ": 3586,
      "æ¨¡å¼ı": 3587,
      "éĢŁåº¦": 3588,
      "åŃĻ": 3589,
      "unch": 3590,
      "æŀ¶": 3591,
      "RE": 3592,
      "sl": 3593,
      "II": 3594,
      "çĸĳ": 3595,
      "ä½ĵç³»": 3596,
      "ity,": 3597,
      "certain": 3598,
      "ç´¯": 3599,
      "éĵ¶è¡Į": 3600,
      "åģļå¥½": 3601,
      "æĺ¾ç¤º": 3602,
      "sug": 3603,
      "done": 3604,
      "åĪĽæĸ°": 3605,
      "éĺ»": 3606,
      "å¥¶": 3607,
      "æľºåħ³": 3608,
      "itor": 3609,
      "uary": 3610,
      "è®¤çľŁ": 3611,
      "èĢ³": 3612,
      "claim": 3613,
      "æĶ¹åıĺ": 3614,
      "why": 3615,
      "ï¼īãĢģ": 3616,
      "ç½ļ": 3617,
      "war": 3618,
      "ï¼Įä»İèĢĮ": 3619,
      "short": 3620,
      "éļĲ": 3621,
      "en,": 3622,
      "æĭ¿": 3623,
      "known": 3624,
      "access": 3625,
      "ization": 3626,
      "thod": 3627,
      "ä½ľåĵģ": 3628,
      "è¾ĳ": 3629,
      "æĪĳä»¬çļĦ": 3630,
      "w.": 3631,
      "èĤ¿": 3632,
      "æĢ»ç»ĵ": 3633,
      "éķ¿æľŁ": 3634,
      "together": 3635,
      "éĩİ": 3636,
      "OS": 3637,
      "éĢļå¸¸": 3638,
      "along": 3639,
      "conne": 3640,
      "æ±ł": 3641,
      "å¸ģ": 3642,
      "é¡µ": 3643,
      "èħ¹": 3644,
      "camp": 3645,
      "ä¸īãĢģ": 3646,
      "It's": 3647,
      "æ³Ľ": 3648,
      "htt": 3649,
      "ted": 3650,
      "è¿ĲçĶ¨": 3651,
      "ãĢĤåĽłæŃ¤": 3652,
      "took": 3653,
      "half": 3654,
      "told": 3655,
      "provide": 3656,
      "è¯¾åłĤ": 3657,
      "éĹ»": 3658,
      "ä»»åĬ¡": 3659,
      "è¸": 3660,
      "tal": 3661,
      "ä»ĭç»į": 3662,
      "çļĦæĸ¹æ³ķ": 3663,
      "ull": 3664,
      "check": 3665,
      "mber": 3666,
      "is,": 3667,
      "åıĤä¸İ": 3668,
      "åĨĮ": 3669,
      "æĢ§ï¼Į": 3670,
      "çĳ": 3671,
      "çĹħæ¯Ĵ": 3672,
      "mission": 3673,
      "éĿ¢ç§¯": 3674,
      "ets": 3675,
      "result": 3676,
      "Mc": 3677,
      "ä¼ĳ": 3678,
      "applic": 3679,
      "âĢĿãĢģâĢľ": 3680,
      "Ind": 3681,
      "çī¹å¾ģ": 3682,
      "ä¸Ńå¤®": 3683,
      "aff": 3684,
      "çĽĽ": 3685,
      "Aug": 3686,
      "days": 3687,
      "stor": 3688,
      "æ¢¦": 3689,
      "stop": 3690,
      "Mo": 3691,
      "review": 3692,
      "æĺ¯ä¸Ģç§į": 3693,
      "major": 3694,
      "band": 3695,
      "success": 3696,
      "å®ļçļĦ": 3697,
      "è®Ńç»ĥ": 3698,
      "èĻ«": 3699,
      "å·¨": 3700,
      "==": 3701,
      "five": 3702,
      "é¾Ħ": 3703,
      "ãģ": 3704,
      "åľŁåľ°": 3705,
      "ä½įç½®": 3706,
      "æĸ¹æ¡Ī": 3707,
      "åħ´è¶£": 3708,
      "ä¸ļåĬ¡": 3709,
      "èĥĥ": 3710,
      "nes": 3711,
      "iter": 3712,
      "çľĭåĪ°": 3713,
      "å·¦åı³": 3714,
      "D.": 3715,
      "ina": 3716,
      "åĳ¢ï¼Ł": 3717,
      "èĦĤ": 3718,
      "later": 3719,
      "èĭ±è¯Ń": 3720,
      "dro": 3721,
      "ä¼´": 3722,
      "ference": 3723,
      "ister": 3724,
      "...Ċ": 3725,
      "Cor": 3726,
      "åħ³éĶ®": 3727,
      "ï¼ĮæĬĬ": 3728,
      "éĥ½æľī": 3729,
      "æ®ĭ": 3730,
      "å°±ä¼ļ": 3731,
      "ock": 3732,
      "iday": 3733,
      "è½®": 3734,
      "lection": 3735,
      "://": 3736,
      "By": 3737,
      "å¼ķå¯¼": 3738,
      "include": 3739,
      "ï¼ĮæĽ´": 3740,
      "è®¢": 3741,
      "åįıè®®": 3742,
      "United": 3743,
      "ought": 3744,
      "å²Ľ": 3745,
      "gn": 3746,
      "several": 3747,
      "éģį": 3748,
      "TH": 3749,
      "struct": 3750,
      "live": 3751,
      "ney": 3752,
      "æ®Ĭ": 3753,
      "è¯´ï¼ļâĢľ": 3754,
      "ãĢĢåıĪ": 3755,
      "story": 3756,
      "é¢ĨåŁŁ": 3757,
      "ç»ıå¸¸": 3758,
      "aut": 3759,
      "åİļ": 3760,
      "ç»§ç»Ń": 3761,
      "æ±½": 3762,
      "æ²ī": 3763,
      "ãĢĤå¦Ĥ": 3764,
      "problem": 3765,
      "IC": 3766,
      "music": 3767,
      "step": 3768,
      "ï¼ģĊ": 3769,
      "charac": 3770,
      "ons": 3771,
      "åľ£": 3772,
      "è¯ĳ": 3773,
      "Ed": 3774,
      "åĸľæ¬¢": 3775,
      "already": 3776,
      "å¥Ĺ": 3777,
      "æ¸¸æĪı": 3778,
      "æ¹¿": 3779,
      "aterial": 3780,
      "ential": 3781,
      "Am": 3782,
      "æĸĩåŃ¦": 3783,
      "çĭ¬ç«ĭ": 3784,
      "ying": 3785,
      "æ¬²": 3786,
      "ä¸įä»ħ": 3787,
      "econom": 3788,
      "å¼¹": 3789,
      "è¯Ĭ": 3790,
      "disc": 3791,
      "polit": 3792,
      "aud": 3793,
      "often": 3794,
      "ç¥ŀç»ı": 3795,
      "å¤§ï¼Į": 3796,
      "complete": 3797,
      "éī": 3798,
      "aring": 3799,
      "pret": 3800,
      "åĦ¿ç«¥": 3801,
      "èĴĻ": 3802,
      "ior": 3803,
      "EN": 3804,
      "éģ¿åħį": 3805,
      "çŃĶæ¡Ī": 3806,
      "æľŁéĹ´": 3807,
      "State": 3808,
      "atic": 3809,
      "æĺł": 3810,
      "åī¯": 3811,
      "deal": 3812,
      "æĺ¯æĮĩ": 3813,
      "fig": 3814,
      "members": 3815,
      "èĩªæĪĳ": 3816,
      "anal": 3817,
      "åĮĹäº¬": 3818,
      "å®ĥä»¬": 3819,
      "question": 3820,
      "ç²ī": 3821,
      "åĮĸåŃ¦": 3822,
      "getting": 3823,
      "understand": 3824,
      "ç¤¾ä¼ļä¸»ä¹ī": 3825,
      "æĹ§": 3826,
      "æĹ¥ï¼Į": 3827,
      "mor": 3828,
      "ç¬¦åĲĪ": 3829,
      "remain": 3830,
      "è²": 3831,
      "IP": 3832,
      "çļĦæľĢ": 3833,
      "wa": 3834,
      "è£ģ": 3835,
      "çĽ¸å¯¹": 3836,
      "ither": 3837,
      "é£İéĻ©": 3838,
      "following": 3839,
      "æĶ¶åħ¥": 3840,
      "Sep": 3841,
      "treat": 3842,
      "æ¶ī": 3843,
      "www.": 3844,
      "God": 3845,
      "itive": 3846,
      "çģ¾": 3847,
      "éĴ¢": 3848,
      "çĥ§": 3849,
      "ream": 3850,
      "æ¤įçī©": 3851,
      "ï¼ĮçĦ¶åĲİ": 3852,
      "ä¸įå¾Ĺ": 3853,
      "mal": 3854,
      "York": 3855,
      "sty": 3856,
      "çĽ®çļĦ": 3857,
      "åĢį": 3858,
      "tra": 3859,
      "early": 3860,
      "è¯ģæĺİ": 3861,
      "èĪŀ": 3862,
      "ged": 3863,
      "imp": 3864,
      "These": 3865,
      "è½¯ä»¶": 3866,
      "equ": 3867,
      "educ": 3868,
      "close": 3869,
      "è°ģ": 3870,
      "front": 3871,
      "åģı": 3872,
      "ised": 3873,
      "é£Łåĵģ": 3874,
      "ç§Ł": 3875,
      "ç¦»å©ļ": 3876,
      "åĲ§": 3877,
      "èĽĭçĻ½": 3878,
      "äº¿": 3879,
      "ensive": 3880,
      "ItâĢĻs": 3881,
      "eral": 3882,
      "èĪª": 3883,
      "stit": 3884,
      "åĲĪä½ľ": 3885,
      "hip": 3886,
      "æĹ¶çļĦ": 3887,
      "éľĢæ±Ĥ": 3888,
      "èĪ¹": 3889,
      "èĢħï¼Į": 3890,
      "éī´": 3891,
      "become": 3892,
      "online": 3893,
      "ä½łçļĦ": 3894,
      "åĨ¬": 3895,
      "happen": 3896,
      "thought": 3897,
      "IâĢĻm": 3898,
      "descri": 3899,
      "ines": 3900,
      "irl": 3901,
      "çĻĮ": 3902,
      "éķľ": 3903,
      "cou": 3904,
      "åŃĲï¼Į": 3905,
      "å¥ĸ": 3906,
      "ified": 3907,
      "i,": 3908,
      "åĲĪçĲĨ": 3909,
      "åĩĢ": 3910,
      "èµı": 3911,
      "walk": 3912,
      "Sun": 3913,
      "åĪĨåĪ«": 3914,
      "éĽĦ": 3915,
      "eve": 3916,
      "Not": 3917,
      "ä¹ĭéĹ´çļĦ": 3918,
      "ç§ģ": 3919,
      "once": 3920,
      "çļĦæĥħåĨµ": 3921,
      "çļĦä½ľçĶ¨": 3922,
      "ï¼ĮæĪĸ": 3923,
      "è¡Įä¸ļ": 3924,
      "card": 3925,
      "watch": 3926,
      "åĳĪ": 3927,
      "ID": 3928,
      "æķ°åŃĹ": 3929,
      "å®ģ": 3930,
      "é¡¶": 3931,
      "avor": 3932,
      "ru": 3933,
      "æĪĺäºī": 3934,
      "éĩĮï¼Į": 3935,
      "orig": 3936,
      "å¾ª": 3937,
      "Gu": 3938,
      "èĩªèº«": 3939,
      "vil": 3940,
      "å·§": 3941,
      "type": 3942,
      "money": 3943,
      "mm": 3944,
      "éĽª": 3945,
      "ï¼ĮåĲĮæĹ¶": 3946,
      "town": 3947,
      "èĩªçĶ±": 3948,
      "mid": 3949,
      "Cal": 3950,
      "åįģåĪĨ": 3951,
      "road": 3952,
      "åİĤ": 3953,
      "é²ģ": 3954,
      "particular": 3955,
      "Wor": 3956,
      "æł·çļĦ": 3957,
      "author": 3958,
      "CO": 3959,
      "è§£éĩĬ": 3960,
      "èĲ¥åħ»": 3961,
      "ives": 3962,
      "è¯Ħä»·": 3963,
      "profess": 3964,
      "posed": 3965,
      "ãĢĤä»ĸ": 3966,
      "ä»Ĭå¤©": 3967,
      "åģļåĪ°": 3968,
      "teach": 3969,
      "æİ¥åıĹ": 3970,
      "mp": 3971,
      "pain": 3972,
      "åĢĴ": 3973,
      "èį¯çī©": 3974,
      "åĩºäºĨ": 3975,
      "ç¬ĳ": 3976,
      "yet": 3977,
      "area": 3978,
      "çĶ¨æĪ·": 3979,
      "ä½ľä¸ļ": 3980,
      "æĪĲç»©": 3981,
      "ç±»åŀĭ": 3982,
      "viron": 3983,
      "AP": 3984,
      "indust": 3985,
      "ç¿»": 3986,
      "å¥¥": 3987,
      "ä¸ºä¸»": 3988,
      "èĢĥèĻĳ": 3989,
      "¤Ĳ": 3990,
      "çľŁæŃ£": 3991,
      "og": 3992,
      "å¡ŀ": 3993,
      "æĬĵ": 3994,
      "ane": 3995,
      "èĦı": 3996,
      "ä¸ºâĢľ": 3997,
      "åĩºçļĦ": 3998,
      "æĦıæĢĿ": 3999,
      "uture": 4000,
      "éĻįä½İ": 4001,
      "ived": 4002,
      "link": 4003,
      "share": 4004,
      "åıĮæĸ¹": 4005,
      "çļĦä¸»è¦ģ": 4006,
      "è¿ģ": 4007,
      "xx": 4008,
      "ä¸įè¶³": 4009,
      "ences": 4010,
      "West": 4011,
      "doing": 4012,
      "makes": 4013,
      "æĭŁ": 4014,
      "æĭ¥": 4015,
      "foc": 4016,
      "gle": 4017,
      "æĹħ": 4018,
      "ource": 4019,
      "invol": 4020,
      "uly": 4021,
      "éľ²": 4022,
      "ï¼Įä¸İ": 4023,
      "æ¶Īè´¹": 4024,
      "é¢ľ": 4025,
      "ividual": 4026,
      "è´·": 4027,
      "given": 4028,
      "round": 4029,
      "prob": 4030,
      "æº¶": 4031,
      "cop": 4032,
      "ä¸Ŀ": 4033,
      "æķ´ä¸ª": 4034,
      "page": 4035,
      "åĿĢ": 4036,
      "è¾ħ": 4037,
      "åįĸ": 4038,
      "idence": 4039,
      "éĩĩåıĸ": 4040,
      "Will": 4041,
      "paren": 4042,
      "ç§ĳæĬĢ": 4043,
      "è´¢äº§": 4044,
      "èĤ¥": 4045,
      "è·³": 4046,
      "fall": 4047,
      "ä¸īä¸ª": 4048,
      "material": 4049,
      "pack": 4050,
      "éĶĻè¯¯": 4051,
      "mom": 4052,
      "urther": 4053,
      "students": 4054,
      "community": 4055,
      "aken": 4056,
      "ä¾Ŀæį®": 4057,
      "ä½ľæĸĩ": 4058,
      "è¿ħ": 4059,
      "åįµ": 4060,
      "human": 4061,
      "å·¥èµĦ": 4062,
      "ï¼ĮæĹł": 4063,
      "å¢ŀå¼º": 4064,
      ",Ċ": 4065,
      "ï¼ĮçĶ±": 4066,
      ");": 4067,
      "å¾Ģå¾Ģ": 4068,
      "country": 4069,
      "çĩĥ": 4070,
      "city": 4071,
      "èª": 4072,
      "concer": 4073,
      "åºŁ": 4074,
      "Har": 4075,
      "è¿ĩç¨ĭä¸Ń": 4076,
      "Ob": 4077,
      "actually": 4078,
      "model": 4079,
      "å¢ŀéķ¿": 4080,
      "tax": 4081,
      "ï¼į": 4082,
      "éĿ¢çļĦ": 4083,
      "video": 4084,
      "ï¼ĮéĤ£": 4085,
      "èµĦäº§": 4086,
      "ones": 4087,
      "èµĶåģ¿": 4088,
      "âĳł": 4089,
      "æµĵ": 4090,
      "Apr": 4091,
      "âĢ¢": 4092,
      "ured": 4093,
      "techno": 4094,
      "å·¥åħ·": 4095,
      "ulation": 4096,
      "ãĢĤæĪĳ": 4097,
      "èī¯å¥½çļĦ": 4098,
      "ints": 4099,
      "è£Ĥ": 4100,
      "Fl": 4101,
      "ED": 4102,
      "çļĦå°ı": 4103,
      "è¿Ĳè¡Į": 4104,
      "æ¯ıä¸ª": 4105,
      "roll": 4106,
      "ults": 4107,
      "hol": 4108,
      "minut": 4109,
      "ÃĹ": 4110,
      "åĳĺå·¥": 4111,
      "joy": 4112,
      "å¯»": 4113,
      "ä¼°": 4114,
      "ãĢĤâĢľ": 4115,
      "scre": 4116,
      "wide": 4117,
      "æ®ĸ": 4118,
      "æī¬": 4119,
      "B.": 4120,
      "è®°å½ķ": 4121,
      "æļ´": 4122,
      "å¯¹è±¡": 4123,
      "said.": 4124,
      "an,": 4125,
      "aper": 4126,
      "Per": 4127,
      "break": 4128,
      "èĤº": 4129,
      "æĪĲæľ¬": 4130,
      "æ¦Ĥå¿µ": 4131,
      "mult": 4132,
      "ama": 4133,
      "mag": 4134,
      "äºĮåįģ": 4135,
      "æľīä¸Ģ": 4136,
      "æ´ģ": 4137,
      "urch": 4138,
      "condition": 4139,
      "Now": 4140,
      "six": 4141,
      "org": 4142,
      "ãĢĤæŃ¤": 4143,
      "ç¢³": 4144,
      "åĵªäºĽ": 4145,
      "seen": 4146,
      "é©¾": 4147,
      "çī¹æ®Ĭ": 4148,
      "defin": 4149,
      "é¸Ł": 4150,
      "å°¾": 4151,
      "Some": 4152,
      "æŀĦæĪĲ": 4153,
      "hot": 4154,
      "s:": 4155,
      "strong": 4156,
      "ç»ª": 4157,
      "åħ¨éĥ¨": 4158,
      "feat": 4159,
      "ä¸Ģä¸ĭ": 4160,
      "çļĦåŁºç¡Ģ": 4161,
      "ing.Ċ": 4162,
      "reet": 4163,
      "çļĦå·¥ä½ľ": 4164,
      "sent": 4165,
      "phone": 4166,
      "development": 4167,
      "means": 4168,
      "vironment": 4169,
      "âĳ¡": 4170,
      "imes": 4171,
      "Bar": 4172,
      "äººãĢĤ": 4173,
      "è¯ļ": 4174,
      "ï¼ĮåĨį": 4175,
      "le,": 4176,
      "çĶ¨çļĦ": 4177,
      "ðŁ": 4178,
      "women": 4179,
      "specific": 4180,
      "ç¨³å®ļ": 4181,
      "ãĢĭãĢģãĢĬ": 4182,
      "personal": 4183,
      "individual": 4184,
      "èħº": 4185,
      "reach": 4186,
      "compet": 4187,
      "omet": 4188,
      "æ²Ł": 4189,
      "éĽ¶": 4190,
      "è°ĥæķ´": 4191,
      "fel": 4192,
      "ks": 4193,
      "åĶ±": 4194,
      "http": 4195,
      "å®īæİĴ": 4196,
      "Min": 4197,
      "æľĪï¼Į": 4198,
      "æ¯«": 4199,
      "Ge": 4200,
      "|US": 4201,
      "çļĦå½±åĵį": 4202,
      "lege": 4203,
      "çĤ¼": 4204,
      "å¿Ĩ": 4205,
      "è´´": 4206,
      "sch": 4207,
      "ä¹Łæľī": 4208,
      "cast": 4209,
      "ä¿Ŀéļľ": 4210,
      "èĥĨ": 4211,
      "ural": 4212,
      "aps": 4213,
      "ford": 4214,
      "redu": 4215,
      "uff": 4216,
      "ion.": 4217,
      "ä¼ļè®¡": 4218,
      "ç´łè´¨": 4219,
      "contain": 4220,
      "detail": 4221,
      "åľ°çĲĥ": 4222,
      "çŃīï¼Į": 4223,
      "ia,": 4224,
      "èĥİ": 4225,
      "ä¼¯": 4226,
      "pie": 4227,
      "éĻ¤äºĨ": 4228,
      "è®¿": 4229,
      "æĻ®éĢļ": 4230,
      "æĸ½å·¥": 4231,
      "shop": 4232,
      "box": 4233,
      "éľĩ": 4234,
      "cially": 4235,
      "Dav": 4236,
      "åıĳæĮ¥": 4237,
      "depend": 4238,
      "kid": 4239,
      "æĽ´åĬł": 4240,
      "åĪ¶å®ļ": 4241,
      "grad": 4242,
      "åĩºæĿ¥": 4243,
      "å¦Īå¦Ī": 4244,
      "æĮģç»Ń": 4245,
      "Tw": 4246,
      "åıĬåħ¶": 4247,
      "å¥ĭ": 4248,
      "ä¹ı": 4249,
      "portun": 4250,
      "çļĦåŁºæľ¬": 4251,
      "å¹´çº§": 4252,
      "pen": 4253,
      "æĶ¯ä»ĺ": 4254,
      "Qu": 4255,
      "å«": 4256,
      "å¥ı": 4257,
      "çĶŁçļĦ": 4258,
      "bad": 4259,
      "å¡«": 4260,
      "åĲĮæĹ¶ï¼Į": 4261,
      "whether": 4262,
      "deter": 4263,
      "ç£ģ": 4264,
      "sci": 4265,
      "times": 4266,
      "ä»·æł¼": 4267,
      "social": 4268,
      "future": 4269,
      "sound": 4270,
      "sell": 4271,
      "å¹¸": 4272,
      "åŃ¦ä¼ļ": 4273,
      "è¿ŀæİ¥": 4274,
      "ãĢĭï¼Į": 4275,
      "ror": 4276,
      "éģĵå¾·": 4277,
      "çĽĲ": 4278,
      "rad": 4279,
      "His": 4280,
      "äº§ä¸ļ": 4281,
      "sen": 4282,
      "è¯»ä¹¦": 4283,
      "éĹŃ": 4284,
      "åĮºåŁŁ": 4285,
      "ilar": 4286,
      "å¿ħè¦ģ": 4287,
      "é©¶": 4288,
      "åĽ½çļĦ": 4289,
      "å§Ķåĳĺ": 4290,
      "quick": 4291,
      "å·Ŀ": 4292,
      "æ½ľ": 4293,
      "å¸¸è§ģ": 4294,
      "However,": 4295,
      "æĽ¹": 4296,
      "æ¢ģ": 4297,
      "cli": 4298,
      "åĮ»çĸĹ": 4299,
      "iam": 4300,
      "çĶŁéķ¿": 4301,
      "third": 4302,
      "Our": 4303,
      "flu": 4304,
      "quality": 4305,
      "æ¶¦": 4306,
      "Dep": 4307,
      "æķı": 4308,
      "prove": 4309,
      "More": 4310,
      "Just": 4311,
      "çļĦè¯Ŀ": 4312,
      "åĬ¨ä½ľ": 4313,
      "started": 4314,
      "å¹³åĿĩ": 4315,
      "http://": 4316,
      "ats": 4317,
      "äººåı£": 4318,
      "çīĮ": 4319,
      "Rep": 4320,
      "åĨľä¸ļ": 4321,
      "éĽ·": 4322,
      "çĪ¸": 4323,
      "Post": 4324,
      "begin": 4325,
      "éĴĪå¯¹": 4326,
      "åª": 4327,
      "é¸¡": 4328,
      "å¤ļæķ°": 4329,
      "åįĪ": 4330,
      "åıĳå±ķçļĦ": 4331,
      "éº»": 4332,
      "priv": 4333,
      "æĺ¯ä»Ģä¹Ī": 4334,
      "Don": 4335,
      "acc": 4336,
      "vari": 4337,
      "æĢĿç»´": 4338,
      "cir": 4339,
      "among": 4340,
      "çĽ¸åºĶ": 4341,
      "çº·": 4342,
      "]Ċ": 4343,
      "pick": 4344,
      "indows": 4345,
      "åı¤ä»£": 4346,
      "above": 4347,
      "struction": 4348,
      "Pol": 4349,
      "åĭ¤": 4350,
      "è§Ħå¾ĭ": 4351,
      "æİī": 4352,
      "in,": 4353,
      "å°¤åħ¶": 4354,
      "National": 4355,
      "kill": 4356,
      "suggest": 4357,
      "çļĦæĹ¶éĹ´": 4358,
      "abl": 4359,
      "ury": 4360,
      "heart": 4361,
      "æ¸©åº¦": 4362,
      "ç»ĺ": 4363,
      "hit": 4364,
      "bring": 4365,
      "email": 4366,
      "IG": 4367,
      "across": 4368,
      "dom": 4369,
      "çº¯": 4370,
      "ä¸ºä»Ģä¹Ī": 4371,
      "method": 4372,
      "ï¼Įåħ¶ä¸Ń": 4373,
      "arter": 4374,
      "ony": 4375,
      "fully": 4376,
      "foot": 4377,
      "éĢĲæ¸Ĳ": 4378,
      "çĽ¸åĲĮ": 4379,
      "ãĢĤæľī": 4380,
      "å®ĥçļĦ": 4381,
      "åħ³æ³¨": 4382,
      "åĪ©çĽĬ": 4383,
      "benef": 4384,
      "éģµ": 4385,
      "tar": 4386,
      "åıĤèĢĥ": 4387,
      "ãĢĤä»İ": 4388,
      "matter": 4389,
      "è±Ĩ": 4390,
      "æĩĤ": 4391,
      "CP": 4392,
      "opportun": 4393,
      "believe": 4394,
      "ising": 4395,
      "è¯¦": 4396,
      "åĪĨå¸ĥ": 4397,
      "stay": 4398,
      "åĩłä¸ª": 4399,
      "NA": 4400,
      ".\"": 4401,
      "compan": 4402,
      "ery": 4403,
      "å®īè£ħ": 4404,
      "said.Ċ": 4405,
      "ï¼ĮæıĲé«ĺ": 4406,
      "åĬĽéĩı": 4407,
      "ä¸¥æł¼": 4408,
      "ï¼ħ": 4409,
      "taking": 4410,
      "dou": 4411,
      "æ¡£": 4412,
      "åĨ°": 4413,
      "åĸĿ": 4414,
      "Euro": 4415,
      "æĢĿèĢĥ": 4416,
      "åĮĸçļĦ": 4417,
      "å¤ļå°ĳ": 4418,
      "é«ĺçļĦ": 4419,
      "èį£": 4420,
      "ç»ĥä¹ł": 4421,
      "çļĦãĢĬ": 4422,
      "wood": 4423,
      "discuss": 4424,
      "æ¯ķä¸ļ": 4425,
      "é¦Ĩ": 4426,
      "us,": 4427,
      "æıĴ": 4428,
      "ape": 4429,
      "Her": 4430,
      "ene": 4431,
      "èµĦæľ¬": 4432,
      "æĬµ": 4433,
      "éļĶ": 4434,
      "blog": 4435,
      "ides": 4436,
      "duct": 4437,
      "fast": 4438,
      "mov": 4439,
      "ateg": 4440,
      "è§Ħæ¨¡": 4441,
      "å¼Ł": 4442,
      "æ±¡æŁĵ": 4443,
      "çĽ¸äºĴ": 4444,
      "Cont": 4445,
      "æĽ¿": 4446,
      "æķ¬": 4447,
      "æł¸å¿ĥ": 4448,
      "åĲī": 4449,
      "World": 4450,
      "å¤ļç§į": 4451,
      "å¤ªéĺ³": 4452,
      "åĽ°éļ¾": 4453,
      "æĪĲéķ¿": 4454,
      "polic": 4455,
      "æıĲåįĩ": 4456,
      "contact": 4457,
      "anything": 4458,
      "è¿İ": 4459,
      "åĬĽï¼Į": 4460,
      "å½¢è±¡": 4461,
      "young": 4462,
      "è°ĥæŁ¥": 4463,
      "çī©çĲĨ": 4464,
      "fail": 4465,
      "æĳĦ": 4466,
      "åĨħçļĦ": 4467,
      "çĻ»è®°": 4468,
      "cult": 4469,
      "ouch": 4470,
      "éĩįè§Ĩ": 4471,
      "character": 4472,
      "æī¿æĭħ": 4473,
      "çľł": 4474,
      "meas": 4475,
      "acy": 4476,
      "æĦŁè§ī": 4477,
      "Of": 4478,
      "äººä½ĵ": 4479,
      "è¿«": 4480,
      "While": 4481,
      "ä¸»é¢ĺ": 4482,
      "ï¼ĮéĤ£ä¹Ī": 4483,
      "ä¸Ģå®ļçļĦ": 4484,
      "åĨľæĿĳ": 4485,
      "åĹ": 4486,
      "æ²¿": 4487,
      "AD": 4488,
      "èĩ£": 4489,
      "åĨħéĥ¨": 4490,
      "wer": 4491,
      "ä¸¤ç§į": 4492,
      "éĩĳèŀį": 4493,
      "PM": 4494,
      "host": 4495,
      "ä½³": 4496,
      "mess": 4497,
      "æĿĥåĪ©": 4498,
      "éĩįè¦ģçļĦ": 4499,
      "ä½ĵçİ°": 4500,
      "æ¨ª": 4501,
      "ount": 4502,
      "or,": 4503,
      "film": 4504,
      "flo": 4505,
      "Des": 4506,
      "å¢Ļ": 4507,
      "ption": 4508,
      "ä¹ĭåīį": 4509,
      "å¡Ķ": 4510,
      "åĪĩï¼ĮéŁ³": 4511,
      "å²Ĺ": 4512,
      "é¢Ħéĺ²": 4513,
      "èĤ¤": 4514,
      "hind": 4515,
      "å¹ħ": 4516,
      "ä¼Ł": 4517,
      "å¦»": 4518,
      "Sch": 4519,
      "å¥½ï¼Į": 4520,
      "æĢķ": 4521,
      "åĲ´": 4522,
      "Mr.": 4523,
      "ä»ĸä»¬çļĦ": 4524,
      "fire": 4525,
      "County": 4526,
      "åĩ½": 4527,
      "oud": 4528,
      "held": 4529,
      "Dis": 4530,
      "mand": 4531,
      "artment": 4532,
      "Che": 4533,
      "ï¼Įä»¥åıĬ": 4534,
      "comput": 4535,
      "èĢħçļĦ": 4536,
      "åĬŀæ³ķ": 4537,
      "èĢĲ": 4538,
      "curity": 4539,
      "æ¾": 4540,
      "å¤įæĿĤ": 4541,
      "rate": 4542,
      "å¹¿æ³Ľ": 4543,
      "tit": 4544,
      "ä¸ĭéĿ¢": 4545,
      "taken": 4546,
      "almost": 4547,
      "ï¼Įå¹¶ä¸Ķ": 4548,
      "ç¼´": 4549,
      "value": 4550,
      "çī©çļĦ": 4551,
      "æļĹ": 4552,
      "Off": 4553,
      "track": 4554,
      "ances": 4555,
      "Ab": 4556,
      "å®£ä¼ł": 4557,
      "åºĨ": 4558,
      "æ´ŀ": 4559,
      "reco": 4560,
      "åħ¨çĲĥ": 4561,
      "visit": 4562,
      "éĵ¾": 4563,
      "é©±": 4564,
      "sess": 4565,
      "è´¹çĶ¨": 4566,
      "åı¦ä¸Ģ": 4567,
      "èĿ": 4568,
      "sex": 4569,
      "è®¼": 4570,
      "å¼ĥ": 4571,
      "ãĢĤæīĢä»¥": 4572,
      "çļĦé«ĺ": 4573,
      "ï¼Įä¸ĢèĪ¬": 4574,
      "ï¼Įéĥ½": 4575,
      "Pe": 4576,
      "ç«ŀäºī": 4577,
      "ç²Ĵ": 4578,
      "--------": 4579,
      "draw": 4580,
      "èĥ¡": 4581,
      "è·ĳ": 4582,
      "girl": 4583,
      "éĢĤåºĶ": 4584,
      "ç¬¬åĽĽ": 4585,
      "ï¼ĮåĲİ": 4586,
      "ards": 4587,
      "æ°§åĮĸ": 4588,
      "æĺ¯âĢľ": 4589,
      "else": 4590,
      "åŃĲçļĦ": 4591,
      "ï¼ĮéĢļè¿ĩ": 4592,
      "print": 4593,
      "æĿ¥æºĲ": 4594,
      "-year": 4595,
      "espe": 4596,
      "è¦": 4597,
      "uses": 4598,
      "ino": 4599,
      "space": 4600,
      "æĸĩåŃĹ": 4601,
      "South": 4602,
      "whole": 4603,
      "é¤Ĳ": 4604,
      "create": 4605,
      "likely": 4606,
      "å®ĮåĸĦ": 4607,
      "lay": 4608,
      "phys": 4609,
      "åľ°ä½į": 4610,
      "North": 4611,
      "ä¸»åĬ¨": 4612,
      "åħ¬åħĥ": 4613,
      "section": 4614,
      "aver": 4615,
      "final": 4616,
      "ç§ĺ": 4617,
      "èĵĿ": 4618,
      "è§ĦåĪĴ": 4619,
      "below": 4620,
      "lab": 4621,
      "City": 4622,
      "PC": 4623,
      "çĴ": 4624,
      "ST": 4625,
      "èĩªåĬ¨": 4626,
      "mun": 4627,
      "period": 4628,
      "ä¹ĺ": 4629,
      "cup": 4630,
      "èĤ¾": 4631,
      "ging": 4632,
      "flow": 4633,
      "å£ģ": 4634,
      "cred": 4635,
      "ä½ĵèĤ²": 4636,
      "publ": 4637,
      "ially": 4638,
      "çİ°å®ŀ": 4639,
      "due": 4640,
      "rown": 4641,
      "docu": 4642,
      "æĬ½": 4643,
      "çļĦãĢĤĊ": 4644,
      "School": 4645,
      "æ£Ģæµĭ": 4646,
      "æĬĳ": 4647,
      "Serv": 4648,
      "åŃĲå¥³": 4649,
      "ife": 4650,
      "someone": 4651,
      "ä¸ĢçĽ´": 4652,
      "ington": 4653,
      "single": 4654,
      "çĺ¤": 4655,
      "relation": 4656,
      "theĊ": 4657,
      "åĩ¡": 4658,
      "content": 4659,
      "è¯īè®¼": 4660,
      "çĬ¯ç½ª": 4661,
      "å¹´ä»£": 4662,
      "court": 4663,
      "è¯Ńæĸĩ": 4664,
      "è´¦": 4665,
      "exper": 4666,
      "è®ºæĸĩ": 4667,
      "CD": 4668,
      "æĻĭ": 4669,
      "ï¼Įå°±æĺ¯": 4670,
      "ies.": 4671,
      "åŃ¦ç§ĳ": 4672,
      "åĮ»éĻ¢": 4673,
      "Part": 4674,
      "probably": 4675,
      "æľĹ": 4676,
      "hor": 4677,
      "ded": 4678,
      "çŁ¿": 4679,
      "ç±į": 4680,
      "inc": 4681,
      "åĲĹï¼Ł": 4682,
      "ly.": 4683,
      "text": 4684,
      "åĩĿ": 4685,
      "ï¼Įè¿Ļæł·": 4686,
      "æľºä¼ļ": 4687,
      "spo": 4688,
      "çŃīãĢĤĊ": 4689,
      "æµª": 4690,
      "services": 4691,
      "æ»¡è¶³": 4692,
      "news": 4693,
      "ï¼Įèĥ½": 4694,
      "famil": 4695,
      "trying": 4696,
      "äºİæĺ¯": 4697,
      "é¥Ń": 4698,
      "further": 4699,
      "æķĮ": 4700,
      "typ": 4701,
      "Cent": 4702,
      "announ": 4703,
      "time,": 4704,
      "ðł": 4705,
      "Ã©": 4706,
      "äº¤æĺĵ": 4707,
      "pan": 4708,
      "fill": 4709,
      "æ·¡": 4710,
      "æįŁå¤±": 4711,
      "æľºåĪ¶": 4712,
      "\"I": 4713,
      "Here": 4714,
      "è¿ĻéĩĮ": 4715,
      "æĿ¨": 4716,
      "çĶŁæĢģ": 4717,
      "issue": 4718,
      "al,": 4719,
      "æĢ§ãĢĤ": 4720,
      "æ³½": 4721,
      "åĪ¶ä½ľ": 4722,
      "fo": 4723,
      "ä¹ĭåĲİï¼Į": 4724,
      "force": 4725,
      "everything": 4726,
      "eter": 4727,
      "continu": 4728,
      "ç¼ĺ": 4729,
      "gain": 4730,
      "non-": 4731,
      "ãĢĤãĢĢåıĪ": 4732,
      "èĥ¸": 4733,
      "according": 4734,
      "å°ıåŃ¦": 4735,
      "åħ¼": 4736,
      "å¦Ĥä¸ĭ": 4737,
      "init": 4738,
      "éĨĴ": 4739,
      "official": 4740,
      "former": 4741,
      "Dr": 4742,
      "!!": 4743,
      "pretty": 4744,
      "tre": 4745,
      "spir": 4746,
      "æ±½è½¦": 4747,
      "quite": 4748,
      "chall": 4749,
      "åŃ¦æľŁ": 4750,
      "Su": 4751,
      "black": 4752,
      "ï¼Įè¿Ļæĺ¯": 4753,
      "represent": 4754,
      "è¿¹": 4755,
      "ä½ĵä¼ļ": 4756,
      "åıįæĺł": 4757,
      "ET": 4758,
      "éŀ": 4759,
      "åŃ¦éĻ¢": 4760,
      "ison": 4761,
      "rather": 4762,
      "Europe": 4763,
      "ilities": 4764,
      "åĨł": 4765,
      "åĽĽãĢģ": 4766,
      "è§īå¾Ĺ": 4767,
      "'ll": 4768,
      "æķ°éĩı": 4769,
      "ä¹īåĬ¡": 4770,
      "éĽħ": 4771,
      "èħĶ": 4772,
      "åħ±åĴĮ": 4773,
      "ä¸ģ": 4774,
      "é¥°": 4775,
      "å¹¶ä¸į": 4776,
      "çī¹èī²": 4777,
      "çĪĨ": 4778,
      "favor": 4779,
      "è²Į": 4780,
      "ä»ģ": 4781,
      "æĢİæł·": 4782,
      "âĢĿãĢĤĊ": 4783,
      "either": 4784,
      "èį·": 4785,
      "èĭ±åĽ½": 4786,
      "sequ": 4787,
      "å¡ĳ": 4788,
      "äººæ°ĳæ³ķéĻ¢": 4789,
      "åĪĨéĴŁ": 4790,
      "th,": 4791,
      "çªĹ": 4792,
      "Mark": 4793,
      "å¤ļï¼Į": 4794,
      "æģ¢": 4795,
      "åĬĽçļĦ": 4796,
      "version": 4797,
      "ided": 4798,
      "ä¸ĭåĪĹ": 4799,
      "åħ¬åħ±": 4800,
      "æľĢåĲİ": 4801,
      "exist": 4802,
      "asked": 4803,
      "æĦŁåıĹ": 4804,
      "pose": 4805,
      "äºĨãĢĤĊ": 4806,
      "çĽ¸å½ĵ": 4807,
      "æĹ¦": 4808,
      "points": 4809,
      "necess": 4810,
      "æ½®": 4811,
      "environment": 4812,
      "æ¯Ķä¾ĭ": 4813,
      "wanted": 4814,
      "ãĢĤãĢĬ": 4815,
      "æĬļ": 4816,
      "æĸ¹éĿ¢çļĦ": 4817,
      "lease": 4818,
      "didn't": 4819,
      "March": 4820,
      "èĭĹ": 4821,
      "easy": 4822,
      "forward": 4823,
      "item": 4824,
      "Park": 4825,
      "buy": 4826,
      "åĽ½åĨħ": 4827,
      "TV": 4828,
      "æĪĲç«ĭ": 4829,
      "åĳ¼åĲ¸": 4830,
      "lex": 4831,
      "ä¸ĭçļĦ": 4832,
      "ç¢į": 4833,
      "æİ¥è§¦": 4834,
      "æģ©": 4835,
      "åıªæĺ¯": 4836,
      "åĶ¯": 4837,
      "éĽĨä¸Ń": 4838,
      "æĹ¥å¸¸": 4839,
      "account": 4840,
      "éĶĢåĶ®": 4841,
      "æ³¡": 4842,
      "è°·": 4843,
      "signific": 4844,
      "ï¼Įå¤ļ": 4845,
      "èµĦéĩĳ": 4846,
      "äººæīį": 4847,
      "æĢ§åĴĮ": 4848,
      "Act": 4849,
      "ners": 4850,
      "çĶµèĦĳ": 4851,
      "ä¾Ŀæ³ķ": 4852,
      "sco": 4853,
      "ç©ºæ°Ķ": 4854,
      "works": 4855,
      "è¾Ľ": 4856,
      "æł¹æľ¬": 4857,
      "å°ıæĹ¶": 4858,
      "respect": 4859,
      "J.": 4860,
      "death": 4861,
      "åĪ©äºİ": 4862,
      "ç«¹": 4863,
      "enjoy": 4864,
      "pict": 4865,
      "æĥĬ": 4866,
      "sem": 4867,
      "å¤§éĩı": 4868,
      "aĊ": 4869,
      "çŀ": 4870,
      "é»ĺ": 4871,
      "æĪĲäºĨ": 4872,
      "ique": 4873,
      "others": 4874,
      "itted": 4875,
      "door": 4876,
      "els": 4877,
      "term": 4878,
      "ä¸įåĪ°": 4879,
      ".âĢĿ": 4880,
      "Sm": 4881,
      "æ¯ıå¤©": 4882,
      "especially": 4883,
      "æľ±": 4884,
      "éĻµ": 4885,
      "require": 4886,
      "çĦ¶èĢĮ": 4887,
      "æīĢè°ĵ": 4888,
      "äºĭä¸ļ": 4889,
      "bel": 4890,
      "options": 4891,
      "conf": 4892,
      "entire": 4893,
      "æī£": 4894,
      "trave": 4895,
      "è¾Ĩ": 4896,
      "hom": 4897,
      "From": 4898,
      "è¶ĭ": 4899,
      "Thank": 4900,
      "pet": 4901,
      "åĢ¾": 4902,
      "æ»ĳ": 4903,
      "æŃ»äº¡": 4904,
      "study": 4905,
      "å¾Ĵ": 4906,
      "nothing": 4907,
      "åĭĩ": 4908,
      "ians": 4909,
      "website": 4910,
      "ham": 4911,
      "çĶŁç´ł": 4912,
      "yl": 4913,
      "perfect": 4914,
      "æµĭè¯ķ": 4915,
      "æĪĺçķ¥": 4916,
      "bank": 4917,
      "address": 4918,
      "student": 4919,
      "ä¼ĺç§Ģ": 4920,
      "å®ĩ": 4921,
      "beaut": 4922,
      "è´¯": 4923,
      "å³°": 4924,
      "éģĵè·¯": 4925,
      "åĵ²": 4926,
      "ecut": 4927,
      "behind": 4928,
      "èĸĦ": 4929,
      "åĪ¶éĢł": 4930,
      "Your": 4931,
      "ä¹Łä¸į": 4932,
      "ï¼Įä¹Łæĺ¯": 4933,
      "history": 4934,
      "ients": 4935,
      "it.Ċ": 4936,
      "åĬŀçĲĨ": 4937,
      "çĲĨæĥ³": 4938,
      "War": 4939,
      "ãĢĤä¸Ģ": 4940,
      "performance": 4941,
      "æĿ¥è¶Ĭ": 4942,
      "President": 4943,
      "åķĨåĵģ": 4944,
      "åįģäºĮ": 4945,
      "ai": 4946,
      "ç³»åĪĹ": 4947,
      "çĽ¾": 4948,
      "Cr": 4949,
      "æĹĭ": 4950,
      "urs": 4951,
      "ä¼¦": 4952,
      "ä¸ĢçĤ¹": 4953,
      "å°º": 4954,
      "tool": 4955,
      "join": 4956,
      "è®¨è®º": 4957,
      "ï¼ĮåºĶ": 4958,
      "exc": 4959,
      "è¶ĬæĿ¥è¶Ĭ": 4960,
      "Spe": 4961,
      "èµµ": 4962,
      "æŁ±": 4963,
      "å¤ļçļĦ": 4964,
      "ried": 4965,
      "toward": 4966,
      "æ¢ħ": 4967,
      "æģ¢å¤į": 4968,
      "è¿ĽæŃ¥": 4969,
      "ä¸´åºĬ": 4970,
      "âĹ": 4971,
      "RO": 4972,
      "tee": 4973,
      "wonder": 4974,
      "ä¿Ħ": 4975,
      "ï¼Įè¿ĻäºĽ": 4976,
      "king": 4977,
      "store": 4978,
      "æķĻæĿĲ": 4979,
      "âĦ": 4980,
      "o,": 4981,
      "æ´Ľ": 4982,
      "amer": 4983,
      "Rev": 4984,
      "glo": 4985,
      "æķ¢": 4986,
      "æĳ©": 4987,
      "needs": 4988,
      "AB": 4989,
      "active": 4990,
      "ç»ĵæĿŁ": 4991,
      "åİŁçĲĨ": 4992,
      "medi": 4993,
      "çıį": 4994,
      "ä¼ļè®®": 4995,
      "April": 4996,
      "æ³ķãĢĭ": 4997,
      "æľīäºĨ": 4998,
      "èİ«": 4999,
      "çļĨ": 5000,
      "$P$ãĢĢãĢĢ": 5001,
      "Po": 5002,
      "match": 5003,
      "saw": 5004,
      "Gre": 5005,
      "-in": 5006,
      "techn": 5007,
      "æĿľ": 5008,
      "èĳĹåĲį": 5009,
      "æĿ¥è¯´": 5010,
      "è§ĦåĪĻ": 5011,
      "building": 5012,
      "ä»²": 5013,
      "æĢ§ãĢģ": 5014,
      "super": 5015,
      "çıŃçº§": 5016,
      "ï¼Įæķħ": 5017,
      "ice,": 5018,
      "çĸı": 5019,
      "ump": 5020,
      "åĪĢ": 5021,
      "ä¹ĭåĲİ": 5022,
      "resh": 5023,
      "å±¥": 5024,
      "mail": 5025,
      "è¹": 5026,
      "upon": 5027,
      "é¼»": 5028,
      "å£®": 5029,
      "äºĭä»¶": 5030,
      "çļĦåŃ¦ä¹ł": 5031,
      "series": 5032,
      "Windows": 5033,
      "å¼ĢæĶ¾": 5034,
      "åĵĪ": 5035,
      "éĩįå¤§": 5036,
      "è¡°": 5037,
      "similar": 5038,
      "ague": 5039,
      "åį±éĻ©": 5040,
      "æŀĿ": 5041,
      "é¡¿": 5042,
      "å½»": 5043,
      "èĤ¯": 5044,
      "éĺ²æŃ¢": 5045,
      "éŃı": 5046,
      "ãĢĤæĪĳä»¬": 5047,
      "Li": 5048,
      "çĶĺ": 5049,
      "anim": 5050,
      "Friday": 5051,
      "è¿ĩåİ»": 5052,
      "èĢĹ": 5053,
      "åĪĨç±»": 5054,
      "ï¼ĮåĽł": 5055,
      "æĪ¿å±ĭ": 5056,
      "æķĪçİĩ": 5057,
      "natur": 5058,
      "ï¼Įä¸»è¦ģ": 5059,
      "ding": 5060,
      "dam": 5061,
      "æĬĢèĥ½": 5062,
      "è¡ĮåĬ¨": 5063,
      "çļĦä¸Ģä¸ª": 5064,
      "worth": 5065,
      "ä¼Ĭ": 5066,
      "æĥħç»ª": 5067,
      "crit": 5068,
      "è´¸": 5069,
      "ederal": 5070,
      "æĦıè§ģ": 5071,
      "Pa": 5072,
      "ns": 5073,
      "iment": 5074,
      "ç»§æī¿": 5075,
      "æ¸¯": 5076,
      "èķ": 5077,
      "âĨ": 5078,
      "media": 5079,
      "range": 5080,
      "true": 5081,
      "stri": 5082,
      "angu": 5083,
      "åĪ¤æĸŃ": 5084,
      "æ·±åħ¥": 5085,
      "everyone": 5086,
      "æĢ§è´¨": 5087,
      "Center": 5088,
      "æīĭæ®µ": 5089,
      "white": 5090,
      "ment,": 5091,
      "éĽĨä½ĵ": 5092,
      "associ": 5093,
      "æĭį": 5094,
      "èĥ¶": 5095,
      "æĢ§èĥ½": 5096,
      "å¦ĤæŃ¤": 5097,
      "CH": 5098,
      "Cour": 5099,
      "ancial": 5100,
      "approach": 5101,
      "ãĢĤä½Ĩæĺ¯": 5102,
      "æķ´ä½ĵ": 5103,
      "ä¿¡åı·": 5104,
      "age,": 5105,
      "aged": 5106,
      "I've": 5107,
      "çļĦåľ°æĸ¹": 5108,
      "table": 5109,
      "ation.Ċ": 5110,
      "éĻĲåĪ¶": 5111,
      "as,": 5112,
      "LE": 5113,
      "æĤ²": 5114,
      "wish": 5115,
      "ç»´æĬ¤": 5116,
      "ilt": 5117,
      "attack": 5118,
      "ministr": 5119,
      "å¸¦æĿ¥": 5120,
      "bod": 5121,
      "dest": 5122,
      "ä»¿": 5123,
      "åľĪ": 5124,
      "æ¢°": 5125,
      "æ¨¡åŀĭ": 5126,
      "å®¢æĪ·": 5127,
      "éĩįæĸ°": 5128,
      "è¯¾æĸĩ": 5129,
      "previous": 5130,
      "spr": 5131,
      "ä¼ļæľī": 5132,
      "éĤ£äºĽ": 5133,
      "related": 5134,
      "å®ŀè¡Į": 5135,
      "dig": 5136,
      ")ï¼Į": 5137,
      "Reg": 5138,
      "select": 5139,
      "è°Ĳ": 5140,
      "jud": 5141,
      "please": 5142,
      "ç»ķ": 5143,
      "Well": 5144,
      "on.": 5145,
      "ify": 5146,
      "Je": 5147,
      "ï¼ĮèĢĮæĺ¯": 5148,
      "said,": 5149,
      "å¹¼åĦ¿åĽŃ": 5150,
      "è¿ĩç¨ĭä¸Ńï¼Į": 5151,
      "San": 5152,
      "ä¹Į": 5153,
      "å½ĵæĹ¶": 5154,
      "Oc": 5155,
      "continue": 5156,
      "\",": 5157,
      "Pre": 5158,
      "purch": 5159,
      "subject": 5160,
      "aur": 5161,
      "æľ¬æĸĩ": 5162,
      "å®ļä¹ī": 5163,
      "åªĴ": 5164,
      "seems": 5165,
      "çŁĽ": 5166,
      "åĩ½æķ°": 5167,
      "risk": 5168,
      "cil": 5169,
      "æ£®": 5170,
      "ournal": 5171,
      "High": 5172,
      "çĽĳçĿ£": 5173,
      "July": 5174,
      "Day": 5175,
      "çļĦä¸Ģç§į": 5176,
      "çļ®èĤ¤": 5177,
      "ä¸ĭéĻį": 5178,
      "firm": 5179,
      "åİĭåĬĽ": 5180,
      "é¼ł": 5181,
      "Pat": 5182,
      "PS": 5183,
      "æ³¥": 5184,
      "dle": 5185,
      "appear": 5186,
      "ï¼Įä»ĸä»¬": 5187,
      "Satur": 5188,
      "Art": 5189,
      "âĳ¢": 5190,
      "èĻİ": 5191,
      "tware": 5192,
      "æļĸ": 5193,
      "Fir": 5194,
      "æĢģåº¦": 5195,
      "ç«Ł": 5196,
      "æµ®": 5197,
      "vert": 5198,
      "æ·»": 5199,
      "è¾ŀ": 5200,
      "ä¸įè¿ĩ": 5201,
      "è·Ŀç¦»": 5202,
      "å®Ŀå®Ŀ": 5203,
      "çĬ¶åĨµ": 5204,
      "ï¼ĮçĶļèĩ³": 5205,
      "ãĢĤå®ĥ": 5206,
      "logical": 5207,
      "Web": 5208,
      "å½ĵäºĭ": 5209,
      "significant": 5210,
      "running": 5211,
      "å§Ķåĳĺä¼ļ": 5212,
      "ends": 5213,
      "Char": 5214,
      "èģĮå·¥": 5215,
      "æĥħæĦŁ": 5216,
      "weight": 5217,
      "August": 5218,
      "v.": 5219,
      "åĲ¸æĶ¶": 5220,
      "çļĦåĨħå®¹": 5221,
      "i.": 5222,
      "åĪĨåŃĲ": 5223,
      "mother": 5224,
      "diffic": 5225,
      "SE": 5226,
      "connect": 5227,
      "è§Ĵåº¦": 5228,
      "particip": 5229,
      "æĮ¯": 5230,
      "è´Ŀ": 5231,
      "éĢĤå½ĵ": 5232,
      "Stud": 5233,
      "June": 5234,
      "ä¼¸": 5235,
      "å¤Ħäºİ": 5236,
      "æģĲ": 5237,
      "ä¸ªæľĪ": 5238,
      "çļĩå¸Ŀ": 5239,
      "æĮĳ": 5240,
      "ä¹ĥ": 5241,
      "Read": 5242,
      "Im": 5243,
      "åŃ©åŃĲçļĦ": 5244,
      "learn": 5245,
      "lock": 5246,
      "gress": 5247,
      "fight": 5248,
      "å¹´é¾Ħ": 5249,
      "éļĨ": 5250,
      "éĩĮçļĦ": 5251,
      "alter": 5252,
      "ä¸ĵå®¶": 5253,
      "base": 5254,
      "ä¸¹": 5255,
      "èµŀ": 5256,
      "provided": 5257,
      "oogle": 5258,
      "situ": 5259,
      "åºĦ": 5260,
      "ä¼łæĴŃ": 5261,
      "hu": 5262,
      "æĹĹ": 5263,
      "played": 5264,
      "éĻ·": 5265,
      "åĮºåĪ«": 5266,
      "price": 5267,
      "vention": 5268,
      "indic": 5269,
      "çī¹åĪ«æĺ¯": 5270,
      "å¿ĺ": 5271,
      "è´«": 5272,
      "æľ¬èº«": 5273,
      "å¿½": 5274,
      "lower": 5275,
      "Ger": 5276,
      "åģ¶": 5277,
      "recomm": 5278,
      "ç¼ºä¹ı": 5279,
      "æľĢé«ĺ": 5280,
      "gets": 5281,
      "explain": 5282,
      "staff": 5283,
      "åķĬ": 5284,
      "çģ°": 5285,
      "earch": 5286,
      "å·¥ä½ľï¼Į": 5287,
      "block": 5288,
      "sat": 5289,
      "Par": 5290,
      "idea": 5291,
      "æĶ¾åľ¨": 5292,
      "install": 5293,
      "åĩĨç¡®": 5294,
      "å·¥ä½ľçļĦ": 5295,
      "deb": 5296,
      "agre": 5297,
      "sed": 5298,
      "åħ±åĴĮåĽ½": 5299,
      "States": 5300,
      "ï¼Īä¸Ģ": 5301,
      "äººãĢģ": 5302,
      "è¿Ķ": 5303,
      "improve": 5304,
      "é¢ľèī²": 5305,
      "æĿ¥è¯´ï¼Į": 5306,
      "ival": 5307,
      "accept": 5308,
      "ç´«": 5309,
      "common": 5310,
      "Aust": 5311,
      "äºĭå®ŀ": 5312,
      "åľ¨äºİ": 5313,
      "role": 5314,
      "å¤įä¹ł": 5315,
      "ï¼ĮåĬł": 5316,
      "éĻ¶": 5317,
      "article": 5318,
      "äººçī©": 5319,
      "David": 5320,
      "bert": 5321,
      "size": 5322,
      "éĺµ": 5323,
      "âĢľI": 5324,
      "ung": 5325,
      "swe": 5326,
      "ux": 5327,
      "results": 5328,
      "è§Ĥå¿µ": 5329,
      "å²¸": 5330,
      "è¿ħéĢŁ": 5331,
      "åĲĮåŃ¦ä»¬": 5332,
      "å¼ºè°ĥ": 5333,
      "èħĲ": 5334,
      "æīĢåľ¨": 5335,
      "goal": 5336,
      "å®ŀä¹ł": 5337,
      "ðłĢ": 5338,
      "House": 5339,
      "asing": 5340,
      "è¡Ģç®¡": 5341,
      "hair": 5342,
      "months": 5343,
      "ðłĢ¤": 5344,
      "ention": 5345,
      "itten": 5346,
      "æİ¢ç´¢": 5347,
      "general": 5348,
      "hope": 5349,
      "ç»Łè®¡": 5350,
      "éĹ®é¢ĺçļĦ": 5351,
      "total": 5352,
      "ä¸Ńæľī": 5353,
      "required": 5354,
      "æ¡ĥ": 5355,
      "ãĢĤãĢĢãĢĢ": 5356,
      "couple": 5357,
      "åĽºå®ļ": 5358,
      "Tech": 5359,
      "ï¼ĮåĮħæĭ¬": 5360,
      "çº¤": 5361,
      "ä¸Ĭæµ·": 5362,
      "plant": 5363,
      "that,": 5364,
      "ler": 5365,
      "shot": 5366,
      "Ber": 5367,
      "è¯º": 5368,
      "cret": 5369,
      "regard": 5370,
      "inj": 5371,
      "Ho": 5372,
      "'ve": 5373,
      "èįĲ": 5374,
      "viol": 5375,
      "æĦŁæĥħ": 5376,
      "establ": 5377,
      "æ°ĳä¸»": 5378,
      "é¢Ī": 5379,
      "è§ĤçĤ¹": 5380,
      "Red": 5381,
      "imm": 5382,
      "ÂłÂł": 5383,
      "æĦĪ": 5384,
      "communic": 5385,
      "é¼ĵåĬ±": 5386,
      "éĿ¢å¯¹": 5387,
      "ources": 5388,
      "ples": 5389,
      "å¿«éĢŁ": 5390,
      "é¥®é£Ł": 5391,
      "åĪºæ¿Ģ": 5392,
      "ãĢĭĊ": 5393,
      "sens": 5394,
      "responsi": 5395,
      "CE": 5396,
      "çŁĽçĽ¾": 5397,
      "Go": 5398,
      "åıªèĥ½": 5399,
      "ance,": 5400,
      "æ¡Īä»¶": 5401,
      "features": 5402,
      "UN": 5403,
      "åĩŃ": 5404,
      "management": 5405,
      "è¡¨éĿ¢": 5406,
      "åĲįç§°": 5407,
      "iful": 5408,
      "added": 5409,
      "é©¾é©¶": 5410,
      "hours": 5411,
      "sense": 5412,
      "ä¸»ä»»": 5413,
      "æł¡åĽŃ": 5414,
      "protect": 5415,
      "ï¼Įè¿Ļç§į": 5416,
      "energy": 5417,
      "æ³Į": 5418,
      "simple": 5419,
      "bly": 5420,
      "ently": 5421,
      "decision": 5422,
      "outside": 5423,
      "æĭĶ": 5424,
      "ran": 5425,
      "combin": 5426,
      "president": 5427,
      "å±Ĭ": 5428,
      "è®¾æĸ½": 5429,
      "scri": 5430,
      "åıĳèĤ²": 5431,
      "oil": 5432,
      "various": 5433,
      "ä¸Ĭè¿°": 5434,
      "ators": 5435,
      "assist": 5436,
      "received": 5437,
      "æ´»åĬ¨ï¼Į": 5438,
      "çĸ¼": 5439,
      "éŁ©": 5440,
      "Str": 5441,
      "speak": 5442,
      "Dr.": 5443,
      "æ±Ĺ": 5444,
      "éĹ®é¢ĺï¼Į": 5445,
      "industry": 5446,
      "æĿ¥çľĭ": 5447,
      "æĮĤ": 5448,
      "style": 5449,
      "ally,": 5450,
      "èģĶåĲĪ": 5451,
      "morning": 5452,
      "Department": 5453,
      "å®Įæķ´": 5454,
      "tour": 5455,
      "includes": 5456,
      "via": 5457,
      "comment": 5458,
      "åŁºéĩĳ": 5459,
      "prim": 5460,
      "games": 5461,
      "Val": 5462,
      "reme": 5463,
      "uel": 5464,
      "ift": 5465,
      "ze": 5466,
      "lost": 5467,
      "dog": 5468,
      "nice": 5469,
      "åħ±äº§": 5470,
      "song": 5471,
      "ä½įäºİ": 5472,
      "èĪį": 5473,
      "LL": 5474,
      "èħ°": 5475,
      "original": 5476,
      "NO": 5477,
      "anyone": 5478,
      "production": 5479,
      "çĦ¦": 5480,
      "and,": 5481,
      "è§Ī": 5482,
      "political": 5483,
      "First": 5484,
      "color": 5485,
      "ï¼Įæ²¡æľī": 5486,
      "amount": 5487,
      "Au": 5488,
      "ations,": 5489,
      "ledge": 5490,
      "æĭľ": 5491,
      "ç»¿èī²": 5492,
      "åķĨä¸ļ": 5493,
      "ä¾¯": 5494,
      "æ±¤": 5495,
      "mic": 5496,
      "å¸Ń": 5497,
      "å¢¨": 5498,
      "star": 5499,
      "object": 5500,
      "é«ĺåº¦": 5501,
      "rid": 5502,
      "åī²": 5503,
      "æĶ¹åĸĦ": 5504,
      "è®°å¿Ĩ": 5505,
      "Wash": 5506,
      "âĢĻll": 5507,
      "é«ĺï¼Į": 5508,
      "year,": 5509,
      "åı¦å¤ĸ": 5510,
      "\"The": 5511,
      "ç²ĺ": 5512,
      "å¹³åı°": 5513,
      "æ³ķï¼Į": 5514,
      "çºł": 5515,
      "relationship": 5516,
      "æ¯ĶèµĽ": 5517,
      "åħ¶å®ŀ": 5518,
      "åħĥç´ł": 5519,
      "æľīäºĽ": 5520,
      "èĲ½å®ŀ": 5521,
      "éģŃ": 5522,
      "express": 5523,
      "éħįåĲĪ": 5524,
      "argu": 5525,
      "network": 5526,
      "æļĤ": 5527,
      "Google": 5528,
      "ports": 5529,
      "ä¼ĺåĬ¿": 5530,
      "ä»¥åĲİ": 5531,
      "éĶ»": 5532,
      "è¡¨æĺİ": 5533,
      "na": 5534,
      "è°±": 5535,
      "çļĦæĸ¹å¼ı": 5536,
      "office": 5537,
      "æ¼«": 5538,
      "åĪĨéħį": 5539,
      "playing": 5540,
      "ox": 5541,
      "screen": 5542,
      "increase": 5543,
      "ills": 5544,
      "ä¸Ģå¹´": 5545,
      "åĽŀçŃĶ": 5546,
      "åĸ»": 5547,
      "æľīéĻĲ": 5548,
      "ãĢĤè¿Ļç§į": 5549,
      "çıł": 5550,
      "éĢĥ": 5551,
      "çļĦä¸»": 5552,
      "moved": 5553,
      "ä»İäºĭ": 5554,
      "recogn": 5555,
      "El": 5556,
      "åħ¶ä¸Ń": 5557,
      "é¢Ĺ": 5558,
      "æ¶īåıĬ": 5559,
      "minutes": 5560,
      "éĺ¶çº§": 5561,
      "ãĢĤçĶ±äºİ": 5562,
      "éĢĤåĲĪ": 5563,
      "stock": 5564,
      "MA": 5565,
      "):": 5566,
      "æİ¨åĬ¨": 5567,
      "ç±³ï¼Į": 5568,
      "æĺ¯ä¸į": 5569,
      "äººåľ¨": 5570,
      "ç²Ĺ": 5571,
      "åĵ¥": 5572,
      "ï¼Įä¸įèĥ½": 5573,
      "åŁºäºİ": 5574,
      "å°±åı¯ä»¥": 5575,
      "è´¡": 5576,
      "rock": 5577,
      "å°Ŀ": 5578,
      "ç¾¤ä¼Ĺ": 5579,
      "moment": 5580,
      "har": 5581,
      "soon": 5582,
      "æ¸ħæ¥ļ": 5583,
      "äºĨä¸Ģä¸ª": 5584,
      "æħ§": 5585,
      "å¯¹æĸ¹": 5586,
      "drop": 5587,
      "spect": 5588,
      "legal": 5589,
      "æ¹¾": 5590,
      "åĨĽäºĭ": 5591,
      "bot": 5592,
      "cannot": 5593,
      "æĳĨ": 5594,
      "stant": 5595,
      "all,": 5596,
      "Canad": 5597,
      "Please": 5598,
      "sil": 5599,
      "æĭ¥æľī": 5600,
      "pli": 5601,
      "contribut": 5602,
      "èµĭ": 5603,
      "ers.Ċ": 5604,
      "Fin": 5605,
      "MS": 5606,
      "æĺ¯ï¼ļ": 5607,
      "Eng": 5608,
      "ban": 5609,
      "éĵľ": 5610,
      "Sen": 5611,
      "ç£¨": 5612,
      "Wed": 5613,
      "sus": 5614,
      "tradition": 5615,
      "æĿ¥èĩª": 5616,
      "rodu": 5617,
      "ç»´çĶŁç´ł": 5618,
      "åĲ«æľī": 5619,
      "ä¸įèī¯": 5620,
      "rect": 5621,
      "*||": 5622,
      "pm": 5623,
      "soft": 5624,
      "rul": 5625,
      "Health": 5626,
      "è¿Ļæł·çļĦ": 5627,
      "mis": 5628,
      "ç¾Ĭ": 5629,
      "rew": 5630,
      "åĿ¦": 5631,
      "option": 5632,
      "æķ´çĲĨ": 5633,
      "dict": 5634,
      "ges": 5635,
      "touch": 5636,
      "pair": 5637,
      "M.": 5638,
      "aign": 5639,
      "å¥ī": 5640,
      "smo": 5641,
      "åĨľæ°ĳ": 5642,
      "åħįçĸ«": 5643,
      "ination": 5644,
      "Oh": 5645,
      "âĪ": 5646,
      "standard": 5647,
      "istic": 5648,
      "can't": 5649,
      "park": 5650,
      "å¾ĭå¸Ī": 5651,
      "æ¯įäº²": 5652,
      "è·¨": 5653,
      "çļĦãĢģ": 5654,
      "simply": 5655,
      "began": 5656,
      "åıªè¦ģ": 5657,
      "user": 5658,
      "feature": 5659,
      "fit": 5660,
      "TO": 5661,
      "Sci": 5662,
      "plement": 5663,
      "åį±å®³": 5664,
      "takes": 5665,
      "æŁ³": 5666,
      "sle": 5667,
      "ief": 5668,
      "fair": 5669,
      "åĪ«äºº": 5670,
      "release": 5671,
      "éº¦": 5672,
      "åŀĤ": 5673,
      "æ³ķè§Ħ": 5674,
      "å¿«ä¹Ĳ": 5675,
      "æľīæīĢ": 5676,
      "åĩºçīĪ": 5677,
      "çł´åĿı": 5678,
      "ç»ĻäºĪ": 5679,
      "âĢĿâĢľ": 5680,
      "åħļçļĦ": 5681,
      "selves": 5682,
      "request": 5683,
      "time.": 5684,
      "åĩºï¼Į": 5685,
      "åŁºåĽł": 5686,
      "æīĭæľ¯": 5687,
      "æ¬§æ´²": 5688,
      "corpor": 5689,
      "åħ·å¤ĩ": 5690,
      "éĩĳå±ŀ": 5691,
      "ä¸ĭæĿ¥": 5692,
      "effective": 5693,
      "heav": 5694,
      "ï¼Įå¯¹äºİ": 5695,
      "æĻ¶": 5696,
      "tegr": 5697,
      "cul": 5698,
      ">>": 5699,
      "police": 5700,
      "è¾ĵåħ¥": 5701,
      "contract": 5702,
      "èĩªä¸»": 5703,
      "clean": 5704,
      "leave": 5705,
      "å¤©ï¼Į": 5706,
      "ç»ıåİĨ": 5707,
      "aft": 5708,
      "çļĦåİŁåĽł": 5709,
      "International": 5710,
      "å¤§å°ı": 5711,
      "ä¸Ģå®ļè¦ģ": 5712,
      "companies": 5713,
      "å¯¿": 5714,
      "å´ĩ": 5715,
      "åħģ": 5716,
      "January": 5717,
      "æĺ¯çĶ±": 5718,
      "mob": 5719,
      "provides": 5720,
      "æ©": 5721,
      "higher": 5722,
      "åĲĲ": 5723,
      "document": 5724,
      "ç¼ĸè¾ĳ": 5725,
      "æľªæĿ¥": 5726,
      "æĤī": 5727,
      "æİ¨è¿Ľ": 5728,
      "åı¬": 5729,
      "Septem": 5730,
      "åľ°ï¼Į": 5731,
      "commit": 5732,
      "åĲ¯åĬ¨": 5733,
      "engine": 5734,
      "å¯Ħ": 5735,
      "Associ": 5736,
      "å¹³è¡¡": 5737,
      "empt": 5738,
      "September": 5739,
      "è¡¥åħħ": 5740,
      "inary": 5741,
      "ä¸ĢåĪĩ": 5742,
      "party": 5743,
      "åºĹ": 5744,
      "åľ°åĿĢ": 5745,
      "æµħ": 5746,
      "è¿·": 5747,
      "æĦŁåĪ°": 5748,
      "Lo": 5749,
      "æĻºèĥ½": 5750,
      "ires": 5751,
      "æĪ´": 5752,
      "source": 5753,
      "Gener": 5754,
      "ãĢĤå¯¹": 5755,
      "åĪ¸": 5756,
      "oid": 5757,
      "åŃ¦ãĢģ": 5758,
      "åĢºåĬ¡": 5759,
      "çĲ´": 5760,
      "éĶ»çĤ¼": 5761,
      "woman": 5762,
      "areas": 5763,
      "ert": 5764,
      "èĢĮè¨Ģ": 5765,
      "private": 5766,
      "UR": 5767,
      "drug": 5768,
      "shows": 5769,
      "è´·æ¬¾": 5770,
      "å½¹": 5771,
      "ï¼Ľï¼Ī": 5772,
      "aging": 5773,
      "coach": 5774,
      "è´¢åĬ¡": 5775,
      "Mus": 5776,
      "ctions": 5777,
      "å°±ä¸ļ": 5778,
      "remember": 5779,
      "van": 5780,
      "ä¼ı": 5781,
      "å¤©ä¸ĭ": 5782,
      "åŃ¦çļĦ": 5783,
      "cook": 5784,
      "living": 5785,
      "æ³°": 5786,
      "spital": 5787,
      "å¾ªçİ¯": 5788,
      "å±ı": 5789,
      "friends": 5790,
      "gas": 5791,
      "æ¬£": 5792,
      "é³": 5793,
      "IV": 5794,
      "âĢĻve": 5795,
      "natural": 5796,
      "è®°è½½": 5797,
      "æĭĵ": 5798,
      "ä¸Ģèĩ´": 5799,
      "æŁĲäºĽ": 5800,
      "Every": 5801,
      "å°ıç»Ħ": 5802,
      "ä¹Łä¼ļ": 5803,
      "security": 5804,
      "Nove": 5805,
      "file": 5806,
      "æľºæ¢°": 5807,
      "property": 5808,
      "Up": 5809,
      "wel": 5810,
      "åľ°çļĦ": 5811,
      "ä¹ĭï¼Į": 5812,
      "squ": 5813,
      "CA": 5814,
      "å±¥è¡Į": 5815,
      "æĿĨ": 5816,
      "åĳĬè¯ī": 5817,
      "needed": 5818,
      "histor": 5819,
      "gave": 5820,
      "didnâĢĻt": 5821,
      "æĹģ": 5822,
      "æİ¨èįĲ": 5823,
      "inste": 5824,
      "çľŁå®ŀ": 5825,
      "potential": 5826,
      "ç³»ç»ŁçļĦ": 5827,
      "impact": 5828,
      "ç»Łæ²»": 5829,
      "çĤ¹ï¼Į": 5830,
      "è¡Ĺ": 5831,
      "å¥³æĢ§": 5832,
      "tober": 5833,
      "difficult": 5834,
      "quarter": 5835,
      "ç®±": 5836,
      "himself": 5837,
      "çļĦæĸ°": 5838,
      "div": 5839,
      "åĲĦä¸ª": 5840,
      "gar": 5841,
      "å£°éŁ³": 5842,
      "æ²ŁéĢļ": 5843,
      "æłĩå¿Ĺ": 5844,
      "William": 5845,
      "çİ°åľº": 5846,
      "çĶ¨äºº": 5847,
      "moder": 5848,
      "ä½ĵéªĮ": 5849,
      "doesn't": 5850,
      ")ãĢģ": 5851,
      "tic": 5852,
      "that's": 5853,
      "surpr": 5854,
      "éĢĴ": 5855,
      "products": 5856,
      "drive": 5857,
      "æ³¨éĩį": 5858,
      "changes": 5859,
      "çĹħäºº": 5860,
      "çĩķ": 5861,
      "answer": 5862,
      "èħ¿": 5863,
      "fa": 5864,
      "ceed": 5865,
      "çºµ": 5866,
      "gam": 5867,
      "è§Ħå®ļï¼Į": 5868,
      "Black": 5869,
      "cand": 5870,
      "çĶµæ±ł": 5871,
      "mine": 5872,
      "mention": 5873,
      "west": 5874,
      "itself": 5875,
      "ç¥Ń": 5876,
      "è¿½æ±Ĥ": 5877,
      "æ¡Ĩ": 5878,
      "åħ¶å®ĥ": 5879,
      "å¿ł": 5880,
      "inside": 5881,
      "ç¾½": 5882,
      "ç¡®ä¿Ŀ": 5883,
      "lic": 5884,
      "loss": 5885,
      "ï¼Įä¼ļ": 5886,
      "created": 5887,
      "æī«": 5888,
      "blood": 5889,
      "achie": 5890,
      "ä»Ļ": 5891,
      "usually": 5892,
      "åĭĴ": 5893,
      "hear": 5894,
      "ml": 5895,
      "cat": 5896,
      "Bu": 5897,
      "å¦Ļ": 5898,
      "occur": 5899,
      "è½¦è¾Ĩ": 5900,
      "financial": 5901,
      "itary": 5902,
      "å¹´ï¼Ī": 5903,
      "October": 5904,
      "collect": 5905,
      "expected": 5906,
      "sn": 5907,
      "Sco": 5908,
      "æīİ": 5909,
      "Washington": 5910,
      "you're": 5911,
      "ï¼ĮæŃ¤": 5912,
      "bon": 5913,
      "è´§å¸ģ": 5914,
      "åĬłå·¥": 5915,
      "No.": 5916,
      "å²©": 5917,
      "æĿ¯": 5918,
      "ny": 5919,
      "è°ĭ": 5920,
      "summer": 5921,
      "treatment": 5922,
      "åĲĮæł·": 5923,
      "click": 5924,
      "anced": 5925,
      "Hol": 5926,
      "èĥĮæĻ¯": 5927,
      "ï¼Īä¸Ģï¼ī": 5928,
      "å·®å¼Ĥ": 5929,
      "wall": 5930,
      "atory": 5931,
      "æĪĲåĳĺ": 5932,
      "ãĢĤè¿ĻäºĽ": 5933,
      "employe": 5934,
      "idge": 5935,
      "åĬ³åĬ¨èĢħ": 5936,
      "äºĮï¼ī": 5937,
      "reli": 5938,
      "ç²®": 5939,
      "âĶ": 5940,
      "System": 5941,
      "Let": 5942,
      "Brit": 5943,
      "åĲĦé¡¹": 5944,
      "çļĦå¿ĥ": 5945,
      "regular": 5946,
      "father": 5947,
      "çĮª": 5948,
      "execut": 5949,
      "Inc.": 5950,
      "a-": 5951,
      "medical": 5952,
      "çİ¯èĬĤ": 5953,
      "E.": 5954,
      "proved": 5955,
      "ä½Ĩæĺ¯": 5956,
      "çĽĨ": 5957,
      "November": 5958,
      "çĿĽ": 5959,
      "åįıè°ĥ": 5960,
      "ring": 5961,
      "Net": 5962,
      "ä»¥åīį": 5963,
      "äººçĶŁ": 5964,
      "è¥¿æĸ¹": 5965,
      "cing": 5966,
      "ï¼Įè¿Ļä¸ª": 5967,
      "bi": 5968,
      "issues": 5969,
      "éģĩåĪ°": 5970,
      "çº¹": 5971,
      "Ear": 5972,
      "ä¸įå°ĳ": 5973,
      "vision": 5974,
      "popular": 5975,
      "al.": 5976,
      "seven": 5977,
      "technology": 5978,
      "professional": 5979,
      "åŃ¦å®¶": 5980,
      "note": 5981,
      "currently": 5982,
      "æĤŁ": 5983,
      "except": 5984,
      "ï¼Įè¢«": 5985,
      "hood": 5986,
      "labor": 5987,
      "langu": 5988,
      "åĩī": 5989,
      "investig": 5990,
      "Engl": 5991,
      "ufact": 5992,
      "heard": 5993,
      "players": 5994,
      "wise": 5995,
      "âĢľThe": 5996,
      "fine": 5997,
      "n.": 5998,
      "inv": 5999,
      "MP": 6000,
      "åŃ¤": 6001,
      "Dan": 6002,
      "Internet": 6003,
      "âĦĥ": 6004,
      "éĥ½ä¼ļ": 6005,
      "ä»ĸäºº": 6006,
      "software": 6007,
      "ãĢģå¤§": 6008,
      "n,": 6009,
      "refer": 6010,
      "æııè¿°": 6011,
      "å¯º": 6012,
      "cele": 6013,
      "Comp": 6014,
      "written": 6015,
      "æįŁå®³": 6016,
      "er.Ċ": 6017,
      "gun": 6018,
      "Then": 6019,
      "åĩłä¹İ": 6020,
      "recently": 6021,
      "å±Ī": 6022,
      "æŃ£åľ¨": 6023,
      "worked": 6024,
      "them.": 6025,
      "Mr": 6026,
      "æ¼ı": 6027,
      "me,": 6028,
      "became": 6029,
      "Sam": 6030,
      "æ¸¡": 6031,
      "æĪĲåĪĨ": 6032,
      "ate,": 6033,
      "looks": 6034,
      "ering": 6035,
      "oose": 6036,
      "leng": 6037,
      "ories": 6038,
      "è¾©": 6039,
      "å°ĳå¹´": 6040,
      "America": 6041,
      "é½¿": 6042,
      "ãĢĤ(": 6043,
      "æ°¨": 6044,
      "éļ¾ä»¥": 6045,
      "æī¾åĪ°": 6046,
      "mix": 6047,
      "Add": 6048,
      "å·¥èīº": 6049,
      "çĽŁ": 6050,
      "izing": 6051,
      "to-": 6052,
      "Sup": 6053,
      "ands": 6054,
      "è½´": 6055,
      "itter": 6056,
      "åĪĽä½ľ": 6057,
      "åĴĮè°Ĳ": 6058,
      "arri": 6059,
      "ure,": 6060,
      "å°ĸ": 6061,
      "æĪĲæŀľ": 6062,
      "one,": 6063,
      "âĨĴ": 6064,
      "-up": 6065,
      "campaign": 6066,
      "path": 6067,
      "years,": 6068,
      "åĳ¨åĽ´": 6069,
      "anch": 6070,
      "åĪĨæ³Į": 6071,
      "éĢļçŁ¥": 6072,
      "çĵľ": 6073,
      "ï¼īçļĦ": 6074,
      "bud": 6075,
      "ification": 6076,
      "separ": 6077,
      "åĽĬ": 6078,
      "Sw": 6079,
      "leav": 6080,
      "ishing": 6081,
      "èº«ä»½": 6082,
      "èĢĮä¸į": 6083,
      "mocr": 6084,
      "English": 6085,
      "serious": 6086,
      "ï¼ĮæĪĸèĢħ": 6087,
      "Paul": 6088,
      "ses": 6089,
      "reported": 6090,
      "fric": 6091,
      "ãĢģæľī": 6092,
      "prior": 6093,
      "çĽ¸ä¿¡": 6094,
      "tele": 6095,
      "rac": 6096,
      "Street": 6097,
      "adem": 6098,
      "astic": 6099,
      "ä½łä»¬": 6100,
      "R.": 6101,
      "è´Ńä¹°": 6102,
      "éĴĻ": 6103,
      "æ»´": 6104,
      "è¿Ļæĺ¯": 6105,
      "æ´¥": 6106,
      "rup": 6107,
      "however,": 6108,
      "application": 6109,
      "questions": 6110,
      "æ¶Ĥ": 6111,
      "Ben": 6112,
      "beautiful": 6113,
      "èµ¤": 6114,
      "è¦Ĩ": 6115,
      "Ke": 6116,
      "çļĦèĥ½åĬĽ": 6117,
      "ield": 6118,
      "economic": 6119,
      "åİĺ": 6120,
      "ometimes": 6121,
      "ãĢģä¸į": 6122,
      "ãĢģé«ĺ": 6123,
      "mass": 6124,
      "patient": 6125,
      "hael": 6126,
      "iet": 6127,
      "thern": 6128,
      "ä¸Ńåįİäººæ°ĳ": 6129,
      "conduct": 6130,
      "åįģäºĶ": 6131,
      "Sal": 6132,
      "å®Ļ": 6133,
      "èµĸ": 6134,
      "ä¸ĢæĿ¡": 6135,
      "device": 6136,
      "å±ħæ°ĳ": 6137,
      "Any": 6138,
      "æ³ī": 6139,
      "offers": 6140,
      "åĬ³åĬ¨åĲĪåĲĮ": 6141,
      "A,": 6142,
      "longer": 6143,
      "ãĢĤåĽłä¸º": 6144,
      "æģĴ": 6145,
      "å¾Ĳ": 6146,
      "sold": 6147,
      "è°ĥèĬĤ": 6148,
      "example,": 6149,
      "ç¨¿": 6150,
      "Thurs": 6151,
      "letter": 6152,
      "åĳ½ä»¤": 6153,
      "wrong": 6154,
      "instead": 6155,
      "å°½éĩı": 6156,
      "æ°´ï¼Į": 6157,
      "affect": 6158,
      "looked": 6159,
      "Also": 6160,
      "å§»": 6161,
      "shall": 6162,
      "çº²": 6163,
      "çĭĹ": 6164,
      "æĹ©æľŁ": 6165,
      "è¯Ħä¼°": 6166,
      "St.": 6167,
      "analys": 6168,
      "åıĻ": 6169,
      "èªī": 6170,
      "clin": 6171,
      "Tues": 6172,
      "paper": 6173,
      "evidence": 6174,
      "determin": 6175,
      "è¾¨": 6176,
      "ING": 6177,
      "gg": 6178,
      "zz": 6179,
      "çĲĨå¿µ": 6180,
      "writing": 6181,
      "æĻ®éģį": 6182,
      "ï¼Įèĩª": 6183,
      "æĭ¼": 6184,
      "hi": 6185,
      "ï¼Įä¸Ķ": 6186,
      "æŃ£å¼ı": 6187,
      "è¯¦ç»Ĩ": 6188,
      "prep": 6189,
      "å½ĵäºĭäºº": 6190,
      "Afric": 6191,
      "ease": 6192,
      "covered": 6193,
      "çļĦçĶŁæ´»": 6194,
      "Jack": 6195,
      "felt": 6196,
      "introdu": 6197,
      "å¹³æĸ¹": 6198,
      "dead": 6199,
      "opportunity": 6200,
      "å°ĺ": 6201,
      "æ°ĶåĢĻ": 6202,
      "day.": 6203,
      "shown": 6204,
      "THE": 6205,
      "äºĨâĢľ": 6206,
      "ï¼ļãĢĬ": 6207,
      "Phil": 6208,
      "éĤ¦": 6209,
      "ä¸ĩåħĥ": 6210,
      "è´¸æĺĵ": 6211,
      "aily": 6212,
      "è¿Ĳè¾ĵ": 6213,
      "orge": 6214,
      "åĨĻä½ľ": 6215,
      "vic": 6216,
      "åĨĴ": 6217,
      "clus": 6218,
      "Most": 6219,
      "exact": 6220,
      "ä¸ŃåĽ½çļĦ": 6221,
      "turned": 6222,
      "cool": 6223,
      "é©¬åħĭ": 6224,
      "credit": 6225,
      "Law": 6226,
      "youâĢĻre": 6227,
      "leaders": 6228,
      "image": 6229,
      "åĮħåĲ«": 6230,
      "å¼Ĥå¸¸": 6231,
      "æĮĩæłĩ": 6232,
      "decided": 6233,
      "è¿ŀç»Ń": 6234,
      "fre": 6235,
      "anger": 6236,
      "growth": 6237,
      "Are": 6238,
      "åį³åı¯": 6239,
      "å¿§": 6240,
      "L.": 6241,
      "å°¤åħ¶æĺ¯": 6242,
      "å§¿": 6243,
      "æııåĨĻ": 6244,
      "Cali": 6245,
      "è¡Ģæ¶²": 6246,
      "åĻ¨çļĦ": 6247,
      "åŃ©åŃĲä»¬": 6248,
      "-based": 6249,
      "bill": 6250,
      "èĥĢ": 6251,
      "åŃ¦ä¹łçļĦ": 6252,
      "è¯Ĺäºº": 6253,
      "attle": 6254,
      "æī°": 6255,
      "See": 6256,
      "Last": 6257,
      "()": 6258,
      "sort": 6259,
      "cross": 6260,
      "åľ°çĲĨ": 6261,
      "Dece": 6262,
      "race": 6263,
      "Why": 6264,
      "bum": 6265,
      "bab": 6266,
      "Bro": 6267,
      "æīĵå¼Ģ": 6268,
      "immedi": 6269,
      "celebr": 6270,
      "ffer": 6271,
      "è¾ĸ": 6272,
      "éĢĨ": 6273,
      "code": 6274,
      "æ·±åĪ»": 6275,
      "aughter": 6276,
      "forn": 6277,
      "åĿ¡": 6278,
      "çªģåĩº": 6279,
      "å¢ĵ": 6280,
      "native": 6281,
      "åį°åº¦": 6282,
      "pul": 6283,
      "IâĢĻve": 6284,
      "tur": 6285,
      "ä»įçĦ¶": 6286,
      "explo": 6287,
      "å°Ĭéĩį": 6288,
      "ament": 6289,
      "åħĪçĶŁ": 6290,
      "âĸ": 6291,
      "æľĢå¤§çļĦ": 6292,
      "chance": 6293,
      "deep": 6294,
      "crim": 6295,
      "çĵ¦": 6296,
      "focus": 6297,
      "å®¢è§Ĥ": 6298,
      "ï¼Įè¿ĺæľī": 6299,
      "ä¸Ńåįİäººæ°ĳåħ±åĴĮåĽ½": 6300,
      "emer": 6301,
      "cip": 6302,
      "%ï¼Į": 6303,
      "sched": 6304,
      "training": 6305,
      "Work": 6306,
      "December": 6307,
      "ables": 6308,
      "ites": 6309,
      "æ¶Īéĺ²": 6310,
      "necessary": 6311,
      "goes": 6312,
      "éļľç¢į": 6313,
      "åĬłåħ¥": 6314,
      "èĪĴ": 6315,
      "nov": 6316,
      "æĺĮ": 6317,
      "Even": 6318,
      "demand": 6319,
      "åĽ¾çīĩ": 6320,
      "æµĭéĩı": 6321,
      "Wednes": 6322,
      "write": 6323,
      "fix": 6324,
      "æ¯ıä¸Ģ": 6325,
      "additional": 6326,
      "ï¼Įè¯·": 6327,
      "å¤º": 6328,
      "knew": 6329,
      "designed": 6330,
      "å±Ĥæ¬¡": 6331,
      "ãĢĤâĢĿĊ": 6332,
      "inde": 6333,
      "haps": 6334,
      "é¸£": 6335,
      "çļĦåħ³ç³»": 6336,
      "ä¹Łåı¯ä»¥": 6337,
      "giving": 6338,
      "e-": 6339,
      "éħįç½®": 6340,
      "åĸ·": 6341,
      "BC": 6342,
      "meeting": 6343,
      "èĢĥçĶŁ": 6344,
      "broad": 6345,
      "æ°Ľ": 6346,
      "veh": 6347,
      "Pal": 6348,
      "uk": 6349,
      "Commun": 6350,
      "La": 6351,
      "åĳ¨æľŁ": 6352,
      "ï¼Įå°ı": 6353,
      "Trans": 6354,
      "çľ¼çĿĽ": 6355,
      "ï¼Įæ¯Ķå¦Ĥ": 6356,
      "words": 6357,
      "è¿Ľè¡ĮäºĨ": 6358,
      "comfort": 6359,
      "nation": 6360,
      "Rich": 6361,
      "çº¦å®ļ": 6362,
      "Ang": 6363,
      "Californ": 6364,
      "éĿĴå¹´": 6365,
      "safe": 6366,
      "reading": 6367,
      "lip": 6368,
      "piece": 6369,
      "push": 6370,
      "å¹ķ": 6371,
      "åĨħåŃĺ": 6372,
      "åĽ½æ°ĳ": 6373,
      "åħĪè¿Ľ": 6374,
      "éĥ¡": 6375,
      "Direct": 6376,
      "served": 6377,
      "æīĢå¾Ĺ": 6378,
      "éĢĲæŃ¥": 6379,
      "å¿Į": 6380,
      "interview": 6381,
      "mach": 6382,
      "åįķåħĥ": 6383,
      "stuff": 6384,
      "æĥħå½¢": 6385,
      "æ¶µ": 6386,
      "center": 6387,
      "rain": 6388,
      "å©ļå§»": 6389,
      "located": 6390,
      "èĥ½æºĲ": 6391,
      "ken": 6392,
      "leading": 6393,
      "receive": 6394,
      "rights": 6395,
      "éĥģ": 6396,
      "æľĢå¤§": 6397,
      "slow": 6398,
      "mod": 6399,
      "æ³ķçļĦ": 6400,
      "olar": 6401,
      "æľīäºº": 6402,
      "Sim": 6403,
      "umb": 6404,
      "è¯ĬæĸŃ": 6405,
      "feed": 6406,
      "Febr": 6407,
      "çĶ¨äººåįķä½į": 6408,
      "ï¼īãĢĤĊ": 6409,
      "international": 6410,
      "æĥ³è±¡": 6411,
      "pite": 6412,
      "æŃ£æĺ¯": 6413,
      "çļĦè¦ģæ±Ĥ": 6414,
      "maintain": 6415,
      "throughout": 6416,
      "integr": 6417,
      "CT": 6418,
      "ç«ĭåį³": 6419,
      "æ°ĳéĹ´": 6420,
      "åĴĮâĢľ": 6421,
      "target": 6422,
      "æĲľ": 6423,
      "è¡Ģåİĭ": 6424,
      "Cap": 6425,
      "sun": 6426,
      "ä»°": 6427,
      "ato": 6428,
      "çļĦçłĶç©¶": 6429,
      "åĪ·": 6430,
      "ç¬¬äºĶ": 6431,
      "Michael": 6432,
      "February": 6433,
      "-old": 6434,
      "imag": 6435,
      "éĢ»": 6436,
      "ä¸§": 6437,
      "ç±»ä¼¼": 6438,
      "erson": 6439,
      "åĮ»åŃ¦": 6440,
      "ãĢĮ": 6441,
      "æ¶ĪåĮĸ": 6442,
      "length": 6443,
      "rote": 6444,
      "Republic": 6445,
      "éª¤": 6446,
      "Court": 6447,
      "éĺĶ": 6448,
      "Public": 6449,
      "y.Ċ": 6450,
      "æľºåĬ¨": 6451,
      "ï¼Įäºº": 6452,
      "ãĢį": 6453,
      "included": 6454,
      "fresh": 6455,
      "å¾¡": 6456,
      "å¼ºçļĦ": 6457,
      "è¯ģæį®": 6458,
      "ç§¯ç´¯": 6459,
      "çĽ¸åºĶçļĦ": 6460,
      "(\"": 6461,
      "appoint": 6462,
      "problems": 6463,
      "response": 6464,
      "ï¼Įåį´": 6465,
      "å¿Ļ": 6466,
      "http://www.": 6467,
      "äºķ": 6468,
      "movie": 6469,
      "è·ĥ": 6470,
      "æķ°çļĦ": 6471,
      "åı¯è§ģ": 6472,
      "dol": 6473,
      "èĦ¸": 6474,
      "ï¼Įæīįèĥ½": 6475,
      "East": 6476,
      "æ§": 6477,
      "ä»¥åĲİï¼Į": 6478,
      "kes": 6479,
      "å®ĩå®Ļ": 6480,
      "éħ¶": 6481,
      "åŀĥ": 6482,
      "ãĢĭä¸Ń": 6483,
      "ension": 6484,
      "ine,": 6485,
      "åľ¾": 6486,
      "çĪ¶äº²": 6487,
      "ãĢĤ$P$ãĢĢãĢĢ": 6488,
      "Â°": 6489,
      "è§Ħå®ļçļĦ": 6490,
      "stra": 6491,
      "èĤĮèĤī": 6492,
      "patients": 6493,
      "P.": 6494,
      "launch": 6495,
      "built": 6496,
      "æ³ķåĽ½": 6497,
      "Gl": 6498,
      "correct": 6499,
      "depart": 6500,
      "é¬": 6501,
      "åŀĥåľ¾": 6502,
      "sho": 6503,
      "suit": 6504,
      "çĬ¹": 6505,
      "åĲ¹": 6506,
      "å°ģå»º": 6507,
      "Over": 6508,
      "way,": 6509,
      "æĬ±": 6510,
      "Book": 6511,
      "weeks": 6512,
      "bility": 6513,
      "æŁĶ": 6514,
      "ä¸»è¦ģæĺ¯": 6515,
      "latest": 6516,
      "æĪĲå¹´": 6517,
      "èĢĥæł¸": 6518,
      "é£İæł¼": 6519,
      "collection": 6520,
      "æł¼å¼ı": 6521,
      "countri": 6522,
      "æ¿Ģåıĳ": 6523,
      "irth": 6524,
      "Tex": 6525,
      "Ma": 6526,
      "éĥ¨ä½į": 6527,
      "ï¼Įä¸įè¦ģ": 6528,
      "ï¼Įå½¢æĪĲ": 6529,
      "èĲ¨": 6530,
      "Obama": 6531,
      "åĲİæĿ¥": 6532,
      "onto": 6533,
      "practice": 6534,
      "èµ·è¯ī": 6535,
      "sor": 6536,
      "æĪĲçĨŁ": 6537,
      "effort": 6538,
      "å£¤": 6539,
      "Get": 6540,
      "æĸĳ": 6541,
      "å¤§å¤ļæķ°": 6542,
      "andĊ": 6543,
      "ç¾İä¸½": 6544,
      "cit": 6545,
      "çĶµè·¯": 6546,
      "hon": 6547,
      "brary": 6548,
      "knowledge": 6549,
      "æ¿Ģç´ł": 6550,
      "ity.": 6551,
      "extra": 6552,
      "consist": 6553,
      "åĮ»çĶŁ": 6554,
      "å¯¸": 6555,
      "çĶµè§Ĩ": 6556,
      "IM": 6557,
      "å¤Ħç½ļ": 6558,
      "average": 6559,
      "myself": 6560,
      "Lin": 6561,
      "multip": 6562,
      "åħħæ»¡": 6563,
      "sam": 6564,
      "thatâĢĻs": 6565,
      "wrote": 6566,
      "äºĭæĥħ": 6567,
      "charge": 6568,
      "brought": 6569,
      "å±ķç¤º": 6570,
      "Stat": 6571,
      "å¿ĥï¼Į": 6572,
      "ience": 6573,
      "æ³¨åĨĮ": 6574,
      "åŃŁ": 6575,
      "director": 6576,
      "ases": 6577,
      "è½¨": 6578,
      "AãĢģ": 6579,
      "Lon": 6580,
      "å®¿": 6581,
      "White": 6582,
      "earli": 6583,
      "çĶµè¯Ŀ": 6584,
      "vict": 6585,
      "din": 6586,
      "ä¸»ä½ĵ": 6587,
      "deliver": 6588,
      "åħ¸åŀĭ": 6589,
      "setting": 6590,
      "distribut": 6591,
      "club": 6592,
      "å¤±è´¥": 6593,
      "manufact": 6594,
      "a.Ċ": 6595,
      "æ´ª": 6596,
      "King": 6597,
      "æµģè¡Į": 6598,
      "æ³ķĊ": 6599,
      "ï¼ĮçĶ±äºİ": 6600,
      "rich": 6601,
      "in.": 6602,
      "grand": 6603,
      "èĴ¸": 6604,
      "ï¼ĮĊ": 6605,
      "åĬ¨åĬĽ": 6606,
      "æľīä¸Ģä¸ª": 6607,
      "é©¬åħĭæĢĿ": 6608,
      "æ»ĭ": 6609,
      "çĿ¡çľł": 6610,
      "å¥´": 6611,
      "travel": 6612,
      "åŃĿ": 6613,
      "èĽĭçĻ½è´¨": 6614,
      "lack": 6615,
      "ä¼į": 6616,
      "çļĦåīį": 6617,
      "ä¸Ĭä¸ĭ": 6618,
      "å¤§éĥ¨åĪĨ": 6619,
      "åĮĸãĢģ": 6620,
      "ãĢĤè¦ģ": 6621,
      "Mac": 6622,
      "è¿Ł": 6623,
      "åĲ«éĩı": 6624,
      "College": 6625,
      "èĳ¡": 6626,
      "èĳĽ": 6627,
      "administr": 6628,
      "ises": 6629,
      "prefer": 6630,
      "imate": 6631,
      "Out": 6632,
      "å°ıè¯´": 6633,
      "lying": 6634,
      "ãĢĤåĽłæŃ¤ï¼Į": 6635,
      "å®ļæľŁ": 6636,
      ".com/": 6637,
      "çŃĸçķ¥": 6638,
      "æķĻæİĪ": 6639,
      "åı¯èĥ½ä¼ļ": 6640,
      "äº¤éĢļäºĭæķħ": 6641,
      "æ²»çĲĨ": 6642,
      "å½¢æĢģ": 6643,
      "computer": 6644,
      "Air": 6645,
      "æ°¢": 6646,
      "æĸ¹ä¾¿": 6647,
      "ç§»åĬ¨": 6648,
      "Tom": 6649,
      "ä¿®æĶ¹": 6650,
      "çĸ¼çĹĽ": 6651,
      "æĹħæ¸¸": 6652,
      "å²Ĺä½į": 6653,
      "æĻºæħ§": 6654,
      "fan": 6655,
      "born": 6656,
      "speed": 6657,
      "man,": 6658,
      "placed": 6659,
      "Free": 6660,
      "çĤ¸": 6661,
      "å»·": 6662,
      "é¡ºåºı": 6663,
      "is.": 6664,
      "Good": 6665,
      "éĽķ": 6666,
      "camer": 6667,
      "ware": 6668,
      "æĮĩæĮ¥": 6669,
      "è½¬ç§»": 6670,
      "åıĺå¾Ĺ": 6671,
      "Micro": 6672,
      "me.": 6673,
      "å¤ļä¸ª": 6674,
      "James": 6675,
      "happy": 6676,
      "moving": 6677,
      "gradu": 6678,
      "æĥł": 6679,
      "olution": 6680,
      "favorite": 6681,
      "éĢĤçĶ¨": 6682,
      "green": 6683,
      "åħģè®¸": 6684,
      "display": 6685,
      "cru": 6686,
      "ç©·": 6687,
      "ç½²": 6688,
      "whose": 6689,
      "æ´»åĬ¨çļĦ": 6690,
      "ãĢĭçļĦ": 6691,
      "doesnâĢĻt": 6692,
      "limited": 6693,
      "è®¤å®ļ": 6694,
      "rael": 6695,
      "éªĹ": 6696,
      "player": 6697,
      "iqu": 6698,
      "Ter": 6699,
      "learning": 6700,
      "çī¢": 6701,
      "Ag": 6702,
      "å¾Īå¤§": 6703,
      "iff": 6704,
      "å¹¸ç¦ı": 6705,
      "éĢ»è¾ĳ": 6706,
      "involved": 6707,
      "åıįæĢĿ": 6708,
      "éĨĩ": 6709,
      "éªĳ": 6710,
      "èĤ¢": 6711,
      "è¯ķéªĮ": 6712,
      "Jap": 6713,
      "ï¼ĮéľĢè¦ģ": 6714,
      "bul": 6715,
      "è¯±": 6716,
      "books": 6717,
      "Manag": 6718,
      "æĬļåħ»": 6719,
      "çŃ¹": 6720,
      "ä¸ĸçķĮä¸Ĭ": 6721,
      "æ°ĳäºĭ": 6722,
      "ç¨Ģ": 6723,
      "Research": 6724,
      "ata": 6725,
      "çħ¤": 6726,
      "çĶŁåŃĺ": 6727,
      "kids": 6728,
      "federal": 6729,
      "Jul": 6730,
      "Mem": 6731,
      "ç¬¬ä¸Ģæ¬¡": 6732,
      "çĮ«": 6733,
      "ä¸ŃéĹ´": 6734,
      "åħ³èĬĤ": 6735,
      "p.m.": 6736,
      "æ¢¯": 6737,
      "ç§°âĢľ": 6738,
      "effic": 6739,
      "View": 6740,
      "events": 6741,
      "equip": 6742,
      "å©´": 6743,
      "antic": 6744,
      "ï¼Įä¸ŃåĽ½": 6745,
      "åħ»æĪĲ": 6746,
      "æĢ»æĺ¯": 6747,
      "åº¦çļĦ": 6748,
      "è´¡çĮ®": 6749,
      "æĬĢå·§": 6750,
      "________________": 6751,
      "bow": 6752,
      "æľīæľº": 6753,
      "æĹłè®º": 6754,
      "æĬķåħ¥": 6755,
      "å¾·åĽ½": 6756,
      "aste": 6757,
      "ume": 6758,
      "ern": 6759,
      "æľĢç»Ī": 6760,
      "dependent": 6761,
      "åĪĬ": 6762,
      "èī¯å¥½": 6763,
      "Israel": 6764,
      "åŁĥ": 6765,
      "å°ıçļĦ": 6766,
      "èĤª": 6767,
      "äºĶãĢģ": 6768,
      "å½ĵçĦ¶": 6769,
      "ç¤¾ä¼ļçļĦ": 6770,
      "thus": 6771,
      "released": 6772,
      "æµģç¨ĭ": 6773,
      "èī²çļĦ": 6774,
      "æľºåĻ¨": 6775,
      "çĶŁæĪĲ": 6776,
      "Thom": 6777,
      "èĢķ": 6778,
      "yourself": 6779,
      "è¯·æ±Ĥ": 6780,
      "saying": 6781,
      "Bus": 6782,
      "icles": 6783,
      "èħĬ": 6784,
      "ä¼ģä¸ļçļĦ": 6785,
      "appropri": 6786,
      "åĪ°çļĦ": 6787,
      "According": 6788,
      "æ®¿": 6789,
      "published": 6790,
      "starting": 6791,
      "CC": 6792,
      "policy": 6793,
      "èĦĤèĤª": 6794,
      "mg": 6795,
      "å¤«å¦»": 6796,
      "è¡¥åģ¿": 6797,
      "tried": 6798,
      "esĊ": 6799,
      "ï¼Įä¾¿": 6800,
      "Since": 6801,
      "Prof": 6802,
      "å®ª": 6803,
      "æī©å¤§": 6804,
      "Sub": 6805,
      "ãĢķ": 6806,
      "hous": 6807,
      "relig": 6808,
      "æ¡Į": 6809,
      "è¿ĺè¦ģ": 6810,
      "syn": 6811,
      "\"We": 6812,
      "åīª": 6813,
      "åĲįåŃĹ": 6814,
      "çķħ": 6815,
      "åıĺæĪĲ": 6816,
      "heat": 6817,
      "nearly": 6818,
      "News": 6819,
      "Green": 6820,
      "church": 6821,
      "........": 6822,
      "threat": 6823,
      "èĩ³å°ĳ": 6824,
      "èī²å½©": 6825,
      "ï¼Įä¸Ģä¸ª": 6826,
      "çº¤ç»´": 6827,
      "ç¨į": 6828,
      "distr": 6829,
      "åĪĽå»º": 6830,
      "commer": 6831,
      "rout": 6832,
      "influ": 6833,
      "ãĢĶ": 6834,
      "believ": 6835,
      "è®©åŃ¦çĶŁ": 6836,
      "ountain": 6837,
      "although": 6838,
      "global": 6839,
      "Del": 6840,
      "å½ĵåīį": 6841,
      "LO": 6842,
      "æģ°": 6843,
      "imum": 6844,
      "Mart": 6845,
      "send": 6846,
      "ampion": 6847,
      "èĥ½éĩı": 6848,
      "ustr": 6849,
      "preci": 6850,
      "åĲĮä¸Ģ": 6851,
      "rench": 6852,
      "åłĨ": 6853,
      "å¦ĩå¥³": 6854,
      "çī§": 6855,
      "éĢļä¿¡": 6856,
      "åŃĲå®«": 6857,
      "statement": 6858,
      "ãĢĤæľ¬": 6859,
      "ç§Ĵ": 6860,
      "canâĢĻt": 6861,
      "åĲ¦åĪĻ": 6862,
      "åĬ¨æľº": 6863,
      "åªĴä½ĵ": 6864,
      "frequ": 6865,
      "chan": 6866,
      "terms": 6867,
      "åĩºåı£": 6868,
      "ds": 6869,
      "æī¶": 6870,
      "Hel": 6871,
      "cm": 6872,
      "ä¼Ļ": 6873,
      "åĢ¡": 6874,
      "education": 6875,
      "çļĦä¸į": 6876,
      "attempt": 6877,
      "oul": 6878,
      "æ¯ıä¸Ģä¸ª": 6879,
      "Mor": 6880,
      "parents": 6881,
      "Austral": 6882,
      "SP": 6883,
      "çĶ¨æĿ¥": 6884,
      "æĸľ": 6885,
      "(I": 6886,
      "èĤ¯å®ļ": 6887,
      "æįķ": 6888,
      "bey": 6889,
      "amaz": 6890,
      "æĭĴ": 6891,
      "æłĳç«ĭ": 6892,
      "ä¹Ļæĸ¹": 6893,
      "SO": 6894,
      "èĲĦ": 6895,
      "å®ı": 6896,
      ")ãĢĤ": 6897,
      "åĦĴ": 6898,
      "çļĦæ°´": 6899,
      "advant": 6900,
      "æĬ¼": 6901,
      "å¹²éĥ¨": 6902,
      "åıĳæĺİ": 6903,
      "utions": 6904,
      "huge": 6905,
      "çĨŁæĤī": 6906,
      "è¿Ļä¹Ī": 6907,
      "è¶ĭåĬ¿": 6908,
      "bag": 6909,
      "bound": 6910,
      "ãĢĤä¾ĭå¦Ĥ": 6911,
      "mas": 6912,
      "å¼¯": 6913,
      "æĺİçĻ½": 6914,
      "dire": 6915,
      "çİ»": 6916,
      "å½¢å®¹": 6917,
      "prevent": 6918,
      "tick": 6919,
      "Other": 6920,
      "çĵ¶": 6921,
      "ï¼Įå¿ħé¡»": 6922,
      "èĳ¡èĲĦ": 6923,
      "havi": 6924,
      "åĲĹï¼ŁĊ": 6925,
      "éĶĭ": 6926,
      "rop": 6927,
      "d.": 6928,
      "Face": 6929,
      "ä¸²": 6930,
      "æĥľ": 6931,
      "åĮ¹": 6932,
      "ç¢±": 6933,
      "âĢķ": 6934,
      "çĥ¦": 6935,
      "-year-old": 6936,
      "Chin": 6937,
      "ION": 6938,
      "mist": 6939,
      "demon": 6940,
      "éĤ»": 6941,
      "paid": 6942,
      "éĥĳ": 6943,
      "normal": 6944,
      "ç¢İ": 6945,
      "brand": 6946,
      "çĶŁæ´»çļĦ": 6947,
      "formed": 6948,
      "self-": 6949,
      "eight": 6950,
      "boy": 6951,
      "Cur": 6952,
      "ç¥Ŀ": 6953,
      "standing": 6954,
      "ãĢĤéĢļè¿ĩ": 6955,
      "éŁµ": 6956,
      "lines": 6957,
      "unique": 6958,
      "åĩºè¡Ģ": 6959,
      "ç¬¬åįģ": 6960,
      "ï¼ĮåĪ°": 6961,
      "spent": 6962,
      "è¯ĹæŃĮ": 6963,
      "Mag": 6964,
      "è¯µ": 6965,
      "encour": 6966,
      "åĪĨäº«": 6967,
      "feet": 6968,
      "æŃ£ç¡®çļĦ": 6969,
      "activities": 6970,
      "sec": 6971,
      "æĴ¤": 6972,
      "ç¬¬ä¸Ģä¸ª": 6973,
      "ï¼Įä¸įä»ħ": 6974,
      "åıĳå¸ĥ": 6975,
      ".org": 6976,
      "âĢľWe": 6977,
      "æĬ¢": 6978,
      "military": 6979,
      "on-": 6980,
      "åĮĸï¼Į": 6981,
      "Although": 6982,
      "ä¼Ĳ": 6983,
      "serve": 6984,
      "èĤ¿çĺ¤": 6985,
      "ä¼¤å®³": 6986,
      "recommend": 6987,
      "æ¯ģ": 6988,
      "å®¾": 6989,
      "drink": 6990,
      "DA": 6991,
      "announced": 6992,
      "å¤¹": 6993,
      "dark": 6994,
      "aware": 6995,
      "bio": 6996,
      "æīĢæľīçļĦ": 6997,
      "æĬĳåĪ¶": 6998,
      "Rom": 6999,
      "acqu": 7000,
      "è±ª": 7001,
      "âĢĿï¼Ī": 7002,
      "verse": 7003,
      "fee": 7004,
      "æľīä»Ģä¹Ī": 7005,
      "igr": 7006,
      "æĲŃ": 7007,
      "éķ¿ï¼Į": 7008,
      "Miss": 7009,
      "-to-": 7010,
      "guy": 7011,
      "çĽ¸æ¯Ķ": 7012,
      "èľĤ": 7013,
      "unk": 7014,
      "å¸¸å¸¸": 7015,
      "çĶŁæ´»ä¸Ń": 7016,
      "age.": 7017,
      "äººå·¥": 7018,
      "London": 7019,
      "æľµ": 7020,
      "äº§çĶŁçļĦ": 7021,
      "åıĳè¡¨": 7022,
      "enced": 7023,
      "stream": 7024,
      "èµĦæł¼": 7025,
      "reng": 7026,
      "solution": 7027,
      "éĢĶå¾Ħ": 7028,
      "ender": 7029,
      "çĪ·": 7030,
      "ä½ľåĩº": 7031,
      "åĽ¢éĺŁ": 7032,
      "users": 7033,
      "binary": 7034,
      "Review": 7035,
      "mobile": 7036,
      "opin": 7037,
      "å¹³æĹ¶": 7038,
      "åıįå¤į": 7039,
      "çļĦæķĻåŃ¦": 7040,
      "éģµå®Ī": 7041,
      "FIG": 7042,
      "Saturday": 7043,
      "æľĢå¥½": 7044,
      "æıĲä¾ĽäºĨ": 7045,
      "èĴĻåı¤": 7046,
      "ä¸īåįģ": 7047,
      "åĽĽä¸ª": 7048,
      "çļĦè¿ĩç¨ĭ": 7049,
      "éĨī": 7050,
      "college": 7051,
      "themselves": 7052,
      "åı¥è¯Ŀ": 7053,
      "prin": 7054,
      "å°½ç®¡": 7055,
      "çĩ¥": 7056,
      "çļĦåİĨåı²": 7057,
      "è§£æĶ¾": 7058,
      "insur": 7059,
      "Many": 7060,
      "åŃĶåŃĲ": 7061,
      "mill": 7062,
      "ä¸ĭè½½": 7063,
      "ä»£çłģ": 7064,
      "å½ĵåľ°": 7065,
      "æĮĩåĩº": 7066,
      "è§£éĻ¤": 7067,
      "systems": 7068,
      "ana": 7069,
      "éĥ½è¦ģ": 7070,
      "åıĤæķ°": 7071,
      "èģĮè´£": 7072,
      "æī¹åĩĨ": 7073,
      "tho": 7074,
      "arily": 7075,
      "venue": 7076,
      "weekend": 7077,
      "SS": 7078,
      "maybe": 7079,
      "Gover": 7080,
      "wind": 7081,
      "BI": 7082,
      "æ£ĢéªĮ": 7083,
      "ï¼Įåıªæľī": 7084,
      "âĳ£": 7085,
      "saf": 7086,
      "BãĢģ": 7087,
      "sales": 7088,
      "éĤ®": 7089,
      "ç»ĨèıĮ": 7090,
      "Spr": 7091,
      "reve": 7092,
      "son,": 7093,
      "ingĊ": 7094,
      "challeng": 7095,
      "nature": 7096,
      "hab": 7097,
      "enge": 7098,
      "copy": 7099,
      "ä¸īï¼ī": 7100,
      "ãĢģæ°´": 7101,
      "æĪĲå°±": 7102,
      "äºĭçī©": 7103,
      "lies": 7104,
      "DNA": 7105,
      "sis": 7106,
      "ä¸ĵéĹ¨": 7107,
      "åľ¨ä¸Ģèµ·": 7108,
      "Tim": 7109,
      "listen": 7110,
      "åħ¬æ°ĳ": 7111,
      "å¼ºåĮĸ": 7112,
      "çļĦå¥½": 7113,
      "åĲĪæł¼": 7114,
      "èµł": 7115,
      "beat": 7116,
      "stain": 7117,
      "æıĲç¤º": 7118,
      "ester": 7119,
      "surface": 7120,
      "çļĦçī¹çĤ¹": 7121,
      "ç¤¾åĮº": 7122,
      "strate": 7123,
      "åĨĽéĺŁ": 7124,
      "ronic": 7125,
      "ï¼Įä¸Ĭ": 7126,
      "äºĮæĺ¯": 7127,
      "General": 7128,
      "èµ·æĿ¥ï¼Į": 7129,
      "ä¸Ģæĸ¹": 7130,
      "æľŁéĻĲ": 7131,
      "ãĢĤå¯¹äºİ": 7132,
      "åįıåķĨ": 7133,
      "äºĴçĽ¸": 7134,
      "AND": 7135,
      "åĲĪæ³ķ": 7136,
      "ãĢĤä¸į": 7137,
      "çĦĬ": 7138,
      "åħĶ": 7139,
      "ming": 7140,
      "teen": 7141,
      "åĪĿæŃ¥": 7142,
      "ment.": 7143,
      "æĬ¤çĲĨ": 7144,
      "æ·ĭ": 7145,
      "è®¯": 7146,
      "çĴĥ": 7147,
      "positive": 7148,
      "OF": 7149,
      "Sk": 7150,
      "mi": 7151,
      "æĿĥçĽĬ": 7152,
      "title": 7153,
      "å½¼": 7154,
      "apter": 7155,
      "ays": 7156,
      "æĶ¶éĽĨ": 7157,
      "Class": 7158,
      "çļĦç¤¾ä¼ļ": 7159,
      "è´¢æĶ¿": 7160,
      "reser": 7161,
      "çĶŁçĲĨ": 7162,
      "æĢª": 7163,
      "ï¼Įç»Ļ": 7164,
      "Mid": 7165,
      "F.": 7166,
      "hur": 7167,
      "Sunday": 7168,
      "ç°": 7169,
      "complex": 7170,
      "ï¼Įä¸įæĸŃ": 7171,
      "plat": 7172,
      "vey": 7173,
      "ries": 7174,
      "æ¯ıå¹´": 7175,
      "spot": 7176,
      "ç»ĦåĲĪ": 7177,
      "åŃ¦èĢħ": 7178,
      "gree": 7179,
      "çļĦæĹ¶åĢĻï¼Į": 7180,
      "accom": 7181,
      "èģĶç½ĳ": 7182,
      "ç§°ä¸ºâĢľ": 7183,
      "rom": 7184,
      "EL": 7185,
      "Cong": 7186,
      "UK": 7187,
      "å¤ĸçļĦ": 7188,
      "ä»ĵ": 7189,
      "åīįï¼Į": 7190,
      "çŃĭ": 7191,
      "åĺ´": 7192,
      "ä»Ķ": 7193,
      "co-": 7194,
      "cise": 7195,
      "å®ħ": 7196,
      "æĵ¦": 7197,
      "æľīçĿĢ": 7198,
      "æ·»åĬł": 7199,
      "plans": 7200,
      "æı´": 7201,
      "æŃ¥éª¤": 7202,
      "ãĢĤæł¹æį®": 7203,
      "\".": 7204,
      "pressure": 7205,
      "described": 7206,
      "temper": 7207,
      "å¤±åİ»": 7208,
      "äº¤æį¢": 7209,
      "organiz": 7210,
      "organization": 7211,
      "æĪª": 7212,
      "particularly": 7213,
      "ä¸īå¹´": 7214,
      "Indian": 7215,
      "ï¼ĮæľīçļĦ": 7216,
      "ç§ĳåŃ¦å®¶": 7217,
      "åŃĺåĤ¨": 7218,
      "quickly": 7219,
      "implement": 7220,
      "æīĭæľº": 7221,
      "ãĢģä¸Ń": 7222,
      "neigh": 7223,
      "çĽ´åĪ°": 7224,
      "æĬĬæı¡": 7225,
      "æĤ¬": 7226,
      "Christian": 7227,
      "isl": 7228,
      "å¤©çļĦ": 7229,
      "career": 7230,
      "uth": 7231,
      "åĬŀåħ¬": 7232,
      "save": 7233,
      "finally": 7234,
      "Group": 7235,
      "s)": 7236,
      "èµ·ï¼Į": 7237,
      "ence,": 7238,
      "çĽ®å½ķ": 7239,
      "Church": 7240,
      "pread": 7241,
      "åı¸æ³ķ": 7242,
      "èī°": 7243,
      "ç¡®è®¤": 7244,
      "beginning": 7245,
      "æľ¬è´¨": 7246,
      "å¼ºçĥĪ": 7247,
      "interesting": 7248,
      "ava": 7249,
      "çĶµæºĲ": 7250,
      "é©±åĬ¨": 7251,
      "ï¼Įåħ·æľī": 7252,
      "åĽ½å®¶çļĦ": 7253,
      "å°ĳæķ°": 7254,
      "æī©å±ķ": 7255,
      "éī´å®ļ": 7256,
      "Tri": 7257,
      "ï¼Įçľĭ": 7258,
      "ald": 7259,
      "ä¸įå¤Ł": 7260,
      "Home": 7261,
      "high-": 7262,
      "æµ·æ´ĭ": 7263,
      "disease": 7264,
      "gives": 7265,
      "æĳĺ": 7266,
      "IL": 7267,
      "Japan": 7268,
      "dete": 7269,
      "å·¥ä¼¤": 7270,
      "è¿Ŀæ³ķ": 7271,
      "nut": 7272,
      "Star": 7273,
      "considered": 7274,
      "åº¦ï¼Į": 7275,
      "æħ¢æĢ§": 7276,
      "allows": 7277,
      "years.": 7278,
      "Big": 7279,
      "æıŃ": 7280,
      "(and": 7281,
      "åħ±äº§åħļ": 7282,
      "å®ŀéĻħä¸Ĭ": 7283,
      "stic": 7284,
      "æĺ¯å¯¹": 7285,
      "æłı": 7286,
      "åºĶæĢ¥": 7287,
      "åıĶ": 7288,
      "Sur": 7289,
      "bol": 7290,
      "Who": 7291,
      "ãĢģå°ı": 7292,
      "æĿ°": 7293,
      "boo": 7294,
      "billion": 7295,
      "åºĻ": 7296,
      "çĤ®": 7297,
      "kept": 7298,
      "çģµæ´»": 7299,
      "æľºåĬ¨è½¦": 7300,
      "mitted": 7301,
      "Mer": 7302,
      "åıĳçĹħ": 7303,
      "ote": 7304,
      "fortun": 7305,
      "ä¸ªä½ĵ": 7306,
      "ï¼Įåıªè¦ģ": 7307,
      "æĺ¯æľĢ": 7308,
      "çĪ¸çĪ¸": 7309,
      "max": 7310,
      "çŃīçŃī": 7311,
      "impress": 7312,
      "å¤§ä¼ļ": 7313,
      "named": 7314,
      "PD": 7315,
      "message": 7316,
      "é¢ĺçĽ®": 7317,
      "avoid": 7318,
      "Play": 7319,
      "regul": 7320,
      "ç¾İåħĥ": 7321,
      "åĲįãĢĤ": 7322,
      "é¥±": 7323,
      "location": 7324,
      "Jer": 7325,
      "åŃ¦æľ¯": 7326,
      "Smith": 7327,
      "èµ¶": 7328,
      "one.": 7329,
      "æĲŀ": 7330,
      "us.": 7331,
      "å¼Ħ": 7332,
      "extreme": 7333,
      "ç©´": 7334,
      "éĥİ": 7335,
      "ï¼ĪäºĮï¼ī": 7336,
      "ï¼ĮåĲĦ": 7337,
      "farm": 7338,
      "valu": 7339,
      "åľºæīĢ": 7340,
      "download": 7341,
      "äºĪä»¥": 7342,
      "çļĦæķĻèĤ²": 7343,
      "HT": 7344,
      "easily": 7345,
      "æĢ§æł¼": 7346,
      "neg": 7347,
      "Photo": 7348,
      "PR": 7349,
      "award": 7350,
      "California": 7351,
      "Bay": 7352,
      "attention": 7353,
      "PA": 7354,
      "åīĳ": 7355,
      "(C": 7356,
      "course,": 7357,
      "multiple": 7358,
      "åħ¬åı¸çļĦ": 7359,
      "sett": 7360,
      "èĢģå¹´": 7361,
      "streng": 7362,
      "birth": 7363,
      "è¯¾é¢ĺ": 7364,
      "nu": 7365,
      "daughter": 7366,
      "BA": 7367,
      "liter": 7368,
      "bottom": 7369,
      "ï¼Įé«ĺ": 7370,
      "æ¸Ĺ": 7371,
      "Vir": 7372,
      "them,": 7373,
      "ä¸ŃãĢĤ": 7374,
      "actions": 7375,
      "enty": 7376,
      "annel": 7377,
      "fish": 7378,
      "successful": 7379,
      "sometimes": 7380,
      "rank": 7381,
      "eat": 7382,
      "èĤ¡ç¥¨": 7383,
      "Oct": 7384,
      "ï¼ļåľ¨": 7385,
      "åĪĳäºĭ": 7386,
      "æĺ¯æľī": 7387,
      "patter": 7388,
      "ãĢģåľ¨": 7389,
      "UT": 7390,
      "ç¡ķ": 7391,
      "åħ¬å®ī": 7392,
      "æķħéļľ": 7393,
      "Super": 7394,
      "ä¸¾è¡Į": 7395,
      "æ¯Ķåĸ»": 7396,
      "year.": 7397,
      "å£³": 7398,
      "iced": 7399,
      "æĳĩ": 7400,
      "ju": 7401,
      "Sto": 7402,
      "ï¼ĮæĪĲä¸º": 7403,
      "ç¦»å¼Ģ": 7404,
      "ico": 7405,
      "wants": 7406,
      "Mary": 7407,
      "){": 7408,
      "å¤§åŃ¦çĶŁ": 7409,
      "Pet": 7410,
      "çī©åĵģ": 7411,
      "physical": 7412,
      "trust": 7413,
      "åĲ¨": 7414,
      "åĬĽãĢĤ": 7415,
      "atives": 7416,
      "out,": 7417,
      "çļĦè¡Įä¸º": 7418,
      "è¸ı": 7419,
      "éķ¿çļĦ": 7420,
      "æĽ´å¥½": 7421,
      "fat": 7422,
      "çļĦçŁ¥è¯Ĩ": 7423,
      "ï¼Įä¹Łå°±æĺ¯": 7424,
      "æŀª": 7425,
      "èĩªæ²»": 7426,
      "åĺī": 7427,
      "choice": 7428,
      "ç¿»è¯ĳ": 7429,
      "ML": 7430,
      "ä¼łè¾ĵ": 7431,
      "äºĭé¡¹": 7432,
      "åĬ¨æĢģ": 7433,
      "è½¬åĮĸ": 7434,
      "éĽĨåĽ¢": 7435,
      "gold": 7436,
      "lives": 7437,
      "çļĦåŃ¦çĶŁ": 7438,
      "'d": 7439,
      "çº¢èī²": 7440,
      "rol": 7441,
      "allowed": 7442,
      "stick": 7443,
      "ville": 7444,
      "ç¾İçļĦ": 7445,
      "Board": 7446,
      "éĶģ": 7447,
      "èĬ¯": 7448,
      "fem": 7449,
      "rap": 7450,
      "åī©": 7451,
      "states": 7452,
      "æĹ¨": 7453,
      "ç´§å¼ł": 7454,
      "éĹ²": 7455,
      "ä»£è°¢": 7456,
      "hands": 7457,
      "thous": 7458,
      "Because": 7459,
      "ope": 7460,
      "æ³ķãĢģ": 7461,
      "çªģçĦ¶": 7462,
      "åħĦ": 7463,
      "å§ĭç»Ī": 7464,
      "æ¬¡ï¼Į": 7465,
      "ties": 7466,
      "consum": 7467,
      "ä¸Ĭåįĩ": 7468,
      "è½¬æį¢": 7469,
      "ä¾ĽåºĶ": 7470,
      "å¿ħçĦ¶": 7471,
      "surv": 7472,
      "æŁ¥çľĭ": 7473,
      "èľľ": 7474,
      "ç§įç±»": 7475,
      "relative": 7476,
      "trade": 7477,
      "æĽ¹æĵį": 7478,
      "è¦ģæ³¨æĦı": 7479,
      "George": 7480,
      "åıĳå±ķï¼Į": 7481,
      "Loc": 7482,
      "yn": 7483,
      "warm": 7484,
      "èī¾": 7485,
      "behavi": 7486,
      "IR": 7487,
      "çĥĤ": 7488,
      "åı¯èĥ½æĺ¯": 7489,
      "æ··åĲĪ": 7490,
      "å¸ĪçĶŁ": 7491,
      "Em": 7492,
      "finish": 7493,
      "completely": 7494,
      "Company": 7495,
      "groups": 7496,
      "certainly": 7497,
      "ä¸»ç®¡": 7498,
      "å¼¦": 7499,
      "ady": 7500,
      "instit": 7501,
      "å»ī": 7502,
      "Wil": 7503,
      "double": 7504,
      "iar": 7505,
      "åĨ³çŃĸ": 7506,
      "complet": 7507,
      "carry": 7508,
      "associated": 7509,
      "çŃ¾è®¢": 7510,
      "åľŁå£¤": 7511,
      "åħ¬éĩĮ": 7512,
      "Council": 7513,
      "çĶ²æĸ¹": 7514,
      "å®ĹæķĻ": 7515,
      "undred": 7516,
      "modern": 7517,
      "åĩºçĶŁ": 7518,
      "N.": 7519,
      "åģľæŃ¢": 7520,
      "åĵ²åŃ¦": 7521,
      "middle": 7522,
      "æĪĴ": 7523,
      "album": 7524,
      "Year": 7525,
      "analy": 7526,
      "Instit": 7527,
      "ä¼ĳæģ¯": 7528,
      "âĢĿæĺ¯": 7529,
      "åĨħï¼Į": 7530,
      "cum": 7531,
      "capt": 7532,
      "talking": 7533,
      "straight": 7534,
      "Facebook": 7535,
      "obtain": 7536,
      "ç¡«": 7537,
      "èĪĮ": 7538,
      "ic,": 7539,
      "æľįåĬ¡åĻ¨": 7540,
      "çļĦäºĭæĥħ": 7541,
      "å®¶çļĦ": 7542,
      "Flor": 7543,
      "Bill": 7544,
      "è¾ĵåĩº": 7545,
      "ä»¤äºº": 7546,
      "excell": 7547,
      "olf": 7548,
      "ä»¥æĿ¥": 7549,
      "ç¯®": 7550,
      "catch": 7551,
      "æĻ¨": 7552,
      "Top": 7553,
      "çİ»çĴĥ": 7554,
      "åı°æ¹¾": 7555,
      "W.": 7556,
      "èĤ©": 7557,
      "ä»¥ä¸º": 7558,
      "èĬ½": 7559,
      "throw": 7560,
      "å¤©çĦ¶": 7561,
      "Lou": 7562,
      "trip": 7563,
      "åĲĪæĪĲ": 7564,
      "æĥħåĨµï¼Į": 7565,
      "Time": 7566,
      "window": 7567,
      "psy": 7568,
      "you,": 7569,
      "thinking": 7570,
      "choose": 7571,
      "è§£æŀĲ": 7572,
      "controll": 7573,
      "b.": 7574,
      "å¾Īéļ¾": 7575,
      "Ret": 7576,
      "è¯įè¯Ń": 7577,
      "he's": 7578,
      "ero": 7579,
      "æŀĦå»º": 7580,
      "tor": 7581,
      "æºª": 7582,
      "éģĵï¼Į": 7583,
      "Mil": 7584,
      "Apple": 7585,
      "æĽ¾ç»ı": 7586,
      "wait": 7587,
      "åĽ¾åĥı": 7588,
      "hus": 7589,
      "suffer": 7590,
      "HO": 7591,
      "è¾½": 7592,
      "å¸¸è§Ħ": 7593,
      "ç¾İæľ¯": 7594,
      "ä¸ĺ": 7595,
      "æĸ¼": 7596,
      "Bank": 7597,
      "èģĺ": 7598,
      "é«ĺæł¡": 7599,
      "åħ³å¿ĥ": 7600,
      "up,": 7601,
      "æ¬£èµı": 7602,
      "åŃĲãĢĤ": 7603,
      "BS": 7604,
      "iel": 7605,
      "parts": 7606,
      "ule": 7607,
      "iving": 7608,
      "in-": 7609,
      "autom": 7610,
      "ä»²è£ģ": 7611,
      "å¤ļå¹´": 7612,
      "increased": 7613,
      "ãĢĤè¿Ļæł·": 7614,
      "éĥ¨çļĦ": 7615,
      "ights": 7616,
      "providing": 7617,
      "æ£®æŀĹ": 7618,
      "degree": 7619,
      "äºŃ": 7620,
      "scient": 7621,
      "now,": 7622,
      "åıĳè¾¾": 7623,
      "Port": 7624,
      "åİħ": 7625,
      "éĩĮéĿ¢": 7626,
      "åĢ¼å¾Ĺ": 7627,
      "Def": 7628,
      "ä¸ĬãĢĤ": 7629,
      "è®¾ç«ĭ": 7630,
      "European": 7631,
      "ä¼łæŁĵ": 7632,
      "äº«åıĹ": 7633,
      "Monday": 7634,
      "éĹª": 7635,
      "ãĢĭï¼Ī": 7636,
      "candid": 7637,
      "éĥ½ä¸į": 7638,
      "ä¸ĢåĲį": 7639,
      "scr": 7640,
      "sites": 7641,
      "æ¸ł": 7642,
      "fans": 7643,
      "inch": 7644,
      "å¤§éĩıçļĦ": 7645,
      "è¢ĭ": 7646,
      "session": 7647,
      "Rock": 7648,
      "è¦ģæľī": 7649,
      "è©": 7650,
      "omen": 7651,
      "ç»´æĮģ": 7652,
      "cel": 7653,
      "æ³ķå®ļ": 7654,
      "construction": 7655,
      "budget": 7656,
      "åĪĨï¼Į": 7657,
      "lied": 7658,
      "stage": 7659,
      "za": 7660,
      "aker": 7661,
      "ç§ĳçłĶ": 7662,
      "çĶľ": 7663,
      "bs": 7664,
      "åľ°éľĩ": 7665,
      "æĺ¯ä»¥": 7666,
      "Mal": 7667,
      "Program": 7668,
      "å¹½": 7669,
      "d,": 7670,
      "cases": 7671,
      "CãĢģ": 7672,
      "capital": 7673,
      "ry,": 7674,
      "Service": 7675,
      "reflect": 7676,
      "].": 7677,
      "åĪĩï¼ĮðłĢ¤": 7678,
      "å¤ļæł·": 7679,
      "Lu": 7680,
      "highly": 7681,
      "poor": 7682,
      "äºĭï¼Į": 7683,
      "difference": 7684,
      "ç®ĢåįķçļĦ": 7685,
      "lam": 7686,
      "ofĊ": 7687,
      "directly": 7688,
      "åŃĲãĢģ": 7689,
      "developed": 7690,
      "ä¸»å¼ł": 7691,
      "çĶµåİĭ": 7692,
      "itely": 7693,
      "micro": 7694,
      "Great": 7695,
      "PT": 7696,
      "ç»Ŀå¯¹": 7697,
      "ensure": 7698,
      "ç¼´çº³": 7699,
      "Att": 7700,
      "EM": 7701,
      "People": 7702,
      "Ty": 7703,
      "chair": 7704,
      "æ±ģ": 7705,
      "duc": 7706,
      "æĺ¾èĳĹ": 7707,
      "é¥²": 7708,
      "hospital": 7709,
      "çĳŀ": 7710,
      "figure": 7711,
      "Two": 7712,
      "æĶ¹è¿Ľ": 7713,
      "æĸ¹éĿ¢ï¼Į": 7714,
      "âĺ": 7715,
      "Open": 7716,
      "ãĤ": 7717,
      "ad,": 7718,
      "å·¢": 7719,
      "lie": 7720,
      "Angel": 7721,
      "GB": 7722,
      "æµĻ": 7723,
      "å¸¸è§ģçļĦ": 7724,
      "variety": 7725,
      "wife": 7726,
      "æĨ": 7727,
      "inated": 7728,
      "è¯ģä¹¦": 7729,
      "å¥Ķ": 7730,
      "åĲĦç±»": 7731,
      "parent": 7732,
      "unit": 7733,
      "medic": 7734,
      "æĽ´å¤ļçļĦ": 7735,
      "è´¤": 7736,
      "numbers": 7737,
      "ï¼Įä¿ĥè¿Ľ": 7738,
      "å¤§åĪ©": 7739,
      "çī©ä½ĵ": 7740,
      "åĵģè´¨": 7741,
      "Met": 7742,
      "çĸĨ": 7743,
      "ä¿ĿåŃĺ": 7744,
      "Ann": 7745,
      "Once": 7746,
      "Gold": 7747,
      "ï¼ĮåŁ¹åħ»": 7748,
      "è¢Ń": 7749,
      "èİ·åıĸ": 7750,
      "èĳ¬": 7751,
      "ae": 7752,
      "ãĢĤâĢĶâĢĶ": 7753,
      "scen": 7754,
      "å¿į": 7755,
      "å¹»": 7756,
      "æľ¬äºº": 7757,
      "æĸ°éĹ»": 7758,
      "æį·": 7759,
      "XX": 7760,
      "measure": 7761,
      "æĸĩçĮ®": 7762,
      "æĿĥçļĦ": 7763,
      "çĭ¬çī¹": 7764,
      "ï¼Įæł¹æį®": 7765,
      "arden": 7766,
      "è½¬åıĺ": 7767,
      "éĵº": 7768,
      "agree": 7769,
      "åĪł": 7770,
      "ips": 7771,
      "æµģåĬ¨": 7772,
      "Jes": 7773,
      "èį¡": 7774,
      "å°ıæľĭåıĭ": 7775,
      "ously": 7776,
      "dollar": 7777,
      "Pri": 7778,
      "forms": 7779,
      "oted": 7780,
      "çĶµæµģ": 7781,
      "street": 7782,
      "èĦ¾": 7783,
      "blue": 7784,
      "growing": 7785,
      "åĬĽãĢģ": 7786,
      "èĤĥ": 7787,
      "beyond": 7788,
      "åĩºåıĳ": 7789,
      "ãĢĭãĢĬ": 7790,
      "åħ»èĢģ": 7791,
      "çļĦä¸ľè¥¿": 7792,
      "æĴŀ": 7793,
      "spend": 7794,
      "compon": 7795,
      "æĮĸ": 7796,
      "restaur": 7797,
      "isn't": 7798,
      "æĥħèĬĤ": 7799,
      "çĸ²": 7800,
      "bing": 7801,
      "è¯ŀ": 7802,
      "æ°Ķä½ĵ": 7803,
      "ä¸°å¯ĮçļĦ": 7804,
      "Journal": 7805,
      "this.": 7806,
      "aly": 7807,
      "frame": 7808,
      "å¸ĿåĽ½": 7809,
      "conference": 7810,
      "è¾Ī": 7811,
      "ä¸įåĨį": 7812,
      "å§Ĳ": 7813,
      "oph": 7814,
      "decl": 7815,
      "analysis": 7816,
      "@example": 7817,
      "Thanks": 7818,
      "ä¸īè§Ĵ": 7819,
      "éĴ»": 7820,
      "die": 7821,
      "programs": 7822,
      "uce": 7823,
      "çİĦ": 7824,
      "NY": 7825,
      "comments": 7826,
      "exactly": 7827,
      "å±ħä½ı": 7828,
      "Robert": 7829,
      "è¿Ŀåıį": 7830,
      "åĪ¤åĨ³": 7831,
      "åħ¨ä½ĵ": 7832,
      "dated": 7833,
      "åıĳåĩº": 7834,
      "ç½ĳç«Ļ": 7835,
      "æĽ¼": 7836,
      "customers": 7837,
      "ä»¥ä¸ĬçļĦ": 7838,
      "æĦıåĳ³": 7839,
      "åĨįæ¬¡": 7840,
      "å¯ĨåĪĩ": 7841,
      "ãĢĳĊ": 7842,
      "benefit": 7843,
      "purpose": 7844,
      "ç¡¬çĽĺ": 7845,
      "sets": 7846,
      "è¬": 7847,
      "é¢Ħæµĭ": 7848,
      "è¾ī": 7849,
      "ç¦ģæŃ¢": 7850,
      "lots": 7851,
      "roy": 7852,
      "pitch": 7853,
      "ç¥¥": 7854,
      "âĢĿåĴĮâĢľ": 7855,
      "rit": 7856,
      "è®¿éĹ®": 7857,
      "pow": 7858,
      "resist": 7859,
      "éĹ®é¢ĺãĢĤ": 7860,
      "floor": 7861,
      "éĩįå¤į": 7862,
      "China": 7863,
      "ä½¿çĶ¨çļĦ": 7864,
      "èĩ³ä»Ĭ": 7865,
      "towards": 7866,
      "sto": 7867,
      "Well,": 7868,
      "çħ®": 7869,
      "æ¬ł": 7870,
      "vote": 7871,
      "åį§": 7872,
      "å±ķå¼Ģ": 7873,
      "æįŁä¼¤": 7874,
      "empor": 7875,
      "interested": 7876,
      "strict": 7877,
      "æĳ¸": 7878,
      "ä½İäºİ": 7879,
      "FL": 7880,
      "appropriate": 7881,
      "re-": 7882,
      "details": 7883,
      "bes": 7884,
      "åĬ©äºİ": 7885,
      "åµ": 7886,
      "skin": 7887,
      "å®¤åĨħ": 7888,
      "æĸĹäºī": 7889,
      "ä½ĵåĪ¶": 7890,
      "eyes": 7891,
      "Russ": 7892,
      "ä¸Ģæ®µ": 7893,
      "Rel": 7894,
      "åħĭï¼Į": 7895,
      "åĲ«ä¹ī": 7896,
      "Bre": 7897,
      "Bel": 7898,
      "çĭĤ": 7899,
      "ç£·": 7900,
      "è¿Ľç¨ĭ": 7901,
      "æľīåĵªäºĽ": 7902,
      "åħ¬åħĥåīį": 7903,
      "å°ĨåĨĽ": 7904,
      "çļĦæĢĿæĥ³": 7905,
      "ä¼ĺåĮĸ": 7906,
      "ï¼ĮæĪĳåĽ½": 7907,
      "æ²³åįĹ": 7908,
      "æ¤İ": 7909,
      "digital": 7910,
      "picture": 7911,
      "hib": 7912,
      "portion": 7913,
      "died": 7914,
      "Hum": 7915,
      "edge": 7916,
      "å·©": 7917,
      "annual": 7918,
      "husband": 7919,
      "guest": 7920,
      "ï¼ĮæĹ¢": 7921,
      "levels": 7922,
      "writ": 7923,
      "limit": 7924,
      "æ°¸è¿ľ": 7925,
      "é£ŁçĶ¨": 7926,
      "ä¹ĭä¸ĢãĢĤ": 7927,
      "dream": 7928,
      "æłª": 7929,
      "atever": 7930,
      "hundred": 7931,
      "out.": 7932,
      "Office": 7933,
      "åĬłä»¥": 7934,
      "transfer": 7935,
      "èĩ³äºİ": 7936,
      "British": 7937,
      "ï¼ļä¸Ģ": 7938,
      "rupt": 7939,
      "greater": 7940,
      "language": 7941,
      "çģ«çģ¾": 7942,
      "çļĦåıĺåĮĸ": 7943,
      "sleep": 7944,
      "ube": 7945,
      "åĵģç§į": 7946,
      "ç¼Ŀ": 7947,
      "strateg": 7948,
      "increasing": 7949,
      "åģļåĩº": 7950,
      "Ver": 7951,
      "Democr": 7952,
      "Hist": 7953,
      "(S": 7954,
      "å°±è¦ģ": 7955,
      "DO": 7956,
      "Click": 7957,
      "IF": 7958,
      "ï¼Įæīį": 7959,
      "æľīâĢľ": 7960,
      "Texas": 7961,
      "%çļĦ": 7962,
      "brain": 7963,
      "switch": 7964,
      "client": 7965,
      "æĮĳæĪĺ": 7966,
      "åİĺç±³": 7967,
      "æµ¸": 7968,
      "çŃīçº§": 7969,
      "solute": 7970,
      "å±±ä¸ľ": 7971,
      "éĢīé¡¹": 7972,
      "progress": 7973,
      "server": 7974,
      "voice": 7975,
      "åĴ¨è¯¢Ċ": 7976,
      "èįĴ": 7977,
      "åĲ¸å¼ķ": 7978,
      "Fil": 7979,
      "å¯¹åºĶ": 7980,
      "å±Ģéĥ¨": 7981,
      "å°Ŀè¯ķ": 7982,
      "èĥľåĪ©": 7983,
      "ï¼Įè¯¥": 7984,
      "æľĪç»ı": 7985,
      "loved": 7986,
      "Lab": 7987,
      "æ¡Ĥ": 7988,
      "åĲ¾": 7989,
      "ç½Ĺæĸ¯": 7990,
      "berg": 7991,
      "çģĮ": 7992,
      "direction": 7993,
      "åĨ»": 7994,
      "Business": 7995,
      "rief": 7996,
      "è®©æĪĳä»¬": 7997,
      "åĽ¾å½¢": 7998,
      "æĪ¿äº§": 7999,
      "opening": 8000,
      "å¿ĥèĦı": 8001,
      "å¾Īå¿«": 8002,
      "feeling": 8003,
      "ãĢĤä¸ĢèĪ¬": 8004,
      "ãĢĤä¸º": 8005,
      "åį±æľº": 8006,
      "rat": 8007,
      "Fol": 8008,
      "æ³Ħ": 8009,
      "å¾Īå¤§çļĦ": 8010,
      "å¹´ï¼ī": 8011,
      "hest": 8012,
      "exer": 8013,
      "crow": 8014,
      "ii": 8015,
      "NE": 8016,
      "æıĲåīį": 8017,
      "æİ¥åı£": 8018,
      "ï¼Įä¸ºäºĨ": 8019,
      "è§Ĩé¢ĳ": 8020,
      "çī©ï¼Į": 8021,
      "è¯´çļĦ": 8022,
      "wear": 8023,
      "æĭĨ": 8024,
      "daily": 8025,
      "plus": 8026,
      "commercial": 8027,
      "winning": 8028,
      "ulty": 8029,
      "useum": 8030,
      "bat": 8031,
      "ye": 8032,
      "defense": 8033,
      "çļĦå®īåħ¨": 8034,
      "idents": 8035,
      "Chic": 8036,
      "å¯»æī¾": 8037,
      "ations.": 8038,
      "åİŁå§ĭ": 8039,
      "FIG.": 8040,
      "overall": 8041,
      "åĽ½åĬ¡": 8042,
      "Bur": 8043,
      "assess": 8044,
      "è¡¨æ¼Ķ": 8045,
      "çĬ¬": 8046,
      "æĶ¶çĽĬ": 8047,
      "èĩªè¡Į": 8048,
      "land,": 8049,
      "éĿ¢ä¸´": 8050,
      "åĪĩï¼ĮðłĢ¤éŁ³": 8051,
      "CPU": 8052,
      "French": 8053,
      "rian": 8054,
      "èĪĩ": 8055,
      "Phone": 8056,
      "ht": 8057,
      "éĹ´çļĦ": 8058,
      "ä¸įçŁ¥": 8059,
      "Mill": 8060,
      "-time": 8061,
      "ï¼Įå¯¼èĩ´": 8062,
      "mechan": 8063,
      "traditional": 8064,
      "Like": 8065,
      "éģĵçĲĨ": 8066,
      "èĩªä¿¡": 8067,
[...]
